#ifndef MODEL_DATA_H_
#define MODEL_DATA_H_

const unsigned char mlp_model[] = {
  0x1c, 0x00, 0x00, 0x00, 0x54, 0x46, 0x4c, 0x33, 0x14, 0x00, 0x20, 0x00, 
  0x1c, 0x00, 0x18, 0x00, 0x14, 0x00, 0x10, 0x00, 0x0c, 0x00, 0x00, 0x00, 
  0x08, 0x00, 0x04, 0x00, 0x14, 0x00, 0x00, 0x00, 0x1c, 0x00, 0x00, 0x00, 
  0x8c, 0x00, 0x00, 0x00, 0xe4, 0x00, 0x00, 0x00, 0x54, 0x3e, 0x00, 0x00, 
  0x64, 0x3e, 0x00, 0x00, 0x40, 0x49, 0x00, 0x00, 0x03, 0x00, 0x00, 0x00, 
  0x01, 0x00, 0x00, 0x00, 0x04, 0x00, 0x00, 0x00, 0x5a, 0xc1, 0xff, 0xff, 
  0x0c, 0x00, 0x00, 0x00, 0x1c, 0x00, 0x00, 0x00, 0x40, 0x00, 0x00, 0x00, 
  0x0f, 0x00, 0x00, 0x00, 0x73, 0x65, 0x72, 0x76, 0x69, 0x6e, 0x67, 0x5f, 
  0x64, 0x65, 0x66, 0x61, 0x75, 0x6c, 0x74, 0x00, 0x01, 0x00, 0x00, 0x00, 
  0x04, 0x00, 0x00, 0x00, 0x90, 0xff, 0xff, 0xff, 0x0b, 0x00, 0x00, 0x00, 
  0x04, 0x00, 0x00, 0x00, 0x0d, 0x00, 0x00, 0x00, 0x71, 0x75, 0x61, 0x6e, 
  0x74, 0x5f, 0x64, 0x65, 0x6e, 0x73, 0x65, 0x5f, 0x32, 0x00, 0x00, 0x00, 
  0x01, 0x00, 0x00, 0x00, 0x04, 0x00, 0x00, 0x00, 0x36, 0xc2, 0xff, 0xff, 
  0x04, 0x00, 0x00, 0x00, 0x0b, 0x00, 0x00, 0x00, 0x64, 0x65, 0x6e, 0x73, 
  0x65, 0x5f, 0x69, 0x6e, 0x70, 0x75, 0x74, 0x00, 0x02, 0x00, 0x00, 0x00, 
  0x34, 0x00, 0x00, 0x00, 0x04, 0x00, 0x00, 0x00, 0xdc, 0xff, 0xff, 0xff, 
  0x0e, 0x00, 0x00, 0x00, 0x04, 0x00, 0x00, 0x00, 0x13, 0x00, 0x00, 0x00, 
  0x43, 0x4f, 0x4e, 0x56, 0x45, 0x52, 0x53, 0x49, 0x4f, 0x4e, 0x5f, 0x4d, 
  0x45, 0x54, 0x41, 0x44, 0x41, 0x54, 0x41, 0x00, 0x08, 0x00, 0x0c, 0x00, 
  0x08, 0x00, 0x04, 0x00, 0x08, 0x00, 0x00, 0x00, 0x0d, 0x00, 0x00, 0x00, 
  0x04, 0x00, 0x00, 0x00, 0x13, 0x00, 0x00, 0x00, 0x6d, 0x69, 0x6e, 0x5f, 
  0x72, 0x75, 0x6e, 0x74, 0x69, 0x6d, 0x65, 0x5f, 0x76, 0x65, 0x72, 0x73, 
  0x69, 0x6f, 0x6e, 0x00, 0x0f, 0x00, 0x00, 0x00, 0x6c, 0x3d, 0x00, 0x00, 
  0x64, 0x3d, 0x00, 0x00, 0x50, 0x3d, 0x00, 0x00, 0xf8, 0x3c, 0x00, 0x00, 
  0xe8, 0x3b, 0x00, 0x00, 0xd8, 0x1b, 0x00, 0x00, 0xd0, 0x1b, 0x00, 0x00, 
  0xc0, 0x02, 0x00, 0x00, 0xb0, 0x00, 0x00, 0x00, 0xa8, 0x00, 0x00, 0x00, 
  0xa0, 0x00, 0x00, 0x00, 0x98, 0x00, 0x00, 0x00, 0x90, 0x00, 0x00, 0x00, 
  0x70, 0x00, 0x00, 0x00, 0x04, 0x00, 0x00, 0x00, 0xea, 0xc2, 0xff, 0xff, 
  0x04, 0x00, 0x00, 0x00, 0x5c, 0x00, 0x00, 0x00, 0x0c, 0x00, 0x00, 0x00, 
  0x08, 0x00, 0x0e, 0x00, 0x08, 0x00, 0x04, 0x00, 0x08, 0x00, 0x00, 0x00, 
  0x10, 0x00, 0x00, 0x00, 0x2c, 0x00, 0x00, 0x00, 0x00, 0x00, 0x06, 0x00, 
  0x08, 0x00, 0x04, 0x00, 0x06, 0x00, 0x00, 0x00, 0x04, 0x00, 0x00, 0x00, 
  0x02, 0x00, 0x00, 0x00, 0xeb, 0x03, 0x00, 0x00, 0xd0, 0x07, 0x00, 0x00, 
  0x00, 0x00, 0x0a, 0x00, 0x10, 0x00, 0x0c, 0x00, 0x08, 0x00, 0x04, 0x00, 
  0x0a, 0x00, 0x00, 0x00, 0x02, 0x00, 0x00, 0x00, 0x02, 0x00, 0x00, 0x00, 
  0x04, 0x00, 0x00, 0x00, 0x06, 0x00, 0x00, 0x00, 0x32, 0x2e, 0x31, 0x30, 
  0x2e, 0x31, 0x00, 0x00, 0x52, 0xc3, 0xff, 0xff, 0x04, 0x00, 0x00, 0x00, 
  0x10, 0x00, 0x00, 0x00, 0x31, 0x2e, 0x31, 0x34, 0x2e, 0x30, 0x00, 0x00, 
  0x00, 0x00, 0x00, 0x00, 0x00, 0x00, 0x00, 0x00, 0x94, 0xb8, 0xff, 0xff, 
  0x98, 0xb8, 0xff, 0xff, 0x9c, 0xb8, 0xff, 0xff, 0xa0, 0xb8, 0xff, 0xff, 
  0x7e, 0xc3, 0xff, 0xff, 0x04, 0x00, 0x00, 0x00, 0x00, 0x02, 0x00, 0x00, 
  0xa7, 0x50, 0x1d, 0x31, 0x86, 0x23, 0xdc, 0x17, 0x36, 0x7d, 0xea, 0xf1, 
  0xd1, 0x10, 0xaa, 0x2a, 0x0b, 0x72, 0x3b, 0x0e, 0x27, 0x8b, 0xdc, 0x3e, 
  0x24, 0x75, 0x23, 0x38, 0xec, 0x8a, 0x95, 0x1d, 0x77, 0xb2, 0x66, 0x17, 
  0x29, 0x6c, 0x16, 0x0d, 0x4f, 0x11, 0x1b, 0x1b, 0x72, 0x5d, 0xd2, 0x31, 
  0x18, 0x8c, 0x38, 0x26, 0xb6, 0xd0, 0x2b, 0x24, 0xd8, 0x84, 0x28, 0xdb, 
  0x8f, 0x61, 0xd6, 0x02, 0x62, 0x06, 0x9d, 0x21, 0xb2, 0xb0, 0x82, 0x1e, 
  0x9a, 0x65, 0xe0, 0xf7, 0x01, 0x55, 0x73, 0xe4, 0x3b, 0xc9, 0x18, 0xf6, 
  0x4e, 0x10, 0xc2, 0x05, 0xce, 0x18, 0xae, 0xcb, 0x1d, 0xac, 0x7b, 0x1c, 
  0x13, 0x39, 0xe5, 0x4c, 0x4a, 0xd7, 0x47, 0xc6, 0x58, 0x8a, 0x22, 0xf8, 
  0x9c, 0xf1, 0x1a, 0x10, 0xb6, 0x55, 0x19, 0x2c, 0x25, 0x69, 0x7f, 0x10, 
  0x94, 0x0a, 0x59, 0x2c, 0x32, 0x89, 0x22, 0x5c, 0xd7, 0x3b, 0xd5, 0xd6, 
  0x5e, 0x3a, 0xe3, 0xf9, 0xe1, 0x46, 0x74, 0x4a, 0x82, 0x48, 0xc5, 0x39, 
  0x4f, 0x6d, 0x1a, 0x24, 0x12, 0x15, 0xd4, 0xc8, 0x57, 0xd7, 0x02, 0x0a, 
  0xe1, 0x7a, 0xa8, 0xf5, 0xdd, 0xc1, 0x32, 0x35, 0x5f, 0x85, 0xee, 0x19, 
  0x25, 0x0e, 0x2f, 0xe4, 0x0b, 0xe4, 0xff, 0x23, 0xd8, 0xf9, 0x5a, 0x04, 
  0xf8, 0x87, 0x1e, 0x4e, 0x6a, 0xe7, 0x85, 0x1b, 0x8d, 0xf1, 0x81, 0x13, 
  0x49, 0x36, 0x92, 0x1b, 0xec, 0x74, 0xde, 0x0e, 0x35, 0xe8, 0x2b, 0x3a, 
  0xe5, 0x6f, 0x2e, 0x27, 0x90, 0x86, 0x87, 0x14, 0x3b, 0xd8, 0xa3, 0x50, 
  0xa8, 0x2c, 0x23, 0x0a, 0x57, 0xea, 0x21, 0x1f, 0xc4, 0x4f, 0x0d, 0x2a, 
  0xd4, 0x7d, 0x9c, 0xf2, 0xb2, 0xa5, 0xaa, 0xdb, 0xe0, 0xa7, 0xb2, 0x2b, 
  0xca, 0x17, 0xda, 0x05, 0x97, 0x0d, 0x47, 0x13, 0xfd, 0x7c, 0x66, 0xfe, 
  0x89, 0xdc, 0x6b, 0x28, 0xde, 0xad, 0x05, 0x1a, 0x6d, 0x69, 0x2f, 0x6b, 
  0xa4, 0xe3, 0xc9, 0x13, 0xea, 0x62, 0x90, 0x26, 0x02, 0x03, 0xef, 0x36, 
  0x45, 0x70, 0x55, 0xf6, 0x5f, 0x91, 0x87, 0x06, 0x67, 0x38, 0xd6, 0x03, 
  0x0f, 0x4b, 0x6a, 0x02, 0xe8, 0x91, 0x16, 0x2a, 0x91, 0x7c, 0x73, 0xff, 
  0x1e, 0x94, 0xf9, 0xef, 0x86, 0x29, 0xfd, 0x20, 0x49, 0xb6, 0x0b, 0xfa, 
  0x7d, 0x10, 0x1e, 0x0b, 0x01, 0x51, 0x5d, 0xf6, 0xc3, 0xb6, 0x4f, 0x11, 
  0x0e, 0x04, 0x26, 0x2e, 0x94, 0x0a, 0x2f, 0x00, 0x81, 0x5a, 0x56, 0x0e, 
  0x0a, 0x99, 0x90, 0x21, 0xfa, 0x9a, 0x2f, 0xed, 0x53, 0x65, 0xc2, 0x47, 
  0x9a, 0x7c, 0x29, 0xf9, 0x25, 0x8f, 0x4a, 0x08, 0x23, 0xc0, 0xd6, 0x3b, 
  0x63, 0x32, 0xff, 0xec, 0x5c, 0x38, 0x98, 0xda, 0x8e, 0xef, 0x08, 0x2b, 
  0xd5, 0x1e, 0x06, 0xf7, 0x3a, 0x32, 0xac, 0x33, 0x87, 0x4e, 0xa1, 0x19, 
  0x57, 0x12, 0x68, 0x17, 0x16, 0xed, 0xd3, 0xff, 0x0f, 0x97, 0x03, 0xf6, 
  0x18, 0xcd, 0xfe, 0x0a, 0x28, 0x1e, 0xe7, 0xfc, 0xae, 0xa8, 0x46, 0xf9, 
  0xee, 0x64, 0xeb, 0x10, 0xd7, 0xb6, 0xf0, 0x32, 0x69, 0x3a, 0x74, 0x29, 
  0x09, 0xa5, 0xf1, 0x1d, 0x32, 0x67, 0x4a, 0x26, 0x51, 0x74, 0x86, 0xe5, 
  0x6e, 0x55, 0x0f, 0xf7, 0xd9, 0x95, 0x5a, 0x21, 0x32, 0x22, 0x21, 0x44, 
  0xfa, 0xe8, 0x40, 0x33, 0xe6, 0x1c, 0x91, 0x00, 0xcc, 0x1c, 0x75, 0xed, 
  0x03, 0x3f, 0xbf, 0x0b, 0x0c, 0xbf, 0x7b, 0xe1, 0xfc, 0xef, 0x77, 0xd9, 
  0x4c, 0xef, 0xdd, 0xf4, 0xe8, 0x92, 0x9d, 0x0a, 0x31, 0xbd, 0x23, 0x3b, 
  0xc6, 0xf9, 0xe2, 0xeb, 0x42, 0xce, 0xff, 0x17, 0x1c, 0x2b, 0xe7, 0x24, 
  0xbc, 0xd7, 0x06, 0x03, 0xce, 0x7d, 0x0d, 0x05, 0x72, 0x1a, 0xd5, 0x03, 
  0x57, 0x3f, 0x52, 0x57, 0x47, 0x11, 0x4f, 0xfb, 0x8a, 0xc5, 0xff, 0xff, 
  0x04, 0x00, 0x00, 0x00, 0x00, 0x19, 0x00, 0x00, 0xfb, 0xfe, 0xfe, 0x04, 
  0x06, 0x04, 0xfc, 0xff, 0x01, 0x01, 0x04, 0x03, 0x01, 0xff, 0xfb, 0x02, 
  0xfd, 0xfa, 0x05, 0xfd, 0xfd, 0x02, 0xff, 0xfb, 0x02, 0xfc, 0x00, 0x04, 
  0x04, 0xff, 0x02, 0xfa, 0x03, 0x00, 0x01, 0x02, 0x04, 0x05, 0x01, 0xfc, 
  0xfe, 0x01, 0xfd, 0x02, 0x01, 0xfe, 0xfe, 0xfd, 0x03, 0xfe, 0x01, 0x03, 
  0x05, 0xfe, 0xfc, 0xfd, 0x04, 0xf9, 0x02, 0x01, 0x01, 0xff, 0x01, 0x02, 
  0x00, 0x02, 0xff, 0x01, 0xfd, 0xff, 0xfe, 0x05, 0x01, 0xfb, 0x01, 0xfc, 
  0x01, 0xfc, 0xfe, 0x04, 0xff, 0x03, 0xfb, 0x02, 0xfe, 0x05, 0x00, 0xfe, 
  0x02, 0x01, 0x01, 0xff, 0x00, 0x02, 0xfe, 0xfd, 0xfc, 0x03, 0xfe, 0xfd, 
  0xff, 0x00, 0xfc, 0x05, 0x03, 0x04, 0x04, 0x04, 0x00, 0xff, 0x05, 0xff, 
  0xfb, 0xfd, 0xfd, 0xfc, 0xff, 0xfb, 0x05, 0xfe, 0x06, 0xfb, 0xfc, 0xfe, 
  0x01, 0x02, 0x01, 0x04, 0x00, 0xfd, 0x06, 0x04, 0x00, 0xfd, 0x00, 0xff, 
  0x03, 0x01, 0x03, 0x03, 0xfe, 0x03, 0xff, 0x02, 0xfd, 0xff, 0xfc, 0xff, 
  0xff, 0x02, 0xfe, 0xff, 0xff, 0x03, 0x08, 0x08, 0x05, 0x05, 0x00, 0xfa, 
  0x03, 0xfd, 0xfb, 0xfe, 0x02, 0x00, 0xff, 0xfb, 0x01, 0xfe, 0xfe, 0x02, 
  0x03, 0x05, 0xff, 0xfe, 0x01, 0x01, 0xfe, 0x04, 0x02, 0xff, 0x01, 0xfc, 
  0x04, 0x04, 0xfc, 0x03, 0x02, 0x02, 0x03, 0x00, 0x01, 0x00, 0x01, 0xfe, 
  0x04, 0x02, 0x06, 0x02, 0xfd, 0x00, 0xfd, 0x03, 0x00, 0x06, 0xfb, 0xfe, 
  0x03, 0x03, 0x01, 0xfc, 0x02, 0xfb, 0x01, 0xfb, 0x01, 0xfb, 0xfe, 0xfe, 
  0xff, 0x06, 0xff, 0x02, 0x00, 0x01, 0x04, 0x06, 0x01, 0xfb, 0x01, 0x00, 
  0xff, 0x01, 0x03, 0xff, 0x01, 0xff, 0xff, 0xfe, 0xfc, 0x01, 0xfe, 0xfd, 
  0x02, 0x02, 0x01, 0xfb, 0x00, 0x02, 0xfe, 0xfe, 0xfa, 0x02, 0x06, 0x05, 
  0xfe, 0x02, 0xfc, 0xfe, 0x03, 0x03, 0xfb, 0x01, 0x02, 0x04, 0xff, 0x01, 
  0xfd, 0xfe, 0x00, 0x06, 0x02, 0xfd, 0xff, 0xfc, 0xfd, 0x04, 0xfd, 0xfe, 
  0x00, 0x01, 0x00, 0x03, 0x01, 0xfc, 0xfa, 0x03, 0x05, 0x01, 0x02, 0x05, 
  0xff, 0x02, 0x00, 0x08, 0xfe, 0x00, 0xfe, 0xff, 0x02, 0x01, 0x04, 0xfd, 
  0xfe, 0xfa, 0x02, 0xfa, 0xff, 0x00, 0x03, 0x04, 0x03, 0xfc, 0x01, 0xff, 
  0xfe, 0x06, 0x01, 0x04, 0x04, 0x00, 0xff, 0x02, 0x02, 0xff, 0x02, 0x01, 
  0x00, 0x03, 0xfe, 0xfb, 0xfc, 0xfd, 0xff, 0xfe, 0xfe, 0xfb, 0xfd, 0x05, 
  0xff, 0xfc, 0xfd, 0x02, 0x01, 0x01, 0x03, 0x01, 0xff, 0xfe, 0x01, 0x01, 
  0x05, 0xfa, 0xfa, 0xfb, 0x00, 0xfc, 0xfd, 0xff, 0xff, 0x01, 0x02, 0xfb, 
  0xfd, 0x01, 0xfc, 0x03, 0x02, 0xff, 0x03, 0xfd, 0xff, 0x00, 0xff, 0x05, 
  0x01, 0x00, 0xfe, 0xff, 0x01, 0xff, 0xfc, 0xfe, 0xfe, 0x01, 0xfe, 0xfb, 
  0x02, 0xff, 0x02, 0x01, 0x03, 0x02, 0xfe, 0x00, 0xfd, 0xfd, 0xff, 0x02, 
  0xfd, 0xff, 0xfb, 0x02, 0x01, 0x05, 0x00, 0x00, 0xfe, 0xff, 0x05, 0x03, 
  0xfd, 0x01, 0xfc, 0xfa, 0x02, 0xfb, 0xff, 0x04, 0x03, 0x00, 0xfc, 0x01, 
  0x03, 0xff, 0xfa, 0x05, 0x04, 0xfc, 0x05, 0xfe, 0x06, 0xfc, 0x07, 0xfa, 
  0x04, 0xfd, 0x02, 0xfa, 0x02, 0x01, 0xff, 0xfd, 0x02, 0x01, 0xfe, 0x01, 
  0xfd, 0xfa, 0x02, 0x01, 0x03, 0xfc, 0xff, 0xfb, 0xfe, 0xf7, 0xfb, 0x00, 
  0xfe, 0x04, 0x05, 0x00, 0xfb, 0x02, 0xfb, 0xff, 0x03, 0x03, 0x01, 0xfb, 
  0x03, 0x02, 0x01, 0x03, 0xff, 0xfd, 0xfa, 0x02, 0xfb, 0xfb, 0xff, 0xff, 
  0xfa, 0x05, 0x02, 0xfb, 0x00, 0x01, 0xfe, 0xfe, 0xff, 0x01, 0xff, 0xfc, 
  0xff, 0xfe, 0x03, 0xff, 0x00, 0xff, 0xfd, 0x07, 0x03, 0x09, 0xff, 0x07, 
  0x01, 0xff, 0x03, 0xfd, 0x03, 0x04, 0x07, 0xfe, 0x03, 0xfc, 0x04, 0xfd, 
  0x00, 0xff, 0xfe, 0x01, 0x00, 0x02, 0x05, 0x05, 0x05, 0x01, 0x04, 0x04, 
  0x03, 0xfe, 0xff, 0x00, 0xff, 0xfe, 0xff, 0xfb, 0xfd, 0xff, 0x02, 0xf9, 
  0x03, 0x01, 0xfa, 0xff, 0xf8, 0xfe, 0x00, 0xff, 0xfe, 0x08, 0x03, 0x04, 
  0xfb, 0x06, 0x02, 0xfd, 0x01, 0x03, 0xfc, 0x04, 0x03, 0xfb, 0x05, 0xfb, 
  0x00, 0x00, 0xfc, 0x00, 0x02, 0x00, 0x02, 0x06, 0x02, 0x04, 0x02, 0x03, 
  0x00, 0xfb, 0xff, 0x05, 0x02, 0xff, 0x02, 0x03, 0xfe, 0x00, 0x04, 0xff, 
  0xfd, 0xfc, 0xfe, 0x01, 0xfe, 0xff, 0x00, 0x00, 0x01, 0x01, 0x08, 0xff, 
  0xff, 0xfc, 0x02, 0x01, 0x01, 0x03, 0x01, 0x03, 0xfe, 0x04, 0x01, 0x00, 
  0xfa, 0x02, 0x03, 0x00, 0xfd, 0x01, 0x01, 0x01, 0xff, 0xfb, 0x01, 0x04, 
  0xfe, 0x01, 0xfd, 0xff, 0xfb, 0xfd, 0x00, 0xfe, 0x01, 0x01, 0xfc, 0x04, 
  0x04, 0xff, 0x02, 0x01, 0xfd, 0x01, 0x00, 0x05, 0x01, 0xfc, 0x00, 0x00, 
  0xfe, 0x03, 0x04, 0x01, 0xff, 0x00, 0xfc, 0xff, 0x02, 0x01, 0xfe, 0x01, 
  0x00, 0xfc, 0x07, 0xf3, 0xf8, 0xfb, 0xfb, 0x02, 0x03, 0x07, 0x02, 0x02, 
  0x01, 0x02, 0x04, 0xff, 0x04, 0xfc, 0xff, 0x05, 0x01, 0xff, 0xf8, 0x02, 
  0xfa, 0x01, 0xfc, 0x04, 0xfe, 0x01, 0x01, 0x00, 0xfc, 0x01, 0x03, 0x01, 
  0xfe, 0xff, 0xfd, 0xfe, 0x04, 0x06, 0xfc, 0x03, 0x04, 0x03, 0xfe, 0x01, 
  0xf7, 0x05, 0x01, 0xfc, 0x01, 0x00, 0x01, 0xfe, 0x01, 0x00, 0xf9, 0xfd, 
  0x06, 0x03, 0x06, 0x03, 0x05, 0x01, 0xff, 0x02, 0x04, 0xfe, 0x06, 0x02, 
  0x01, 0x01, 0x03, 0x06, 0xfe, 0x02, 0xfd, 0x04, 0x02, 0x05, 0xfd, 0xf8, 
  0xfc, 0x04, 0x01, 0x00, 0x05, 0xfb, 0xfa, 0xf8, 0x01, 0xfa, 0x00, 0x02, 
  0xfd, 0xff, 0xfd, 0x00, 0xfd, 0x03, 0xfc, 0x06, 0xff, 0x03, 0xfd, 0xff, 
  0x02, 0xff, 0x04, 0x01, 0xfc, 0xfd, 0xff, 0xfe, 0xfc, 0x00, 0xff, 0xff, 
  0xfc, 0xfe, 0x01, 0x03, 0xfc, 0x01, 0x01, 0xfd, 0x01, 0x03, 0xff, 0xf9, 
  0xff, 0x00, 0x04, 0xfc, 0x01, 0xfe, 0xfa, 0x04, 0xfe, 0x00, 0x01, 0xff, 
  0x01, 0xfc, 0xfe, 0x02, 0x00, 0x05, 0x01, 0x03, 0x03, 0x01, 0xfd, 0x04, 
  0x02, 0x02, 0xf9, 0x01, 0x00, 0x00, 0xff, 0x04, 0x04, 0xfe, 0xff, 0x02, 
  0x01, 0x01, 0x00, 0xfd, 0xfe, 0x01, 0x02, 0xfe, 0x00, 0xff, 0x02, 0x04, 
  0x04, 0xfc, 0x02, 0x02, 0xff, 0xfe, 0x01, 0x01, 0x06, 0xfb, 0x01, 0xfc, 
  0xfe, 0x00, 0x03, 0x01, 0xfb, 0x03, 0x01, 0x04, 0xfc, 0x03, 0xfd, 0x0c, 
  0x01, 0xff, 0x06, 0x02, 0x01, 0x05, 0x03, 0xfe, 0xfb, 0x03, 0x04, 0x03, 
  0xff, 0x02, 0x02, 0xfd, 0xf9, 0xff, 0xff, 0xfa, 0x00, 0x05, 0xfe, 0x02, 
  0xff, 0xff, 0xfe, 0x03, 0x04, 0x02, 0x03, 0xfe, 0x03, 0x01, 0xfb, 0xfe, 
  0x00, 0x02, 0x01, 0xff, 0x04, 0x04, 0x01, 0x02, 0x04, 0x07, 0x00, 0xfd, 
  0xfd, 0x04, 0xfc, 0x00, 0xff, 0x00, 0x07, 0x01, 0x04, 0xff, 0xfe, 0x02, 
  0x02, 0xfe, 0x00, 0x01, 0xff, 0x01, 0x00, 0x03, 0x05, 0xfe, 0xff, 0x02, 
  0x06, 0x02, 0xfe, 0x05, 0xfc, 0xff, 0x02, 0xfe, 0x01, 0xfd, 0xff, 0xff, 
  0xfe, 0x08, 0x00, 0x06, 0xfe, 0x03, 0x04, 0x04, 0x00, 0x00, 0xff, 0x05, 
  0x03, 0xfc, 0x01, 0xfd, 0xf7, 0xfe, 0xfd, 0x07, 0xfe, 0xfe, 0xfd, 0x00, 
  0x03, 0x07, 0x05, 0xfe, 0x02, 0x05, 0x02, 0x08, 0x02, 0xfe, 0xff, 0xfe, 
  0x01, 0x02, 0x01, 0xfc, 0xfd, 0x00, 0x01, 0x03, 0x00, 0x03, 0xfe, 0xff, 
  0x01, 0x01, 0x03, 0xfb, 0xf9, 0xf7, 0x01, 0xfa, 0x01, 0xff, 0x00, 0xff, 
  0xff, 0x00, 0xf7, 0x04, 0xfe, 0x04, 0x00, 0x00, 0x03, 0x01, 0x02, 0xff, 
  0xfe, 0x02, 0xfd, 0x02, 0xfc, 0x01, 0xfb, 0x00, 0xfb, 0x00, 0xfd, 0x00, 
  0x01, 0x01, 0xfe, 0xff, 0xff, 0xfc, 0x01, 0x03, 0xfd, 0x02, 0xfb, 0xfd, 
  0xfc, 0x01, 0x00, 0xfd, 0xfb, 0x02, 0x04, 0x01, 0xfe, 0x01, 0xfe, 0x01, 
  0x03, 0xfe, 0xfc, 0xfe, 0x00, 0xff, 0xfc, 0x00, 0xfb, 0xfe, 0xfe, 0xfb, 
  0xfc, 0xfd, 0x02, 0xf9, 0x05, 0xff, 0xfe, 0x02, 0x02, 0x04, 0xfd, 0x03, 
  0xfb, 0xfd, 0x02, 0x03, 0x01, 0x00, 0xff, 0xfe, 0x02, 0x07, 0x02, 0xfd, 
  0xfe, 0x04, 0xff, 0x05, 0x02, 0xfb, 0xff, 0xff, 0x01, 0xfb, 0xfd, 0x00, 
  0x01, 0xff, 0xfd, 0x02, 0x00, 0xfb, 0x00, 0xfa, 0x01, 0x03, 0xfe, 0x01, 
  0x01, 0xfd, 0x00, 0x03, 0xff, 0xfc, 0x00, 0x02, 0x02, 0xfd, 0x00, 0x02, 
  0xfd, 0x06, 0xff, 0xff, 0x01, 0x04, 0xff, 0x00, 0xfa, 0x00, 0x06, 0xff, 
  0x04, 0x02, 0x01, 0xff, 0x04, 0xfc, 0xfe, 0xff, 0xfd, 0x05, 0x00, 0x05, 
  0xfe, 0x03, 0x00, 0xfd, 0x01, 0x01, 0x02, 0x03, 0x04, 0xfe, 0x04, 0xfa, 
  0xfd, 0x01, 0xfc, 0x01, 0xfe, 0xfb, 0x00, 0xfc, 0x09, 0x01, 0x04, 0xff, 
  0x02, 0x03, 0xfe, 0x01, 0x02, 0xff, 0xfd, 0xff, 0xfd, 0x01, 0xfd, 0x01, 
  0x04, 0xff, 0x03, 0x00, 0xfc, 0xfe, 0x00, 0x05, 0xfe, 0xff, 0xfa, 0x04, 
  0x01, 0x05, 0xfe, 0x05, 0xfc, 0xfe, 0xfe, 0x01, 0x00, 0xfd, 0x06, 0xfb, 
  0x04, 0x01, 0xf8, 0xfb, 0x00, 0x06, 0x01, 0x00, 0x06, 0xfe, 0xff, 0xfd, 
  0x04, 0x01, 0x01, 0x04, 0x06, 0xfe, 0x02, 0x06, 0x04, 0x01, 0x04, 0xfb, 
  0x04, 0x03, 0xfc, 0x02, 0x02, 0x05, 0x00, 0xfe, 0xfe, 0xfa, 0x04, 0x01, 
  0x02, 0xfc, 0xfd, 0xfa, 0xff, 0xfa, 0xfc, 0xff, 0xfb, 0x01, 0x06, 0x02, 
  0xfe, 0xff, 0xfc, 0x06, 0x01, 0x01, 0xfe, 0xf7, 0x00, 0x00, 0x00, 0x02, 
  0x00, 0xff, 0xff, 0xff, 0xfd, 0xfe, 0x01, 0xff, 0x02, 0x03, 0x02, 0x01, 
  0x03, 0x02, 0x03, 0xff, 0xfc, 0x05, 0x01, 0xfe, 0x00, 0x02, 0x00, 0xfd, 
  0x01, 0xff, 0x05, 0xfc, 0xfa, 0xfa, 0x00, 0xf9, 0xfe, 0xff, 0x01, 0x02, 
  0x03, 0x00, 0xff, 0x04, 0x00, 0x06, 0x02, 0xff, 0x01, 0x01, 0x01, 0x02, 
  0xfd, 0xfd, 0xfe, 0x03, 0x00, 0xff, 0xfe, 0x01, 0xfc, 0xfe, 0x03, 0xfe, 
  0xfd, 0xff, 0xfe, 0x03, 0x00, 0xfa, 0x00, 0x06, 0x00, 0xfc, 0x03, 0xfc, 
  0xfc, 0xf9, 0x04, 0xfe, 0xfc, 0x01, 0x03, 0x01, 0xff, 0xfd, 0x03, 0x01, 
  0x01, 0xff, 0xfe, 0x02, 0xfd, 0x01, 0x03, 0xfe, 0x06, 0x04, 0x03, 0xfb, 
  0x04, 0x05, 0x00, 0xfd, 0x01, 0x03, 0x02, 0xff, 0xfe, 0x00, 0xfe, 0x02, 
  0x03, 0xfc, 0x00, 0xfb, 0x04, 0x03, 0xfc, 0xfd, 0x02, 0xff, 0xfe, 0xfb, 
  0x06, 0xfe, 0x00, 0x03, 0xff, 0xfe, 0xfc, 0xff, 0x01, 0x02, 0x04, 0xff, 
  0x05, 0x02, 0x06, 0x02, 0x02, 0xff, 0x01, 0xfb, 0x00, 0x00, 0x05, 0xfe, 
  0x00, 0x01, 0x00, 0x02, 0x05, 0x04, 0xff, 0x03, 0x00, 0x03, 0x01, 0xfc, 
  0xfd, 0xfe, 0x04, 0x02, 0xfb, 0x04, 0xff, 0x02, 0xfe, 0x03, 0xff, 0xfb, 
  0x02, 0x04, 0x01, 0x05, 0x05, 0xfe, 0xff, 0xff, 0xfd, 0x05, 0x06, 0x05, 
  0x00, 0x04, 0x02, 0x00, 0xfd, 0xfe, 0xfe, 0x02, 0x06, 0xff, 0x05, 0xff, 
  0x02, 0xfa, 0xfe, 0x02, 0xfd, 0xfe, 0xff, 0x04, 0xfe, 0x02, 0xfe, 0x00, 
  0x07, 0x00, 0xff, 0xfe, 0x03, 0x04, 0x00, 0x01, 0x07, 0x03, 0x07, 0x02, 
  0xfe, 0xfe, 0x05, 0x03, 0x04, 0x03, 0x03, 0x04, 0x00, 0xff, 0x03, 0xf9, 
  0xfb, 0xf9, 0x01, 0xfd, 0xfd, 0x00, 0xfc, 0xff, 0xfd, 0xfe, 0xfb, 0x00, 
  0xfe, 0x07, 0x00, 0x01, 0xff, 0xfe, 0xfe, 0xff, 0x02, 0x02, 0xff, 0x02, 
  0xfa, 0x01, 0xfb, 0xfe, 0xfd, 0x02, 0x01, 0xff, 0x02, 0x01, 0xfd, 0x02, 
  0xff, 0x02, 0x01, 0x03, 0xfb, 0xfc, 0x01, 0x05, 0xfe, 0xfb, 0x00, 0x01, 
  0x05, 0xfb, 0xf8, 0xf9, 0xfe, 0xfd, 0xff, 0x00, 0x02, 0x01, 0x01, 0xfd, 
  0xfc, 0xff, 0xf9, 0x04, 0x02, 0x03, 0xff, 0xfa, 0x04, 0x01, 0x04, 0x00, 
  0xfd, 0xff, 0x04, 0xff, 0x06, 0x04, 0x01, 0x00, 0xf9, 0x02, 0x00, 0x02, 
  0x00, 0xfd, 0x03, 0xfd, 0x00, 0x04, 0xfd, 0xfd, 0x01, 0x00, 0x03, 0xfb, 
  0x02, 0x01, 0x04, 0xfa, 0xfd, 0xfd, 0x00, 0xfe, 0xfd, 0x06, 0xfc, 0x01, 
  0x08, 0xff, 0xfb, 0x02, 0xff, 0x09, 0xfc, 0xfe, 0xff, 0xfc, 0x03, 0x02, 
  0x00, 0xfe, 0x00, 0xff, 0xff, 0x01, 0x01, 0xfe, 0xfe, 0xfe, 0x00, 0x04, 
  0x01, 0x00, 0x03, 0xff, 0x00, 0x04, 0x03, 0x07, 0xfe, 0xff, 0xff, 0x01, 
  0xfc, 0xfd, 0xff, 0xff, 0xfc, 0x05, 0x06, 0x06, 0x00, 0x04, 0x01, 0x03, 
  0x02, 0x00, 0xff, 0x02, 0x01, 0xff, 0x04, 0xf8, 0xff, 0xfe, 0x01, 0x00, 
  0x01, 0x01, 0x05, 0x03, 0xfd, 0xff, 0xff, 0x00, 0x01, 0xfb, 0x05, 0x01, 
  0x03, 0x04, 0xfe, 0xfa, 0x05, 0x00, 0x02, 0x06, 0xfc, 0x02, 0xfb, 0x05, 
  0xfd, 0xfc, 0x04, 0x01, 0xfe, 0xff, 0xfc, 0x02, 0x05, 0x07, 0x03, 0xfe, 
  0xfc, 0xfd, 0xfc, 0xfb, 0xfe, 0x00, 0x01, 0x03, 0xfd, 0xff, 0xfd, 0x02, 
  0x04, 0x00, 0xfd, 0x01, 0xff, 0x01, 0x05, 0x02, 0x06, 0xfd, 0x02, 0xf9, 
  0x03, 0xfb, 0x02, 0x06, 0x04, 0xfe, 0x01, 0xfe, 0xff, 0x06, 0xfd, 0x00, 
  0xff, 0x08, 0x03, 0xfe, 0xfd, 0x06, 0x00, 0xfe, 0xfe, 0x05, 0x06, 0x0a, 
  0x01, 0x04, 0x00, 0x03, 0x04, 0x04, 0xfe, 0x02, 0x02, 0x01, 0x05, 0xfe, 
  0xff, 0x03, 0xfd, 0xfa, 0x00, 0xfe, 0xf7, 0x00, 0x03, 0x02, 0x00, 0x03, 
  0x00, 0xfe, 0x00, 0x01, 0x04, 0x01, 0x03, 0xfe, 0x04, 0xfd, 0x08, 0x03, 
  0x02, 0xfc, 0x00, 0x02, 0x03, 0xfa, 0xfc, 0xf8, 0x01, 0x01, 0x03, 0xfa, 
  0xfc, 0xfc, 0xfe, 0xfb, 0xff, 0x01, 0xfc, 0x05, 0x02, 0x01, 0xfc, 0x01, 
  0x01, 0x06, 0x06, 0x01, 0x02, 0x05, 0x03, 0x00, 0xfe, 0x01, 0xff, 0xfd, 
  0xfd, 0x02, 0xfe, 0x07, 0xfa, 0x01, 0x00, 0xff, 0x01, 0xf8, 0x00, 0x02, 
  0xfb, 0x02, 0x01, 0x05, 0xf8, 0xfd, 0x03, 0xfe, 0x00, 0xfd, 0x00, 0xfa, 
  0x00, 0xff, 0xff, 0xfb, 0x05, 0xfd, 0x02, 0x04, 0xfd, 0xfe, 0x02, 0xfd, 
  0xfc, 0xfe, 0x00, 0x04, 0xfd, 0xfe, 0x02, 0x02, 0xff, 0xfe, 0xfe, 0x03, 
  0xff, 0xff, 0x02, 0xfd, 0x02, 0xfd, 0xff, 0x04, 0xfd, 0x03, 0xfe, 0x02, 
  0xfe, 0x03, 0x06, 0xfe, 0x02, 0xfc, 0xfe, 0x01, 0xfc, 0x00, 0x01, 0x03, 
  0xfe, 0xff, 0xfb, 0x07, 0x06, 0x05, 0xfd, 0x02, 0x00, 0xfc, 0xfe, 0x00, 
  0xfc, 0x01, 0xff, 0x01, 0x00, 0xfc, 0xff, 0x01, 0x04, 0x01, 0xfd, 0x01, 
  0x04, 0x03, 0x01, 0x03, 0x02, 0xfe, 0xfe, 0x00, 0xfe, 0x03, 0x00, 0x02, 
  0x00, 0xfd, 0xff, 0xfb, 0xfe, 0x00, 0x00, 0xfb, 0x02, 0x03, 0x01, 0x02, 
  0x02, 0x00, 0xff, 0x00, 0xfd, 0x04, 0x06, 0x05, 0xff, 0x06, 0x01, 0x02, 
  0x02, 0x00, 0xfd, 0x02, 0x02, 0x02, 0x04, 0xfd, 0xfa, 0xff, 0xfc, 0x00, 
  0x01, 0x02, 0x01, 0x04, 0x03, 0x02, 0x05, 0x01, 0x03, 0xff, 0x02, 0x03, 
  0x02, 0xfd, 0x01, 0xff, 0xff, 0x05, 0x00, 0x03, 0xfd, 0x04, 0x02, 0x06, 
  0x07, 0x02, 0x01, 0xff, 0x01, 0x03, 0x04, 0x02, 0xfb, 0xfa, 0x00, 0xf9, 
  0xfd, 0x05, 0xfe, 0x04, 0x01, 0x00, 0xfd, 0x05, 0xfc, 0x04, 0x03, 0x01, 
  0x01, 0xfd, 0x02, 0x03, 0xff, 0xfe, 0x00, 0x00, 0x05, 0xfd, 0xfb, 0xfd, 
  0xfc, 0x00, 0xfa, 0xff, 0x03, 0xfc, 0xfe, 0x00, 0x00, 0x01, 0xfd, 0x03, 
  0xfe, 0x02, 0xfe, 0x07, 0xfd, 0x01, 0x00, 0x00, 0xfe, 0x05, 0x05, 0x09, 
  0xfd, 0x00, 0x00, 0xfe, 0x04, 0xff, 0xf8, 0xff, 0xfc, 0xff, 0xff, 0xf8, 
  0x00, 0x03, 0x01, 0x00, 0xfe, 0xfd, 0xfc, 0x03, 0xfd, 0xff, 0x05, 0xfc, 
  0xfc, 0xff, 0x09, 0x00, 0x01, 0xfd, 0xfa, 0x02, 0xff, 0xfc, 0x03, 0x00, 
  0x02, 0xfe, 0x06, 0x03, 0x00, 0x00, 0xfe, 0x03, 0x01, 0x04, 0x05, 0xfe, 
  0xfe, 0xfe, 0xff, 0xfe, 0xfe, 0x03, 0xfe, 0xff, 0x08, 0xfd, 0xfe, 0xfc, 
  0xfe, 0x01, 0x00, 0x01, 0x04, 0x02, 0x04, 0x01, 0x03, 0x04, 0xfd, 0xfd, 
  0x01, 0xfc, 0xfe, 0x00, 0xfa, 0xfe, 0xfb, 0xfe, 0xfe, 0xfe, 0x03, 0xff, 
  0xfb, 0xfd, 0x02, 0x04, 0x07, 0xff, 0x02, 0x00, 0x01, 0x00, 0x00, 0x01, 
  0xfa, 0x03, 0xfd, 0x03, 0x00, 0x04, 0xfc, 0xfc, 0xfe, 0xfb, 0xfd, 0xfe, 
  0x04, 0x03, 0x00, 0x00, 0x01, 0xfd, 0x00, 0x02, 0xff, 0xf9, 0x04, 0xfe, 
  0x03, 0x00, 0xfe, 0xfd, 0x03, 0x02, 0x02, 0xfc, 0x00, 0x00, 0x04, 0x04, 
  0x04, 0x02, 0xff, 0xfe, 0x00, 0x00, 0xfc, 0xfe, 0x02, 0x03, 0xff, 0xff, 
  0xff, 0xff, 0xfc, 0x05, 0x01, 0x08, 0xfd, 0x04, 0xfe, 0x02, 0x05, 0x01, 
  0xfa, 0x02, 0xfe, 0x02, 0xfd, 0xff, 0xff, 0xfb, 0x02, 0x01, 0xff, 0x00, 
  0x01, 0x03, 0x00, 0x08, 0xfd, 0x02, 0x02, 0xfc, 0x03, 0x03, 0x03, 0x00, 
  0xff, 0x00, 0x04, 0x09, 0xfc, 0x00, 0xf8, 0xfe, 0x02, 0xfc, 0xfe, 0xff, 
  0xfd, 0x04, 0x00, 0x02, 0x03, 0xfb, 0xfa, 0xf9, 0x01, 0xfc, 0x03, 0xff, 
  0xfe, 0x00, 0x06, 0xfd, 0xfd, 0x00, 0x00, 0x00, 0xfe, 0x04, 0x00, 0xfc, 
  0x00, 0xff, 0x02, 0x00, 0xfd, 0xfb, 0x00, 0xff, 0x00, 0x01, 0x02, 0xfd, 
  0xfc, 0xfd, 0x01, 0xff, 0x00, 0xfe, 0x00, 0x05, 0xfe, 0x06, 0xfd, 0xfd, 
  0xfe, 0xfd, 0xff, 0xfd, 0x03, 0x01, 0x04, 0xff, 0xfa, 0xf9, 0x04, 0xfd, 
  0xfc, 0x06, 0x01, 0x02, 0x02, 0xff, 0xfc, 0x03, 0xff, 0x02, 0x03, 0x05, 
  0xfc, 0xff, 0x02, 0x00, 0x01, 0x03, 0x00, 0xfd, 0xfc, 0x04, 0xff, 0x03, 
  0xfb, 0xfe, 0xff, 0x04, 0xff, 0xfc, 0xfc, 0x03, 0x00, 0x01, 0xfe, 0x02, 
  0x02, 0xfa, 0x01, 0x03, 0x00, 0xfb, 0x02, 0x02, 0x03, 0xfb, 0xfa, 0xfd, 
  0xfd, 0xfc, 0xfe, 0x00, 0x01, 0x02, 0x02, 0xff, 0x03, 0x03, 0xf8, 0x03, 
  0x02, 0x00, 0xff, 0xfb, 0x03, 0x02, 0xfe, 0x00, 0x00, 0xfd, 0x02, 0x03, 
  0xff, 0xfe, 0xff, 0xff, 0xfa, 0x00, 0x01, 0xfe, 0xff, 0xfb, 0x05, 0x00, 
  0x00, 0x03, 0xfb, 0x02, 0x00, 0xfb, 0xff, 0xfd, 0x04, 0x01, 0x03, 0xfb, 
  0xfe, 0xfc, 0xff, 0x02, 0x00, 0xff, 0x00, 0x06, 0x03, 0xfe, 0x00, 0xff, 
  0x00, 0x06, 0xff, 0x03, 0xfb, 0xfc, 0x01, 0x01, 0x01, 0xfd, 0x02, 0xfd, 
  0xfd, 0xfc, 0xf8, 0xfd, 0xff, 0x00, 0xfc, 0xff, 0x05, 0xff, 0xfe, 0x05, 
  0x01, 0x04, 0x02, 0x01, 0xfd, 0xfe, 0x03, 0x01, 0x01, 0x02, 0x01, 0xff, 
  0x05, 0xff, 0xfb, 0xf6, 0xfe, 0xfc, 0xfe, 0x02, 0xfe, 0x02, 0x02, 0xfa, 
  0x02, 0x03, 0xfb, 0x04, 0x01, 0x02, 0x01, 0xff, 0x01, 0x00, 0xfd, 0x01, 
  0x00, 0x01, 0x03, 0x00, 0x00, 0x03, 0x00, 0xff, 0xfb, 0xfe, 0x02, 0xfe, 
  0xfb, 0xf9, 0xfe, 0xfb, 0xfe, 0x05, 0xfe, 0x00, 0xfe, 0x00, 0xff, 0xfd, 
  0xfe, 0x00, 0xfc, 0x01, 0x06, 0x03, 0x00, 0xff, 0x06, 0x02, 0xfc, 0xff, 
  0x02, 0x04, 0x01, 0x02, 0xfe, 0xfc, 0x00, 0x07, 0x02, 0x04, 0xfe, 0x02, 
  0x05, 0x00, 0xff, 0x03, 0xfb, 0xfe, 0x03, 0xff, 0x00, 0xfc, 0x04, 0xff, 
  0x04, 0x00, 0xfe, 0xfe, 0x01, 0x00, 0xfd, 0x00, 0xfe, 0x04, 0x01, 0xfb, 
  0x00, 0x00, 0x01, 0x03, 0x04, 0xfb, 0xfc, 0xfe, 0x05, 0xfa, 0x01, 0x01, 
  0xfd, 0x01, 0x02, 0x01, 0xfe, 0xff, 0xff, 0x01, 0x00, 0x00, 0x01, 0xfc, 
  0xff, 0xfd, 0x00, 0x03, 0x00, 0xff, 0xfd, 0xfc, 0x01, 0xfd, 0xff, 0x01, 
  0x00, 0x01, 0xfd, 0x04, 0x03, 0x03, 0x05, 0x01, 0x01, 0x02, 0xfd, 0x01, 
  0xfd, 0xfd, 0x01, 0xfd, 0xff, 0x01, 0xfb, 0x01, 0x07, 0x08, 0x03, 0x03, 
  0x03, 0x02, 0x02, 0xff, 0xff, 0xff, 0x01, 0xfd, 0x00, 0xfd, 0xfa, 0x01, 
  0x03, 0x02, 0x03, 0x03, 0x04, 0xfc, 0x06, 0x00, 0x07, 0x00, 0xff, 0xfe, 
  0x01, 0x02, 0x06, 0xfb, 0x00, 0xfb, 0x04, 0x02, 0xff, 0x02, 0x05, 0x00, 
  0xfc, 0x00, 0xfd, 0x01, 0xff, 0xff, 0x01, 0x00, 0x04, 0xfe, 0xf9, 0xf8, 
  0x01, 0xfd, 0xfe, 0xfe, 0x01, 0x02, 0xff, 0xfe, 0x01, 0xff, 0xfa, 0x07, 
  0x02, 0x06, 0xff, 0x02, 0x02, 0xfe, 0xfb, 0xfc, 0xfb, 0xfd, 0xfa, 0x03, 
  0x02, 0x04, 0xfc, 0x02, 0xfa, 0xfb, 0x02, 0xfc, 0xf9, 0x00, 0xfd, 0xff, 
  0xfc, 0x06, 0xfa, 0x02, 0x03, 0x02, 0x00, 0xf5, 0x00, 0x01, 0xf9, 0x04, 
  0x01, 0x06, 0x03, 0x02, 0xfe, 0xfd, 0x03, 0x05, 0xfe, 0x00, 0xff, 0x03, 
  0x05, 0x04, 0x02, 0xfe, 0x00, 0x04, 0x00, 0xfd, 0x04, 0x02, 0x04, 0x00, 
  0x01, 0x02, 0x02, 0xfd, 0xfc, 0x00, 0x02, 0x02, 0x04, 0x02, 0x04, 0xfa, 
  0x00, 0x03, 0xff, 0x02, 0xfd, 0x02, 0xff, 0xff, 0xfd, 0x03, 0xfe, 0xfd, 
  0xff, 0x00, 0x02, 0x06, 0x02, 0x02, 0x03, 0x00, 0x06, 0xfb, 0xfd, 0x02, 
  0x03, 0xfc, 0x06, 0x01, 0x06, 0xfb, 0x01, 0xff, 0x01, 0xfe, 0x02, 0xff, 
  0xff, 0x03, 0x01, 0x00, 0x01, 0x01, 0x00, 0x06, 0x07, 0x01, 0x05, 0x00, 
  0xfe, 0xfe, 0x02, 0xff, 0x00, 0xfd, 0xfe, 0x03, 0x01, 0xfb, 0xfe, 0xfe, 
  0xfd, 0xfc, 0xff, 0x02, 0x00, 0x05, 0x02, 0x05, 0xff, 0x01, 0x03, 0xff, 
  0x01, 0xff, 0x04, 0x02, 0x00, 0x03, 0x01, 0x01, 0x05, 0x04, 0x00, 0x00, 
  0x03, 0xfe, 0xfd, 0x01, 0x04, 0x00, 0x01, 0xf9, 0xfc, 0x02, 0x03, 0x06, 
  0xfa, 0x02, 0x01, 0x01, 0x04, 0x03, 0x00, 0xfe, 0x03, 0xff, 0xff, 0xff, 
  0x01, 0x02, 0x03, 0x03, 0x03, 0xfb, 0xff, 0xfd, 0x00, 0xfd, 0xfc, 0x03, 
  0x02, 0xff, 0x03, 0xfd, 0xfc, 0xfe, 0xfd, 0xff, 0x00, 0xff, 0x03, 0x02, 
  0x02, 0xfb, 0x02, 0xfe, 0xfe, 0x02, 0xfb, 0x05, 0xff, 0xff, 0xfb, 0xfc, 
  0xf9, 0x01, 0xff, 0xff, 0x03, 0x01, 0xff, 0xff, 0x01, 0xfe, 0x02, 0xfd, 
  0xfd, 0x01, 0xff, 0x04, 0xfd, 0xfd, 0xfc, 0xfe, 0x07, 0x02, 0x09, 0xfe, 
  0xff, 0xfe, 0x04, 0x04, 0xfc, 0x04, 0x01, 0xfe, 0xff, 0x02, 0x03, 0xfd, 
  0x06, 0x03, 0x00, 0x03, 0x01, 0x02, 0x01, 0xf7, 0x00, 0xfd, 0xff, 0x04, 
  0x01, 0x01, 0x03, 0x04, 0x07, 0x03, 0x02, 0x00, 0x04, 0xfe, 0x03, 0x02, 
  0x00, 0x02, 0x01, 0xfd, 0xfe, 0x05, 0xff, 0x00, 0xfe, 0x03, 0x02, 0x06, 
  0x00, 0x07, 0x04, 0xfe, 0xff, 0xff, 0xf7, 0xfc, 0x01, 0x02, 0xff, 0xfb, 
  0xf7, 0xfd, 0xfc, 0x04, 0xff, 0xfc, 0xfe, 0xfe, 0x02, 0x05, 0xfc, 0xf9, 
  0x01, 0xfd, 0xff, 0xfc, 0x03, 0x00, 0x01, 0xfb, 0x01, 0x05, 0x03, 0xfa, 
  0xfe, 0xff, 0x05, 0x04, 0x00, 0x00, 0x04, 0x01, 0xff, 0x00, 0xfe, 0x05, 
  0x07, 0x04, 0xff, 0x00, 0x03, 0xfb, 0x01, 0x05, 0xfe, 0x00, 0x03, 0x01, 
  0x05, 0xfe, 0x00, 0xfd, 0x06, 0x02, 0xfc, 0x04, 0x03, 0xfd, 0x03, 0xfe, 
  0x03, 0x02, 0x01, 0x00, 0x02, 0xf9, 0x06, 0x01, 0xfc, 0x05, 0x06, 0xfc, 
  0x02, 0xfe, 0x02, 0x02, 0x06, 0x01, 0x02, 0xfe, 0x05, 0x00, 0x01, 0x01, 
  0x02, 0xfa, 0xf9, 0xf8, 0x02, 0xfa, 0x01, 0x04, 0xfe, 0x00, 0x05, 0x00, 
  0xfd, 0xff, 0xfc, 0x03, 0x03, 0x04, 0xfd, 0x01, 0x03, 0xfd, 0x04, 0x01, 
  0xff, 0x02, 0xf7, 0x03, 0xfe, 0x04, 0xfe, 0xfd, 0x02, 0x04, 0xff, 0xfd, 
  0xff, 0x02, 0x00, 0x04, 0xfb, 0x07, 0xfb, 0x01, 0x00, 0xfe, 0xfb, 0xfe, 
  0x03, 0x01, 0xfe, 0x06, 0xfc, 0xfc, 0x00, 0x00, 0x01, 0xf8, 0x00, 0x02, 
  0x02, 0x01, 0x02, 0xff, 0x02, 0x02, 0x00, 0x06, 0xfe, 0xfb, 0x02, 0x04, 
  0x01, 0xf9, 0x03, 0xfc, 0x02, 0xff, 0xfd, 0x08, 0xff, 0x00, 0xfc, 0x00, 
  0x01, 0x00, 0x00, 0x03, 0xfe, 0xff, 0xf9, 0x04, 0x00, 0x00, 0x00, 0x02, 
  0xff, 0x05, 0xff, 0xfe, 0xfd, 0x05, 0x06, 0x06, 0x05, 0x02, 0x01, 0x04, 
  0xff, 0xfc, 0xfe, 0x05, 0x00, 0xfe, 0x05, 0xfe, 0xfd, 0x01, 0x01, 0xff, 
  0x03, 0x01, 0xfe, 0x01, 0xfd, 0xfc, 0x07, 0xfe, 0x04, 0x00, 0x07, 0xfc, 
  0xff, 0x03, 0x01, 0x03, 0x03, 0xfc, 0x06, 0xff, 0xff, 0xff, 0x03, 0xff, 
  0x00, 0x02, 0xfe, 0xfd, 0x00, 0x02, 0x04, 0xff, 0xff, 0xf9, 0xfe, 0xf9, 
  0xfe, 0xfe, 0xfd, 0xfd, 0x00, 0xfe, 0x00, 0xff, 0x02, 0x05, 0x03, 0x02, 
  0x00, 0xff, 0x01, 0xfe, 0xfc, 0xff, 0x04, 0xfe, 0xfb, 0x03, 0x01, 0x02, 
  0xff, 0xff, 0xfa, 0xfb, 0xff, 0xfe, 0xff, 0x05, 0xfe, 0xfb, 0xfc, 0xfe, 
  0xfe, 0xfa, 0xff, 0x04, 0xff, 0xfb, 0x00, 0x00, 0x05, 0xfc, 0xfd, 0xf6, 
  0x02, 0xfa, 0xfb, 0xfd, 0x02, 0xfe, 0x01, 0xfd, 0x00, 0x02, 0x00, 0x03, 
  0x01, 0x05, 0x03, 0xfd, 0x00, 0x00, 0x03, 0x04, 0xfd, 0xfc, 0xfd, 0xff, 
  0xfd, 0x00, 0xfb, 0xfe, 0xfc, 0x04, 0xfb, 0x00, 0xfb, 0x04, 0x02, 0x07, 
  0x03, 0x01, 0xfe, 0xf8, 0x01, 0x04, 0x01, 0xff, 0xfd, 0x02, 0xfe, 0x04, 
  0x07, 0x04, 0xfd, 0x01, 0x00, 0x02, 0x03, 0x02, 0xf8, 0xfe, 0x03, 0xfe, 
  0xfe, 0xfc, 0x02, 0xfc, 0xff, 0xfe, 0xfc, 0xfc, 0x04, 0x04, 0x02, 0x00, 
  0x00, 0xfc, 0x04, 0xfb, 0x03, 0xfa, 0xfe, 0xfe, 0x00, 0xfd, 0x04, 0x01, 
  0x04, 0xfc, 0xff, 0xfe, 0x01, 0x02, 0xfe, 0xfa, 0x02, 0x00, 0xfc, 0xfd, 
  0x00, 0x02, 0xfe, 0xfe, 0x01, 0x03, 0xfd, 0x06, 0xfe, 0xff, 0xfd, 0x04, 
  0x01, 0xf9, 0xfe, 0xfe, 0xfc, 0x02, 0xfd, 0x03, 0xfb, 0xfa, 0x05, 0x01, 
  0xfc, 0xfe, 0x02, 0x03, 0xfc, 0xfe, 0x04, 0x00, 0x03, 0xfe, 0x03, 0x00, 
  0xff, 0x04, 0x01, 0x00, 0x00, 0x02, 0xfd, 0xfe, 0xf8, 0x00, 0x02, 0xfe, 
  0x00, 0x02, 0xfc, 0xfe, 0xfc, 0xfe, 0x06, 0xfc, 0xfe, 0xfa, 0xff, 0x01, 
  0xfe, 0x02, 0x00, 0x02, 0x01, 0x02, 0x00, 0x02, 0x05, 0x02, 0xff, 0x01, 
  0xfd, 0x03, 0x03, 0xff, 0x02, 0xfe, 0xfe, 0x04, 0xfe, 0xf9, 0x03, 0x03, 
  0xfe, 0x03, 0x01, 0x01, 0xff, 0xff, 0xfb, 0x05, 0xfc, 0x00, 0x03, 0x01, 
  0xfe, 0xfd, 0xfe, 0xff, 0xfe, 0x04, 0x06, 0x07, 0x01, 0x05, 0x02, 0x01, 
  0x02, 0x00, 0xfc, 0x03, 0x00, 0xfd, 0x04, 0xfb, 0xfc, 0xfb, 0xfe, 0x03, 
  0x01, 0x01, 0x00, 0xfc, 0xfe, 0x06, 0x02, 0xfe, 0x01, 0x00, 0x00, 0x02, 
  0x08, 0x03, 0xff, 0xfe, 0x02, 0xff, 0x04, 0xfe, 0x02, 0xfe, 0x00, 0x03, 
  0xfb, 0x00, 0x04, 0xfc, 0xfd, 0xfd, 0xfb, 0x01, 0x02, 0x00, 0x01, 0x02, 
  0xfd, 0x05, 0x04, 0x05, 0xfa, 0x02, 0x03, 0x01, 0xfe, 0x00, 0x02, 0xfc, 
  0x02, 0xff, 0x01, 0x00, 0x01, 0x03, 0xf6, 0x00, 0xfd, 0x01, 0x00, 0x05, 
  0xfe, 0x01, 0x04, 0x01, 0x04, 0xfb, 0xfe, 0xff, 0x00, 0xfe, 0x02, 0x02, 
  0x05, 0x02, 0x01, 0xff, 0xff, 0xfd, 0x01, 0x01, 0x03, 0xfa, 0xfd, 0xfc, 
  0x01, 0xfe, 0xff, 0x05, 0xf9, 0x03, 0x07, 0xfa, 0xff, 0x02, 0xfa, 0x03, 
  0x01, 0x07, 0x02, 0x01, 0x02, 0xff, 0x00, 0x01, 0xfe, 0x03, 0xff, 0xff, 
  0xfc, 0x07, 0xfe, 0xfb, 0xfd, 0x06, 0x05, 0x01, 0x03, 0xfc, 0xff, 0x02, 
  0xff, 0x02, 0x00, 0xfb, 0xff, 0x02, 0x01, 0x00, 0xfe, 0xff, 0xfa, 0x00, 
  0x00, 0x02, 0x02, 0x04, 0xfe, 0x01, 0x06, 0x04, 0xff, 0xfe, 0x00, 0x05, 
  0xfc, 0x02, 0x01, 0x03, 0x03, 0x02, 0x02, 0x02, 0x07, 0xfc, 0x07, 0x01, 
  0x01, 0x01, 0x04, 0xfe, 0x07, 0x04, 0x02, 0x03, 0x05, 0xfe, 0x05, 0x00, 
  0x01, 0xfb, 0xfa, 0x04, 0x04, 0x05, 0x05, 0x01, 0xfe, 0x02, 0x00, 0xfd, 
  0xfe, 0x03, 0x01, 0x01, 0x03, 0x02, 0x03, 0xfa, 0xfe, 0x02, 0xff, 0xff, 
  0x05, 0xfd, 0x05, 0x02, 0xfb, 0x00, 0x04, 0x04, 0xff, 0xff, 0xff, 0xfc, 
  0x00, 0xfe, 0x03, 0x00, 0x03, 0x02, 0xff, 0xff, 0x00, 0x01, 0xff, 0x02, 
  0x01, 0xfd, 0xfb, 0x02, 0x01, 0x01, 0x03, 0x02, 0xfc, 0x04, 0x07, 0xfe, 
  0x00, 0xfd, 0xf8, 0x01, 0xff, 0x01, 0x02, 0xff, 0xfe, 0x01, 0x01, 0x02, 
  0x03, 0x04, 0x00, 0xfd, 0x02, 0xfd, 0x00, 0x00, 0x00, 0xfd, 0x03, 0x02, 
  0x00, 0x01, 0xff, 0x00, 0x03, 0x01, 0x01, 0xfb, 0x00, 0x00, 0xff, 0x00, 
  0x01, 0x07, 0x00, 0x01, 0x06, 0x03, 0x01, 0xfe, 0x01, 0x07, 0x01, 0xfd, 
  0x06, 0x00, 0xff, 0x00, 0xf8, 0x04, 0x05, 0x05, 0x05, 0x00, 0x00, 0xfd, 
  0xff, 0x03, 0x02, 0x00, 0xfc, 0x01, 0xfd, 0xff, 0x01, 0x03, 0xfc, 0x00, 
  0xfe, 0xff, 0x05, 0xff, 0xff, 0x03, 0xff, 0xfe, 0x00, 0x01, 0x00, 0xff, 
  0x03, 0x02, 0xff, 0x00, 0xfa, 0x01, 0x02, 0xfe, 0xfe, 0xfc, 0x05, 0x00, 
  0xfb, 0xfd, 0x05, 0xfc, 0x04, 0x01, 0x04, 0xf9, 0xfa, 0xfe, 0xfd, 0xff, 
  0xff, 0x02, 0xfd, 0xff, 0x00, 0x02, 0x00, 0xfe, 0xfb, 0x02, 0xfe, 0x01, 
  0xff, 0xfd, 0x02, 0x00, 0x03, 0xfc, 0xfb, 0xff, 0x02, 0x04, 0xfb, 0x00, 
  0x02, 0xff, 0xff, 0x01, 0x00, 0xfb, 0x07, 0xff, 0x01, 0xff, 0xfb, 0x00, 
  0xfc, 0xfc, 0xfc, 0x00, 0x00, 0x01, 0xff, 0x00, 0xfa, 0x00, 0x03, 0xff, 
  0xfc, 0x02, 0x00, 0x01, 0xfe, 0x00, 0xfb, 0xff, 0xff, 0x01, 0x06, 0xfe, 
  0xfd, 0x04, 0x05, 0xff, 0x03, 0x04, 0xff, 0xfd, 0x01, 0xfd, 0x00, 0xff, 
  0x02, 0x03, 0x04, 0x03, 0x07, 0xfa, 0x01, 0x03, 0x03, 0x00, 0x06, 0x01, 
  0xf8, 0xff, 0x02, 0x01, 0x01, 0x00, 0x01, 0x00, 0xff, 0xff, 0xfa, 0x06, 
  0xff, 0x02, 0xfc, 0xff, 0xfe, 0x02, 0x02, 0xfe, 0xfc, 0x01, 0xff, 0xfd, 
  0x03, 0xfe, 0xfd, 0xfc, 0xfc, 0x05, 0xfa, 0xff, 0xfe, 0xfc, 0xfc, 0x01, 
  0x03, 0x01, 0x01, 0xff, 0xfd, 0x01, 0xfd, 0x05, 0xfb, 0x00, 0x01, 0xfe, 
  0x00, 0xfd, 0xf5, 0xfe, 0x04, 0xff, 0x01, 0xfe, 0x01, 0x00, 0xff, 0xff, 
  0xfa, 0x03, 0x04, 0x06, 0x03, 0x02, 0x02, 0xfe, 0x02, 0x00, 0xf8, 0x05, 
  0xfe, 0x02, 0xfe, 0xfd, 0xff, 0x02, 0xff, 0xff, 0x00, 0xff, 0xff, 0x02, 
  0x03, 0x00, 0x01, 0xfd, 0xfe, 0xfe, 0x01, 0x02, 0x07, 0xfc, 0x00, 0xfd, 
  0x00, 0xff, 0x01, 0x05, 0x02, 0x01, 0xfd, 0xfd, 0x00, 0x03, 0xfe, 0x04, 
  0x01, 0x01, 0x04, 0xfb, 0xfb, 0xfa, 0xff, 0xfb, 0x00, 0x01, 0xfc, 0xff, 
  0x04, 0xff, 0xfe, 0x05, 0xfe, 0x01, 0x03, 0x02, 0xfd, 0x00, 0x02, 0xff, 
  0x02, 0xfa, 0xff, 0xfb, 0xff, 0xff, 0x02, 0xfe, 0xfb, 0x01, 0xfc, 0xfe, 
  0xff, 0x02, 0x05, 0x02, 0x02, 0xfd, 0x01, 0x06, 0xfe, 0xfe, 0x03, 0xfa, 
  0x02, 0x03, 0xfe, 0xff, 0xfc, 0x02, 0x04, 0x08, 0xfe, 0x06, 0x01, 0x01, 
  0xff, 0x02, 0xfd, 0x00, 0x03, 0xf9, 0x07, 0xfe, 0x01, 0x00, 0x05, 0x06, 
  0x03, 0x05, 0xfd, 0xff, 0x05, 0x01, 0xfd, 0xfe, 0x05, 0xff, 0x09, 0x04, 
  0x01, 0x03, 0x03, 0xfc, 0xfe, 0xfc, 0x05, 0x04, 0xfd, 0xfd, 0xfd, 0x07, 
  0xfc, 0xfe, 0xfe, 0x03, 0xff, 0x00, 0xfd, 0x03, 0x09, 0x09, 0x00, 0x05, 
  0x03, 0xff, 0x00, 0x04, 0xfc, 0xff, 0x02, 0x00, 0x02, 0xfb, 0xfc, 0xfe, 
  0x00, 0x00, 0x02, 0xfe, 0x03, 0xfe, 0x01, 0xff, 0x02, 0xfc, 0x00, 0x01, 
  0x05, 0x00, 0x08, 0x04, 0x02, 0xfc, 0x00, 0xf9, 0x04, 0xff, 0x01, 0xfc, 
  0x02, 0x02, 0x03, 0xfe, 0xff, 0x04, 0x01, 0x01, 0x02, 0xf9, 0xfb, 0xf9, 
  0x02, 0xfc, 0xfb, 0xff, 0xfb, 0x01, 0x02, 0x00, 0xfd, 0x04, 0xff, 0x02, 
  0x02, 0x01, 0x03, 0xff, 0x00, 0x01, 0xfe, 0x01, 0xf7, 0x02, 0xfd, 0x01, 
  0xfb, 0xfc, 0x05, 0xfe, 0xfb, 0x01, 0xfa, 0x00, 0xfe, 0x02, 0x01, 0x03, 
  0xfe, 0x07, 0xfc, 0xfd, 0x00, 0x00, 0x00, 0xfe, 0xfc, 0x00, 0xff, 0x00, 
  0x06, 0x01, 0xf9, 0xff, 0x03, 0xfc, 0x03, 0x02, 0xff, 0xff, 0x01, 0x00, 
  0x02, 0x01, 0x03, 0x03, 0xfc, 0xfe, 0xff, 0x00, 0x01, 0x01, 0xfd, 0x01, 
  0xff, 0xfb, 0x02, 0xfd, 0x00, 0x01, 0x07, 0x05, 0x02, 0xff, 0xfe, 0xfd, 
  0xfe, 0xfe, 0xfd, 0xfe, 0x00, 0xfc, 0x03, 0xfb, 0x01, 0x00, 0xff, 0xfe, 
  0xfc, 0xfe, 0x04, 0xff, 0x00, 0x04, 0xfe, 0xfc, 0xff, 0x01, 0xfb, 0x02, 
  0xff, 0xfe, 0xfc, 0xfb, 0x07, 0xfb, 0xfb, 0xff, 0xfd, 0xfe, 0x01, 0xff, 
  0x01, 0xfd, 0x04, 0x01, 0x06, 0x05, 0x04, 0xff, 0xfb, 0x06, 0x05, 0x01, 
  0xfc, 0x03, 0x00, 0x03, 0x00, 0xff, 0xfb, 0x04, 0x02, 0xfd, 0x00, 0xfb, 
  0xff, 0x03, 0x03, 0xfa, 0xfb, 0xfa, 0x00, 0xfd, 0xfd, 0x00, 0x01, 0x03, 
  0x04, 0x02, 0x00, 0x00, 0xfa, 0x08, 0x00, 0x00, 0xfe, 0xfe, 0x02, 0xfe, 
  0x04, 0xfa, 0xfe, 0x01, 0xff, 0xfe, 0xfc, 0x01, 0xf9, 0xff, 0xfd, 0xfc, 
  0x05, 0x01, 0xfd, 0x03, 0x02, 0x00, 0x00, 0x02, 0xfe, 0xfa, 0xff, 0x00, 
  0x03, 0xfb, 0x02, 0x00, 0x02, 0xfd, 0xfc, 0xfb, 0x02, 0xfb, 0xff, 0x03, 
  0xfd, 0x05, 0x05, 0x01, 0x03, 0x05, 0xff, 0x05, 0x01, 0x01, 0x03, 0x02, 
  0xfd, 0x02, 0xfe, 0xfa, 0xf9, 0x00, 0xf6, 0xfd, 0xfe, 0x01, 0xfe, 0x01, 
  0xfb, 0x00, 0xff, 0x00, 0x01, 0x01, 0xff, 0xfd, 0xfb, 0xfe, 0x00, 0xfb, 
  0xfc, 0xfe, 0x02, 0x04, 0x03, 0xfd, 0xfd, 0x04, 0x04, 0x02, 0xfd, 0x05, 
  0x01, 0xfe, 0x03, 0x05, 0x03, 0x05, 0x01, 0x00, 0x00, 0xfe, 0xfe, 0x04, 
  0x01, 0xfb, 0x04, 0xfb, 0xfd, 0xfd, 0xff, 0x03, 0x02, 0xfe, 0xff, 0xff, 
  0x05, 0xff, 0xfe, 0x00, 0x03, 0xfc, 0x01, 0x02, 0x00, 0x04, 0x03, 0xfe, 
  0x02, 0x06, 0x01, 0xfe, 0xfb, 0xfb, 0x01, 0xff, 0x05, 0xfb, 0xfe, 0xf9, 
  0xff, 0xfe, 0x02, 0x02, 0x00, 0xfd, 0xfd, 0xff, 0xfd, 0xff, 0x00, 0x07, 
  0xfe, 0x01, 0xff, 0x00, 0xfe, 0x02, 0xfe, 0x02, 0x02, 0x00, 0xfe, 0x00, 
  0xff, 0x06, 0x01, 0x01, 0xf9, 0x06, 0x01, 0xff, 0xff, 0xfa, 0x02, 0xfe, 
  0x00, 0x01, 0xff, 0xf8, 0x00, 0x03, 0xff, 0x01, 0xff, 0xfe, 0xfa, 0x03, 
  0x03, 0x03, 0x03, 0x04, 0xff, 0xff, 0x01, 0x00, 0xfc, 0x01, 0x05, 0x01, 
  0x00, 0xff, 0x01, 0xfc, 0x00, 0xff, 0x01, 0x00, 0x01, 0xff, 0x03, 0xff, 
  0x04, 0xfd, 0x02, 0x01, 0xff, 0xfe, 0xff, 0xfc, 0x02, 0x00, 0x02, 0x02, 
  0x04, 0x02, 0xfd, 0x01, 0xfd, 0x03, 0x00, 0x03, 0x01, 0x02, 0xff, 0x01, 
  0xfe, 0x06, 0x05, 0x05, 0xfb, 0x05, 0x02, 0x04, 0x04, 0x02, 0xfa, 0x03, 
  0xfd, 0xfa, 0xfe, 0xff, 0x01, 0x02, 0xfd, 0xfc, 0xfd, 0xfd, 0x00, 0x03, 
  0xfd, 0x05, 0xff, 0x02, 0xfa, 0x03, 0x01, 0x04, 0x01, 0x01, 0xfd, 0x03, 
  0x03, 0xfc, 0x01, 0x01, 0xfb, 0x01, 0x04, 0xfd, 0x03, 0xfc, 0x04, 0x01, 
  0xff, 0x00, 0xfd, 0x05, 0x06, 0x08, 0xfe, 0x06, 0x03, 0xfe, 0xff, 0x00, 
  0xfd, 0x05, 0x08, 0xfe, 0x03, 0xfd, 0xff, 0x01, 0x00, 0x03, 0xfb, 0xff, 
  0x02, 0x00, 0x07, 0x01, 0x01, 0xfe, 0x00, 0x01, 0x05, 0xff, 0x07, 0x04, 
  0xfd, 0x01, 0x03, 0xfc, 0x06, 0x01, 0xfe, 0xfd, 0xfe, 0x02, 0xff, 0x06, 
  0x00, 0xfc, 0xfe, 0xff, 0xfc, 0x02, 0x05, 0x06, 0xfe, 0x05, 0xff, 0x02, 
  0xff, 0x03, 0xf9, 0x04, 0x01, 0x01, 0x00, 0xfd, 0x00, 0x00, 0xfe, 0xfc, 
  0xfc, 0x02, 0x02, 0xfd, 0x00, 0xfc, 0x00, 0xfe, 0x04, 0x01, 0x07, 0xff, 
  0x01, 0xfd, 0x02, 0x02, 0xfe, 0xfe, 0x05, 0xfe, 0xff, 0xff, 0x05, 0x07, 
  0xff, 0xfe, 0xff, 0x05, 0xfe, 0xfe, 0xfd, 0x06, 0x04, 0x02, 0x01, 0xff, 
  0x04, 0x01, 0x01, 0x04, 0xfb, 0x03, 0x02, 0x01, 0x03, 0xfc, 0x04, 0x01, 
  0x00, 0x01, 0x00, 0x03, 0x01, 0x06, 0x06, 0xfe, 0xfe, 0xfe, 0x03, 0xfc, 
  0x02, 0xfc, 0x06, 0xfc, 0xff, 0xfc, 0x07, 0x00, 0xfd, 0x03, 0x03, 0xfe, 
  0x00, 0x04, 0xfc, 0xfd, 0x01, 0xfd, 0x00, 0xff, 0xfd, 0x01, 0x07, 0x02, 
  0x02, 0x08, 0x05, 0x06, 0x01, 0xff, 0xff, 0xff, 0x01, 0xfc, 0x03, 0x02, 
  0x02, 0x01, 0x02, 0x03, 0x00, 0xfe, 0x01, 0xfe, 0x05, 0xfd, 0xfd, 0xfe, 
  0x01, 0x01, 0x02, 0xfc, 0x04, 0x00, 0xfd, 0x02, 0x00, 0x02, 0x02, 0x03, 
  0x00, 0xfa, 0x00, 0xfe, 0xff, 0x04, 0x03, 0x01, 0x02, 0xfb, 0xfa, 0x01, 
  0x02, 0x04, 0x02, 0xff, 0x00, 0x01, 0x01, 0x00, 0xff, 0x00, 0xff, 0x01, 
  0x01, 0xff, 0x01, 0x00, 0x01, 0xff, 0x03, 0x01, 0x02, 0x02, 0xff, 0xfe, 
  0xff, 0xfe, 0x00, 0xff, 0x04, 0x06, 0x06, 0x01, 0xfd, 0x03, 0x03, 0x02, 
  0x05, 0xfd, 0xff, 0x01, 0x03, 0xfe, 0xfd, 0xff, 0x02, 0x00, 0x01, 0x01, 
  0x05, 0xfa, 0xfc, 0xf8, 0xff, 0xfe, 0xff, 0x00, 0xff, 0xfc, 0xff, 0x00, 
  0x01, 0x04, 0xff, 0x04, 0x01, 0xff, 0x01, 0xfb, 0x02, 0xff, 0xfd, 0x00, 
  0xfb, 0xfc, 0x00, 0x02, 0xf8, 0x03, 0x01, 0xfe, 0xfd, 0x08, 0x00, 0x00, 
  0xfd, 0xff, 0x00, 0xfc, 0x01, 0x05, 0xfd, 0xff, 0x03, 0x01, 0x03, 0xfc, 
  0x00, 0xfe, 0xfb, 0x02, 0x00, 0xfe, 0x00, 0x05, 0x00, 0xfd, 0x03, 0xfa, 
  0x00, 0xfe, 0x00, 0xfe, 0x00, 0xfb, 0xfe, 0xfe, 0xff, 0xfe, 0xfb, 0xff, 
  0x02, 0xfd, 0xfd, 0x01, 0x00, 0x05, 0xff, 0x03, 0x03, 0x05, 0x01, 0x00, 
  0x02, 0xfc, 0x00, 0xfd, 0x01, 0x00, 0x03, 0x03, 0x04, 0x02, 0xfc, 0xfc, 
  0x00, 0x01, 0xfd, 0xfe, 0xfc, 0x03, 0x07, 0xfe, 0xfc, 0xfd, 0x00, 0xff, 
  0xff, 0xfe, 0xfc, 0x05, 0x02, 0xff, 0x01, 0xfd, 0x00, 0xfa, 0xfc, 0x06, 
  0xfe, 0x01, 0x02, 0x02, 0xfe, 0xff, 0x04, 0x03, 0xff, 0xfa, 0x00, 0xfd, 
  0x03, 0x00, 0x02, 0x04, 0xfc, 0x01, 0x04, 0x03, 0xfd, 0x01, 0x02, 0x01, 
  0xfe, 0xff, 0x01, 0xfe, 0xff, 0x00, 0xfd, 0x07, 0x04, 0x0a, 0x00, 0x03, 
  0x04, 0x00, 0x01, 0xfd, 0xfb, 0xfc, 0x02, 0xff, 0x01, 0xfa, 0xfd, 0x02, 
  0x01, 0x04, 0x01, 0xff, 0xff, 0xff, 0x04, 0xff, 0xfd, 0x01, 0x01, 0xfe, 
  0x04, 0x01, 0x07, 0xfc, 0xfc, 0x01, 0x00, 0xff, 0xfd, 0x05, 0xfd, 0x01, 
  0xfd, 0x01, 0x01, 0x01, 0x02, 0x02, 0xff, 0x00, 0xfd, 0x00, 0x03, 0x09, 
  0x01, 0x00, 0x01, 0xfc, 0x05, 0xfd, 0xfa, 0x04, 0x04, 0x01, 0x07, 0xf9, 
  0xff, 0x01, 0x01, 0xfe, 0x00, 0xff, 0x01, 0x01, 0x00, 0x01, 0x03, 0xfe, 
  0x03, 0xfd, 0x03, 0x02, 0x03, 0x01, 0xfe, 0x04, 0x08, 0xff, 0x01, 0xfd, 
  0x05, 0x01, 0xfa, 0x01, 0xfc, 0x00, 0x01, 0xff, 0xff, 0xff, 0xfd, 0x02, 
  0x01, 0x07, 0xfa, 0x08, 0xfe, 0x01, 0xfe, 0xff, 0xff, 0x03, 0x02, 0xfd, 
  0x01, 0xf8, 0x03, 0xfe, 0x02, 0xfe, 0xfc, 0x02, 0x00, 0x03, 0x02, 0xfd, 
  0x01, 0x00, 0x03, 0x01, 0x06, 0x01, 0x04, 0x02, 0x03, 0xfb, 0x05, 0xfe, 
  0xfd, 0x01, 0xfd, 0xf9, 0x04, 0x03, 0x02, 0x02, 0x00, 0xfd, 0x02, 0xff, 
  0x05, 0xff, 0xfc, 0xf9, 0x02, 0xff, 0xfa, 0x02, 0x00, 0xfc, 0xfc, 0xfc, 
  0xfa, 0x00, 0xfe, 0x00, 0x05, 0x00, 0xff, 0xff, 0x02, 0x01, 0x05, 0x02, 
  0xfa, 0xfa, 0xff, 0x03, 0x02, 0x01, 0x01, 0xfd, 0xfa, 0xff, 0xff, 0x03, 
  0x00, 0xfe, 0xff, 0x02, 0x03, 0x08, 0x03, 0xfb, 0x01, 0xfc, 0xff, 0x02, 
  0x01, 0x00, 0x07, 0xfd, 0xfc, 0xfc, 0xfc, 0xfd, 0x00, 0x02, 0xfe, 0x02, 
  0xff, 0xfe, 0xfc, 0x03, 0xfe, 0x05, 0x02, 0x05, 0x05, 0x00, 0xfc, 0xfd, 
  0x03, 0xfb, 0x00, 0x01, 0xf9, 0x00, 0xfa, 0x00, 0x00, 0xff, 0xf8, 0xfe, 
  0xfb, 0x00, 0x04, 0xfb, 0x04, 0x04, 0x02, 0x05, 0xfc, 0x01, 0xff, 0x00, 
  0x05, 0xfe, 0xfe, 0x01, 0xfd, 0x03, 0x07, 0x05, 0x00, 0x05, 0xfe, 0xfe, 
  0xfc, 0x04, 0xfe, 0xfd, 0x01, 0xfe, 0x00, 0xfb, 0xfd, 0x04, 0xfb, 0x07, 
  0xff, 0xfb, 0x01, 0x01, 0x02, 0xfe, 0x02, 0xf8, 0x01, 0xfe, 0x01, 0x01, 
  0x02, 0x00, 0x08, 0xfe, 0x02, 0x01, 0xfe, 0x03, 0xfb, 0x06, 0x05, 0x00, 
  0x04, 0xfc, 0xfd, 0xfe, 0x00, 0xff, 0xfc, 0x06, 0x07, 0x03, 0x03, 0x02, 
  0x03, 0x04, 0xfc, 0x01, 0x01, 0x04, 0x01, 0xfe, 0x04, 0xfa, 0xfd, 0xfb, 
  0xfb, 0x03, 0xfb, 0x01, 0xfe, 0x03, 0xfc, 0xfe, 0x08, 0x01, 0x00, 0x03, 
  0x01, 0x05, 0x03, 0x00, 0x00, 0x04, 0x02, 0x01, 0x05, 0x04, 0xfd, 0x01, 
  0x01, 0x03, 0x01, 0xfd, 0xfc, 0x03, 0xff, 0xff, 0xfb, 0x07, 0x02, 0x04, 
  0x01, 0x04, 0x02, 0x01, 0x01, 0x00, 0xfe, 0x00, 0x01, 0x01, 0x02, 0xfd, 
  0xfe, 0x00, 0x02, 0xfe, 0x03, 0x01, 0xfe, 0xfe, 0xfc, 0xfd, 0x06, 0x00, 
  0x02, 0xff, 0x03, 0xfe, 0x03, 0xfa, 0xfd, 0x04, 0x01, 0x02, 0x02, 0xfd, 
  0xfe, 0xfe, 0x05, 0x08, 0x00, 0x03, 0x06, 0xff, 0x02, 0x01, 0x02, 0xfc, 
  0xfc, 0xf7, 0x00, 0xfd, 0xfc, 0x01, 0xfc, 0xff, 0x01, 0xfd, 0x01, 0x03, 
  0xf9, 0x07, 0x04, 0x01, 0x06, 0xfc, 0x00, 0x01, 0x00, 0xff, 0xf9, 0xff, 
  0x02, 0x01, 0x01, 0xfd, 0xfe, 0xfe, 0xfb, 0x01, 0x03, 0x03, 0x00, 0x00, 
  0x01, 0x03, 0xf9, 0x00, 0xfe, 0xfb, 0x02, 0xfd, 0xfd, 0xfc, 0x01, 0x01, 
  0x03, 0xfb, 0xfa, 0xf8, 0x03, 0xff, 0xfc, 0x04, 0x00, 0xfd, 0xff, 0x03, 
  0x01, 0x02, 0xfc, 0x06, 0x03, 0x04, 0xff, 0xfc, 0x05, 0x00, 0x03, 0x01, 
  0xff, 0x01, 0x03, 0x03, 0x05, 0xfd, 0x01, 0x02, 0xf9, 0x01, 0xff, 0xfc, 
  0xfb, 0xff, 0xfe, 0x02, 0x02, 0x00, 0xfe, 0xf9, 0x03, 0xfe, 0x03, 0x00, 
  0xff, 0x00, 0xfd, 0x06, 0x07, 0x08, 0x02, 0x02, 0x04, 0xfd, 0x05, 0xff, 
  0xff, 0x02, 0x03, 0x00, 0x02, 0xfc, 0x00, 0xff, 0xfe, 0x03, 0xff, 0x01, 
  0xfd, 0x03, 0x03, 0x00, 0x03, 0xf9, 0xfe, 0xfb, 0x04, 0xfc, 0x02, 0xfd, 
  0x02, 0x00, 0x04, 0x01, 0x01, 0xfe, 0xfe, 0xfa, 0x08, 0xff, 0xfd, 0x04, 
  0x01, 0xfd, 0x00, 0x01, 0x04, 0xfa, 0xfc, 0xfd, 0x00, 0x02, 0xfa, 0x02, 
  0x02, 0x05, 0x05, 0xfd, 0xff, 0x01, 0xfb, 0x02, 0x01, 0x06, 0x00, 0xfe, 
  0x06, 0x00, 0x00, 0xfa, 0xfe, 0x00, 0x06, 0xfe, 0x00, 0x00, 0xfc, 0x00, 
  0xfe, 0xfc, 0x05, 0x01, 0x01, 0x02, 0xff, 0x00, 0x00, 0x02, 0x00, 0xfd, 
  0x00, 0xff, 0x01, 0xfd, 0xfd, 0x00, 0xfe, 0x01, 0x07, 0x02, 0xf9, 0x07, 
  0x01, 0x00, 0x05, 0x00, 0x00, 0x03, 0xff, 0xfd, 0xfd, 0xfd, 0xfd, 0x01, 
  0x01, 0x01, 0x00, 0xfe, 0x03, 0xfd, 0x02, 0x03, 0x08, 0x03, 0xff, 0xfb, 
  0x01, 0x01, 0x09, 0x07, 0x02, 0x03, 0xfb, 0xf9, 0x05, 0x01, 0xfd, 0x05, 
  0x01, 0xfa, 0x04, 0x03, 0x05, 0x02, 0x00, 0xff, 0xfd, 0x05, 0x06, 0x07, 
  0x00, 0x03, 0x00, 0xfc, 0x05, 0xff, 0xfa, 0x05, 0x04, 0xfc, 0x01, 0xfc, 
  0x00, 0xff, 0x00, 0x03, 0xfe, 0x00, 0xfd, 0xfc, 0x02, 0x01, 0x01, 0x01, 
  0x00, 0x02, 0xfd, 0xfd, 0x05, 0xfe, 0xff, 0x01, 0xfe, 0x00, 0x02, 0x00, 
  0x00, 0x00, 0x01, 0xff, 0xfc, 0x01, 0x01, 0xfd, 0x00, 0x01, 0x02, 0xfb, 
  0xf8, 0xf9, 0xfd, 0xfc, 0x01, 0x01, 0xff, 0x01, 0x05, 0xfe, 0xfe, 0x00, 
  0x00, 0x05, 0x01, 0x00, 0x00, 0x01, 0xff, 0x00, 0x03, 0x01, 0x00, 0xfc, 
  0xfa, 0x03, 0x00, 0xff, 0xf8, 0xfe, 0xfa, 0xfe, 0x00, 0xfc, 0xfd, 0x05, 
  0x00, 0x01, 0xfc, 0xff, 0xfb, 0x00, 0xfe, 0xff, 0xff, 0xf7, 0x03, 0xfc, 
  0xfe, 0xfe, 0x01, 0xfe, 0xfc, 0xfd, 0xfe, 0x05, 0x02, 0x01, 0x02, 0x01, 
  0x06, 0xfa, 0xff, 0x00, 0x00, 0xfd, 0x02, 0x00, 0x01, 0x06, 0xfe, 0xff, 
  0x03, 0x02, 0x06, 0xfd, 0xfc, 0x00, 0x05, 0xfe, 0x02, 0xff, 0x02, 0xfd, 
  0xfc, 0x05, 0xfd, 0xfc, 0x02, 0xfa, 0x00, 0xfb, 0x01, 0x01, 0xfa, 0xfa, 
  0xfe, 0x01, 0xfe, 0x06, 0x05, 0x05, 0x03, 0x04, 0xfe, 0xf9, 0x02, 0x00, 
  0xfe, 0x07, 0x00, 0xfc, 0x03, 0xf9, 0x00, 0xfb, 0x05, 0xff, 0x04, 0xfd, 
  0x02, 0x02, 0xff, 0x05, 0x03, 0xfd, 0xff, 0x03, 0xfd, 0x01, 0x00, 0x06, 
  0x02, 0x06, 0xfd, 0x00, 0x03, 0xfe, 0x02, 0x01, 0x01, 0x00, 0x04, 0xfc, 
  0xfe, 0x03, 0x00, 0xff, 0xff, 0x06, 0x04, 0x06, 0xfc, 0x05, 0x05, 0x02, 
  0x04, 0x01, 0xfa, 0x02, 0x04, 0x02, 0x06, 0xfe, 0xfc, 0x04, 0x05, 0x04, 
  0xf9, 0xfe, 0x01, 0xff, 0x04, 0x05, 0x03, 0x00, 0xfc, 0xff, 0x05, 0xf9, 
  0x04, 0x00, 0xff, 0x02, 0x07, 0xfa, 0xfe, 0x00, 0x00, 0xfc, 0x02, 0x03, 
  0xfb, 0x00, 0xff, 0x03, 0x03, 0x01, 0x03, 0xfc, 0xfc, 0xf9, 0x05, 0xfc, 
  0xfe, 0xfb, 0xfa, 0x02, 0x05, 0xfe, 0xff, 0x01, 0xfc, 0x03, 0x02, 0x05, 
  0x02, 0xfe, 0xff, 0xff, 0xff, 0xfe, 0xfd, 0xfb, 0x00, 0x00, 0xfe, 0x02, 
  0xfd, 0xff, 0x00, 0xfc, 0xfe, 0xfc, 0x02, 0x03, 0xfc, 0xfd, 0xff, 0xff, 
  0xfa, 0xfe, 0x05, 0xfe, 0x01, 0xfc, 0x03, 0x02, 0x05, 0xfd, 0xfc, 0xfd, 
  0xfc, 0x03, 0x00, 0xfe, 0xfe, 0x00, 0x02, 0xfe, 0x00, 0xff, 0xfe, 0x04, 
  0x02, 0x05, 0x06, 0x03, 0xfe, 0x00, 0xfc, 0xfe, 0xfd, 0x00, 0xfd, 0x03, 
  0xfe, 0x03, 0xff, 0x01, 0xff, 0xfd, 0x01, 0xfb, 0x06, 0x01, 0x01, 0x04, 
  0xff, 0x07, 0x01, 0xfb, 0xfb, 0xfd, 0xfd, 0xff, 0xfc, 0xfb, 0xfd, 0x02, 
  0x04, 0x02, 0xfc, 0x00, 0xff, 0x02, 0x03, 0x04, 0xfc, 0xff, 0x03, 0x02, 
  0xfd, 0xfe, 0xff, 0x01, 0x03, 0xfd, 0x01, 0xff, 0x02, 0x01, 0xff, 0x03, 
  0xfe, 0x03, 0x02, 0xf8, 0x03, 0x00, 0x03, 0x01, 0xff, 0xff, 0x02, 0xfc, 
  0x01, 0x02, 0xfe, 0x03, 0x00, 0xff, 0xff, 0x02, 0x00, 0xfe, 0x01, 0x01, 
  0x02, 0xfb, 0xf7, 0xfb, 0x03, 0xff, 0xfb, 0x04, 0xfc, 0x03, 0x03, 0xfc, 
  0xfc, 0x01, 0x00, 0x04, 0x00, 0x00, 0xfe, 0x01, 0xfd, 0xff, 0xff, 0x00, 
  0xff, 0x01, 0xfe, 0x01, 0xfd, 0x00, 0xf9, 0x04, 0xfb, 0xff, 0x00, 0xff, 
  0xfe, 0xfe, 0xfb, 0x02, 0x01, 0x06, 0xfc, 0xf8, 0x01, 0xff, 0x02, 0xff, 
  0xff, 0x01, 0xfd, 0xfe, 0x03, 0x06, 0xfb, 0xfe, 0xfe, 0xfc, 0x05, 0xfc, 
  0xf8, 0x02, 0x01, 0xfd, 0x01, 0xf9, 0x01, 0x02, 0x07, 0xfa, 0xfd, 0x02, 
  0xfe, 0xff, 0x05, 0x07, 0x00, 0xff, 0x05, 0x02, 0x04, 0x04, 0x02, 0xfd, 
  0x00, 0x03, 0x03, 0xfb, 0xff, 0x02, 0xfe, 0x06, 0x04, 0xfd, 0x07, 0xfb, 
  0xff, 0x02, 0xfe, 0x00, 0xff, 0x05, 0x06, 0x02, 0xf9, 0x02, 0x01, 0xff, 
  0x01, 0x00, 0x00, 0xff, 0x00, 0xff, 0xfe, 0x01, 0x01, 0x00, 0x05, 0x05, 
  0xfc, 0xfb, 0x01, 0x01, 0x03, 0x01, 0x03, 0xfd, 0x08, 0xfd, 0xfd, 0x02, 
  0xfc, 0x03, 0x00, 0x02, 0x03, 0xfa, 0x03, 0xfe, 0xfa, 0x05, 0x05, 0xfb, 
  0x02, 0xff, 0x05, 0xff, 0xff, 0x00, 0xfc, 0x00, 0xfc, 0x00, 0xfd, 0xff, 
  0xfe, 0xf9, 0xfe, 0x03, 0xfc, 0x02, 0x01, 0xfe, 0xfc, 0x01, 0x00, 0x04, 
  0x01, 0x04, 0xfe, 0x01, 0x03, 0xfd, 0x02, 0x00, 0x00, 0x05, 0x05, 0xfb, 
  0x01, 0x02, 0xfe, 0xfd, 0x05, 0x01, 0xfa, 0xff, 0xfc, 0x00, 0x02, 0xfc, 
  0x04, 0x02, 0x03, 0xff, 0xfd, 0xff, 0xff, 0xfe, 0xfb, 0x05, 0x02, 0x07, 
  0x01, 0x04, 0xff, 0xfe, 0xff, 0xfc, 0x01, 0x01, 0x05, 0x02, 0x08, 0xff, 
  0x04, 0xf9, 0xff, 0x07, 0x00, 0xfe, 0x00, 0xff, 0xfd, 0x01, 0x01, 0xfd, 
  0x02, 0x04, 0xfe, 0x02, 0x04, 0x00, 0x00, 0xff, 0xff, 0x01, 0x03, 0x05, 
  0xfb, 0xfc, 0x01, 0x02, 0xfd, 0xfc, 0xfc, 0x00, 0xfe, 0xff, 0xfe, 0x07, 
  0x05, 0x04, 0xfe, 0x02, 0x02, 0xfc, 0xfc, 0xff, 0xfc, 0x00, 0xfe, 0x01, 
  0x00, 0xf8, 0xfc, 0x00, 0x04, 0x00, 0xfb, 0xfc, 0x02, 0x02, 0x04, 0xfb, 
  0x00, 0x02, 0x00, 0xfe, 0x02, 0x03, 0x07, 0xfd, 0xff, 0x02, 0x03, 0x01, 
  0xfe, 0x00, 0x01, 0x05, 0x02, 0x02, 0x01, 0xfa, 0x00, 0x01, 0x00, 0x01, 
  0x06, 0x00, 0xfe, 0xfb, 0xfe, 0xfb, 0x01, 0x04, 0x00, 0xfe, 0x00, 0xfc, 
  0xff, 0x05, 0xff, 0x03, 0xff, 0x00, 0x02, 0xfc, 0x00, 0xfb, 0x00, 0xfe, 
  0x01, 0xfd, 0xfc, 0xfe, 0xfc, 0x05, 0xfa, 0xfd, 0xfd, 0x02, 0x02, 0xfd, 
  0xfc, 0x01, 0xfd, 0xfe, 0xfc, 0x05, 0x02, 0xfc, 0xfd, 0xff, 0x00, 0xf9, 
  0xbc, 0xd3, 0xff, 0xff, 0x9a, 0xde, 0xff, 0xff, 0x04, 0x00, 0x00, 0x00, 
  0x00, 0x20, 0x00, 0x00, 0xee, 0x2f, 0xef, 0xf5, 0x15, 0xfb, 0x33, 0x08, 
  0xfa, 0x4f, 0xb2, 0x0c, 0x21, 0x17, 0x00, 0x27, 0xf7, 0xf9, 0xef, 0xd0, 
  0x4c, 0xe5, 0x04, 0x11, 0xe7, 0x0b, 0xf7, 0xef, 0x08, 0xf4, 0x2f, 0x1d, 
  0xf6, 0xf0, 0x00, 0xe0, 0xf4, 0xf5, 0xe3, 0x0b, 0x0a, 0xad, 0x00, 0xe7, 
  0x0e, 0x00, 0x12, 0x0c, 0x12, 0xf7, 0x00, 0x09, 0x00, 0x20, 0x00, 0xf1, 
  0xdf, 0x37, 0x05, 0xf5, 0xe4, 0x00, 0x00, 0xf6, 0xf6, 0x1f, 0xdf, 0x05, 
  0xeb, 0xe7, 0xf8, 0x2e, 0xf7, 0xcd, 0xf0, 0x08, 0x1a, 0xfa, 0xfa, 0x0c, 
  0x09, 0xe6, 0xdf, 0x44, 0xfa, 0xfb, 0x0d, 0x0b, 0xea, 0x27, 0x00, 0x0a, 
  0xf5, 0xef, 0xf2, 0x13, 0xf9, 0x00, 0xe8, 0xfa, 0xe2, 0x00, 0xda, 0x00, 
  0x25, 0xef, 0xde, 0xdb, 0x0e, 0x26, 0x24, 0x1b, 0xe3, 0x0a, 0x30, 0xec, 
  0x00, 0xd4, 0x37, 0xf9, 0xe8, 0x1b, 0xcb, 0xde, 0x00, 0xe2, 0xe1, 0x07, 
  0x00, 0x17, 0x19, 0xe0, 0xf2, 0x0a, 0xf6, 0x00, 0xed, 0x2d, 0xb2, 0xe9, 
  0x00, 0xe9, 0xf8, 0x31, 0x00, 0x24, 0xef, 0xc3, 0x4c, 0x00, 0x0c, 0xe7, 
  0x00, 0x22, 0x13, 0xf4, 0x10, 0x00, 0x18, 0x0a, 0x1d, 0x00, 0x1d, 0xea, 
  0x23, 0x04, 0xf1, 0xe9, 0x1e, 0xe4, 0x1d, 0xf6, 0x00, 0x00, 0x1c, 0x3b, 
  0x12, 0x2b, 0xe8, 0x09, 0xf3, 0x35, 0x00, 0xd2, 0x06, 0x37, 0xf1, 0x00, 
  0x92, 0x00, 0x0b, 0xd8, 0x30, 0x29, 0xef, 0xe8, 0x00, 0xe7, 0x00, 0x0c, 
  0x04, 0xcd, 0xfc, 0xf8, 0x12, 0x06, 0xee, 0x12, 0x09, 0x1a, 0x16, 0x37, 
  0x06, 0x00, 0x0d, 0x00, 0xfa, 0x00, 0xfa, 0xae, 0xf5, 0xef, 0xf9, 0x0a, 
  0x07, 0x2d, 0xfa, 0xf3, 0xd8, 0x00, 0xbd, 0x0f, 0x07, 0xf8, 0xe6, 0xf9, 
  0x57, 0xe7, 0x18, 0x09, 0xec, 0x00, 0x00, 0xf6, 0xd7, 0xa8, 0x16, 0xf9, 
  0x0a, 0x36, 0x00, 0xde, 0x00, 0xe2, 0xe1, 0x00, 0x29, 0xe1, 0x08, 0x20, 
  0x0e, 0x05, 0x14, 0xf0, 0x00, 0xe9, 0x16, 0x17, 0xf5, 0xf4, 0x17, 0x00, 
  0x00, 0xe4, 0x04, 0x00, 0xda, 0x16, 0x08, 0x00, 0x00, 0xc8, 0xd1, 0x00, 
  0xf0, 0xe9, 0x00, 0xed, 0xd9, 0xf8, 0x15, 0xea, 0xe9, 0xfc, 0x07, 0x2d, 
  0x00, 0x38, 0xe3, 0x05, 0x07, 0x0c, 0xd2, 0x17, 0xe6, 0xdd, 0x00, 0xe4, 
  0x20, 0xd6, 0x0a, 0x00, 0x00, 0x12, 0x0f, 0x22, 0x00, 0xd9, 0x00, 0x32, 
  0x0a, 0xe1, 0x19, 0x05, 0x0b, 0x33, 0xf8, 0xe9, 0x04, 0xe7, 0x10, 0xf8, 
  0xee, 0x0c, 0x12, 0x30, 0xd1, 0x11, 0x41, 0x0e, 0x00, 0x05, 0xf3, 0xea, 
  0xef, 0xc5, 0x0c, 0x1f, 0x0b, 0x2a, 0x1b, 0x0a, 0x00, 0xc9, 0xf4, 0x00, 
  0x0a, 0x2b, 0xf6, 0xf9, 0xea, 0x19, 0xf7, 0x2c, 0xc6, 0x19, 0x48, 0xf7, 
  0x1d, 0x00, 0xd0, 0xf6, 0xf6, 0x00, 0xc9, 0xec, 0x00, 0xd7, 0x1e, 0x39, 
  0x15, 0x07, 0x0a, 0xdd, 0x00, 0x10, 0xdf, 0xca, 0x0e, 0xfb, 0x00, 0x08, 
  0xed, 0x17, 0xf5, 0xe9, 0x1c, 0xdd, 0x10, 0x1d, 0xfb, 0x0e, 0xef, 0x9f, 
  0x26, 0xfb, 0xf4, 0xd6, 0xfa, 0x16, 0x1c, 0xfc, 0xe0, 0xf4, 0x0c, 0x30, 
  0x1d, 0x00, 0xf2, 0x0b, 0x3a, 0x00, 0xf9, 0xf5, 0x00, 0xf2, 0x2b, 0xf6, 
  0xf2, 0x3b, 0xf7, 0x46, 0x12, 0x23, 0xe8, 0x1c, 0xf3, 0x15, 0x00, 0xe1, 
  0x06, 0x1c, 0xfb, 0xd2, 0x00, 0x41, 0x05, 0xc4, 0xed, 0x33, 0x19, 0x00, 
  0xfb, 0x19, 0x0f, 0x17, 0x04, 0xe7, 0x00, 0xf0, 0x00, 0x06, 0x06, 0x06, 
  0x1c, 0xde, 0xd4, 0x29, 0x06, 0x05, 0x0d, 0x00, 0xef, 0x27, 0xf4, 0x1f, 
  0xf5, 0xf8, 0x07, 0xda, 0xf6, 0xf7, 0xdb, 0x00, 0xc4, 0xea, 0x13, 0x07, 
  0x0f, 0x08, 0xef, 0x07, 0x0e, 0x33, 0xf4, 0x1b, 0xec, 0x0a, 0x30, 0xfb, 
  0xd7, 0xd4, 0x21, 0xf3, 0xed, 0x00, 0xf8, 0xde, 0x00, 0xe2, 0xec, 0x15, 
  0x0c, 0x17, 0xdf, 0xd5, 0xf9, 0xfb, 0x0a, 0xf8, 0xfa, 0x00, 0xf5, 0xc6, 
  0x00, 0xf4, 0xf8, 0x13, 0x05, 0x24, 0xf8, 0xd0, 0x33, 0x05, 0xf0, 0xef, 
  0x00, 0x22, 0xf7, 0xf8, 0xf0, 0x00, 0x23, 0x0a, 0x1d, 0x08, 0xf2, 0xf5, 
  0x2e, 0xf1, 0xf1, 0x0b, 0x14, 0xbb, 0x00, 0x00, 0xeb, 0x18, 0x1c, 0x3b, 
  0x23, 0x2b, 0xf0, 0x25, 0xed, 0x2a, 0xf2, 0x00, 0xfa, 0x1c, 0x0a, 0xd2, 
  0xbb, 0x41, 0xfb, 0xec, 0x1d, 0x00, 0xef, 0x00, 0xeb, 0xe7, 0xed, 0x0c, 
  0xee, 0xf8, 0xfc, 0x00, 0x09, 0xfa, 0xfa, 0xe2, 0x09, 0x00, 0xea, 0x1b, 
  0xe0, 0xfb, 0x0d, 0x21, 0x00, 0x00, 0xed, 0xe1, 0xf5, 0x19, 0x00, 0xda, 
  0x00, 0x1b, 0x0c, 0x00, 0xc4, 0xdf, 0x0a, 0x0f, 0x0f, 0xc5, 0xd5, 0xe3, 
  0x00, 0x26, 0xc4, 0x09, 0xf6, 0xd9, 0x6f, 0x0a, 0x00, 0xc6, 0xea, 0x0d, 
  0x05, 0x0e, 0xe9, 0x0b, 0xf9, 0x07, 0xe1, 0x0e, 0x00, 0x10, 0x21, 0xf5, 
  0x07, 0x05, 0xec, 0xf8, 0x06, 0xe9, 0x42, 0x23, 0xf5, 0xe9, 0x10, 0x00, 
  0xf2, 0xeb, 0xfc, 0x00, 0xcd, 0x05, 0xfc, 0x08, 0x06, 0xea, 0xd1, 0xfc, 
  0xe8, 0x23, 0xe8, 0xd0, 0xf6, 0x19, 0xf2, 0x2b, 0xbb, 0x0b, 0xf9, 0x22, 
  0xec, 0x0e, 0xf2, 0x00, 0x15, 0xdd, 0xe4, 0xd1, 0xe6, 0x00, 0xf8, 0xf7, 
  0x06, 0xc1, 0xfb, 0x08, 0xfa, 0xbf, 0x0f, 0x22, 0x29, 0xe6, 0x0b, 0x32, 
  0xe3, 0xcd, 0x08, 0x0f, 0x0b, 0x40, 0x04, 0xd2, 0x09, 0xf8, 0x0c, 0x08, 
  0x00, 0x06, 0xfa, 0x12, 0xf7, 0x09, 0x36, 0xc9, 0x0d, 0xfb, 0xe7, 0xdf, 
  0x11, 0xf6, 0xfa, 0xec, 0x15, 0x32, 0x07, 0xf6, 0xf2, 0x00, 0x12, 0xfa, 
  0x14, 0x16, 0x0a, 0x07, 0xd4, 0xe7, 0x22, 0x1d, 0xe3, 0xe7, 0x3c, 0xd3, 
  0x14, 0x31, 0xb1, 0x0f, 0x00, 0xe3, 0xea, 0xec, 0x0f, 0xbc, 0x0f, 0x22, 
  0x07, 0x07, 0x29, 0xdd, 0xfa, 0x10, 0xf8, 0x20, 0x00, 0xeb, 0x33, 0x18, 
  0xfa, 0x00, 0xf5, 0xf4, 0x11, 0x00, 0xf0, 0x13, 0x09, 0x24, 0xef, 0xe8, 
  0x40, 0xfb, 0xf4, 0xf8, 0x06, 0x38, 0x00, 0xfc, 0xe8, 0xd2, 0xf4, 0x30, 
  0x27, 0xe7, 0x00, 0xe0, 0x3a, 0x00, 0x16, 0x17, 0x14, 0xd6, 0x07, 0xec, 
  0xeb, 0xf4, 0x12, 0x2f, 0x2c, 0x11, 0xd8, 0x37, 0x00, 0x2a, 0xf2, 0x0f, 
  0xf5, 0x09, 0x00, 0xf5, 0xe4, 0xf3, 0xfb, 0xf6, 0x30, 0x33, 0xf8, 0x00, 
  0x05, 0xb4, 0x00, 0x0c, 0xfc, 0x19, 0x04, 0xfc, 0x00, 0xfa, 0xe8, 0xe8, 
  0x25, 0xc4, 0xf5, 0x00, 0xf3, 0xeb, 0x26, 0x16, 0x00, 0x00, 0x0c, 0xec, 
  0xcb, 0xf8, 0xf2, 0xc7, 0xfd, 0x24, 0xcf, 0x13, 0x00, 0xea, 0xe3, 0x0f, 
  0x2c, 0x00, 0x11, 0xf9, 0x3a, 0x26, 0x0c, 0x09, 0xe3, 0xcf, 0x10, 0x05, 
  0xe1, 0xd4, 0x21, 0x14, 0xe3, 0x00, 0xe9, 0xe9, 0x15, 0xf9, 0x00, 0x15, 
  0x12, 0xf8, 0x11, 0x20, 0x23, 0x10, 0xc3, 0xe8, 0x00, 0xe9, 0x37, 0x0c, 
  0xe4, 0xd1, 0x00, 0x0a, 0x09, 0xdc, 0x00, 0x18, 0xf3, 0xfb, 0x04, 0x19, 
  0x1f, 0x0b, 0xf7, 0xf8, 0xf0, 0x00, 0x0c, 0xe3, 0xf6, 0xf0, 0x07, 0x2b, 
  0x00, 0x04, 0x24, 0x44, 0x00, 0x0e, 0xf2, 0x05, 0x07, 0x00, 0xc9, 0xf4, 
  0xe6, 0xf7, 0x10, 0x1c, 0x0d, 0x0b, 0x05, 0x08, 0xef, 0xdb, 0x05, 0x22, 
  0x45, 0xcc, 0xf5, 0x00, 0xd0, 0xc3, 0xf8, 0xfb, 0xfb, 0x19, 0x04, 0x00, 
  0xfc, 0x08, 0xfc, 0x0c, 0xee, 0x17, 0x06, 0x1e, 0xf7, 0x11, 0x21, 0xd7, 
  0xed, 0x05, 0xb4, 0xea, 0x00, 0xec, 0x00, 0xe1, 0x35, 0x19, 0x1b, 0x1d, 
  0xfd, 0xe5, 0x1e, 0x00, 0x1e, 0x2b, 0x0a, 0xd3, 0xea, 0xf8, 0x11, 0x00, 
  0xe3, 0xcd, 0x30, 0xf7, 0xf6, 0x14, 0x91, 0xfb, 0xe1, 0x2c, 0x21, 0xec, 
  0x0a, 0x00, 0xf1, 0xf5, 0x24, 0x1e, 0x29, 0xf9, 0xe9, 0xf8, 0xce, 0xea, 
  0x07, 0xfb, 0x14, 0x20, 0xd4, 0x22, 0x21, 0xf4, 0xef, 0xf4, 0xe9, 0x00, 
  0x05, 0x07, 0x04, 0xdc, 0x19, 0xea, 0xf8, 0x00, 0xfa, 0x22, 0xf7, 0x04, 
  0xe0, 0xe9, 0x00, 0x13, 0x13, 0xcf, 0xf9, 0xf5, 0x2e, 0x04, 0xea, 0xde, 
  0x28, 0xe4, 0x07, 0x05, 0x00, 0x18, 0x00, 0x23, 0x23, 0xef, 0xe0, 0x00, 
  0xf3, 0x20, 0xed, 0xe9, 0xea, 0x1c, 0xfb, 0xc7, 0xd7, 0x34, 0xf0, 0xe2, 
  0x00, 0x1f, 0xbd, 0xf1, 0xfb, 0x9a, 0xfc, 0x2e, 0x09, 0xf8, 0x04, 0xf8, 
  0x1a, 0x00, 0xe8, 0x00, 0x09, 0xef, 0x00, 0x29, 0xfa, 0x05, 0xe7, 0x16, 
  0x0b, 0x00, 0xe7, 0xd7, 0xeb, 0x11, 0xf2, 0xf6, 0x00, 0x24, 0x12, 0xf3, 
  0xf6, 0x0b, 0x13, 0x1e, 0x25, 0xe7, 0x00, 0x0f, 0x3a, 0x0d, 0xd0, 0x2d, 
  0xe3, 0xe2, 0x00, 0x0a, 0xe1, 0x3a, 0x2c, 0x28, 0xf6, 0x29, 0xe9, 0xb0, 
  0xf2, 0xf1, 0xe1, 0x0e, 0xfa, 0x00, 0xe7, 0xd5, 0xf2, 0xf6, 0x33, 0x18, 
  0xda, 0xf5, 0xf5, 0xd2, 0x06, 0xe9, 0x08, 0x13, 0x05, 0xf2, 0x00, 0xd0, 
  0x0d, 0xea, 0x04, 0xde, 0x00, 0x0b, 0x2f, 0x11, 0xf0, 0xe9, 0x00, 0xf6, 
  0x30, 0xdf, 0xeb, 0xf5, 0x00, 0x00, 0xdc, 0xe9, 0x28, 0xc8, 0x07, 0xf1, 
  0xdd, 0x23, 0x12, 0x0c, 0x12, 0x1a, 0x10, 0x09, 0x00, 0x0b, 0xf2, 0xda, 
  0xf5, 0xee, 0xfb, 0xde, 0xd7, 0x1a, 0xf0, 0x00, 0xf6, 0x14, 0x11, 0x00, 
  0xf0, 0xe7, 0xf8, 0x3a, 0xf7, 0x00, 0x00, 0x04, 0xf7, 0xe9, 0x06, 0x06, 
  0x09, 0xe6, 0xf5, 0x44, 0xfa, 0xe1, 0xf3, 0x2c, 0x06, 0x31, 0xf4, 0xe1, 
  0xeb, 0x00, 0x07, 0xed, 0xf2, 0x2d, 0xfa, 0xfa, 0xce, 0x00, 0xed, 0x0f, 
  0x1d, 0x00, 0xcd, 0xea, 0x2b, 0xf3, 0x00, 0xf7, 0xc5, 0xd9, 0x4f, 0xf1, 
  0xc2, 0xd4, 0x00, 0x14, 0xfb, 0x44, 0xf8, 0xe9, 0xdc, 0xdb, 0xec, 0x07, 
  0x06, 0x08, 0x21, 0x2b, 0xf9, 0x10, 0xcd, 0x10, 0x00, 0xbc, 0xf5, 0x3a, 
  0xef, 0x23, 0xf8, 0x00, 0xf7, 0x0e, 0xfc, 0x18, 0xc0, 0x00, 0xf4, 0x33, 
  0x00, 0xf5, 0xed, 0x08, 0x18, 0x2e, 0xf4, 0xf6, 0xe3, 0x29, 0x15, 0xf5, 
  0xdd, 0x00, 0x07, 0x0b, 0xe2, 0x2a, 0xea, 0x14, 0x23, 0x00, 0xf7, 0xe9, 
  0xf7, 0xe6, 0x10, 0x09, 0x06, 0x00, 0x00, 0xe9, 0x16, 0xdb, 0x00, 0x2e, 
  0x29, 0x0d, 0xeb, 0x1e, 0xd0, 0xec, 0x2a, 0x0f, 0xf5, 0x40, 0xfc, 0x0c, 
  0xfc, 0x08, 0x08, 0xf0, 0xdd, 0x00, 0x06, 0x18, 0x00, 0x22, 0x16, 0xd7, 
  0x0d, 0x0f, 0xc1, 0x0b, 0xef, 0xf6, 0x19, 0x14, 0x4a, 0x2a, 0xe5, 0x0a, 
  0x07, 0xe5, 0x06, 0xf3, 0x46, 0x2b, 0x30, 0x07, 0xea, 0x00, 0x09, 0x16, 
  0xd5, 0xda, 0x00, 0xf7, 0x1d, 0x1e, 0xf0, 0x0a, 0xf6, 0x3a, 0xdf, 0xdf, 
  0x00, 0xbc, 0xf8, 0xf5, 0x07, 0x07, 0x1f, 0xcf, 0x0c, 0xe9, 0xef, 0x0b, 
  0x0e, 0x05, 0xf6, 0x10, 0x06, 0xe9, 0x0b, 0x17, 0xef, 0x0c, 0x17, 0x0a, 
  0x0e, 0xdc, 0x0d, 0xf4, 0xf3, 0x10, 0xf8, 0x11, 0x00, 0xea, 0xda, 0x04, 
  0xf0, 0x23, 0xdd, 0xe3, 0x13, 0x31, 0xf9, 0x20, 0xdd, 0xfc, 0x0f, 0x17, 
  0xf6, 0x38, 0x16, 0xf1, 0x0e, 0xe8, 0xc9, 0xc5, 0xd4, 0xf7, 0x20, 0x12, 
  0x13, 0xab, 0x0e, 0x00, 0x0b, 0x00, 0x1a, 0x39, 0x1c, 0xcc, 0xf0, 0x3c, 
  0x0a, 0xe1, 0x08, 0xfb, 0x05, 0x19, 0x0b, 0xdd, 0x0d, 0xe7, 0x10, 0xf4, 
  0xd4, 0x06, 0x00, 0x12, 0xdb, 0x09, 0x4c, 0xd7, 0xfa, 0xf1, 0xda, 0xea, 
  0x11, 0x00, 0x0c, 0x1f, 0x0b, 0xf8, 0x07, 0x1d, 0x03, 0xe5, 0xe8, 0xfa, 
  0x28, 0x21, 0xe3, 0xe2, 0xe3, 0x19, 0x22, 0x16, 0xe3, 0xf3, 0x18, 0x09, 
  0xec, 0x27, 0xd0, 0xfb, 0x33, 0x2c, 0xdf, 0xf9, 0x0a, 0xd7, 0x0f, 0x00, 
  0x07, 0x16, 0x47, 0x07, 0xdd, 0x17, 0x00, 0xca, 0x07, 0x00, 0x0a, 0x10, 
  0xf3, 0x22, 0xea, 0x0c, 0x11, 0xd1, 0x08, 0x3a, 0x13, 0x15, 0x08, 0x18, 
  0x00, 0xf5, 0x00, 0x00, 0xf4, 0x38, 0x00, 0x00, 0xd0, 0x23, 0x0c, 0x13, 
  0x1d, 0xd7, 0xf2, 0xbf, 0x23, 0x07, 0xe3, 0xd3, 0x0a, 0x1c, 0x16, 0x0a, 
  0x07, 0x00, 0x12, 0x23, 0x23, 0x34, 0x20, 0x12, 0x00, 0xf5, 0xfb, 0xf1, 
  0xef, 0x09, 0xf1, 0xf5, 0xc9, 0x1a, 0x00, 0xf6, 0x4e, 0x0a, 0xef, 0xed, 
  0xf0, 0xe7, 0xfc, 0x17, 0x04, 0x08, 0xfc, 0x04, 0x1a, 0xef, 0x00, 0xf4, 
  0x13, 0xe6, 0x00, 0x0e, 0x0d, 0xfb, 0x19, 0x37, 0x11, 0x31, 0xed, 0xcd, 
  0xd6, 0xe7, 0x00, 0x00, 0xfd, 0x2d, 0x06, 0xe0, 0x14, 0xd5, 0xed, 0x0f, 
  0x07, 0x08, 0x11, 0x00, 0x2b, 0x0d, 0xf4, 0x12, 0xec, 0xf6, 0xd0, 0x00, 
  0x0a, 0xc6, 0x21, 0x1b, 0x0a, 0x29, 0xe2, 0xf5, 0xe3, 0xe2, 0xd7, 0x15, 
  0x0c, 0xd9, 0x21, 0x41, 0x00, 0x10, 0xec, 0xf8, 0x19, 0xf5, 0x21, 0x0c, 
  0xea, 0x0c, 0x27, 0xf6, 0x05, 0x07, 0xfc, 0x24, 0xcd, 0xf5, 0x0c, 0x00, 
  0x0c, 0xde, 0x09, 0xf8, 0x10, 0x23, 0xf4, 0xed, 0x13, 0x08, 0x15, 0x36, 
  0x0c, 0x04, 0x2c, 0x0b, 0xec, 0x2a, 0xf9, 0x14, 0x23, 0xb9, 0xf7, 0xc5, 
  0xe6, 0xd5, 0x08, 0x00, 0x0d, 0xe0, 0x00, 0x0f, 0x06, 0x12, 0x00, 0x17, 
  0xe4, 0xd9, 0xfb, 0x1e, 0x13, 0x0a, 0x2a, 0x13, 0xeb, 0x0d, 0xf5, 0xd2, 
  0xf7, 0xe7, 0x04, 0x04, 0x00, 0x06, 0xf4, 0x1e, 0xdb, 0xef, 0xea, 0x00, 
  0x13, 0x0f, 0xb4, 0xd4, 0x0b, 0xec, 0x0c, 0x00, 0x20, 0x21, 0x0e, 0x13, 
  0xf9, 0xee, 0x18, 0x20, 0x32, 0x62, 0x13, 0x00, 0x0f, 0x2a, 0x09, 0x25, 
  0xf2, 0xb4, 0x3c, 0x00, 0x00, 0x0a, 0xf0, 0x0a, 0x0a, 0x00, 0xd4, 0x07, 
  0x05, 0xd7, 0x00, 0x22, 0xf2, 0x00, 0x29, 0xf9, 0x12, 0xe1, 0x08, 0x00, 
  0x23, 0x05, 0xe2, 0xf0, 0x20, 0xf5, 0x2c, 0x17, 0x06, 0x00, 0x1f, 0xc6, 
  0x0e, 0x1c, 0x08, 0x18, 0xc0, 0x0b, 0xfc, 0x00, 0xfa, 0x00, 0x26, 0x0c, 
  0x18, 0x0c, 0xd1, 0xf6, 0xe3, 0x29, 0x15, 0x41, 0xe9, 0xf9, 0x0f, 0x2d, 
  0xe2, 0xe4, 0xf9, 0xf1, 0xf2, 0xb9, 0xee, 0xdd, 0xf7, 0x00, 0x10, 0xc9, 
  0xf3, 0xeb, 0x0a, 0x17, 0x00, 0xd2, 0x00, 0x17, 0x29, 0xcc, 0xf5, 0x32, 
  0xc6, 0x00, 0x08, 0x0f, 0x10, 0x26, 0x00, 0x23, 0x04, 0x19, 0x00, 0x10, 
  0xdd, 0x0c, 0xf4, 0xf4, 0xdb, 0x22, 0x16, 0xbc, 0x19, 0x0a, 0x00, 0xc9, 
  0x11, 0xc5, 0x06, 0x14, 0x2a, 0x08, 0x07, 0x1d, 0xfd, 0xf7, 0x18, 0xfa, 
  0x1e, 0x21, 0x1d, 0xf1, 0x00, 0x11, 0x00, 0x1d, 0xc6, 0x3f, 0x24, 0x12, 
  0x00, 0x1e, 0xc0, 0x00, 0x52, 0x0f, 0xf5, 0xf3, 0x13, 0xd7, 0x0f, 0xf5, 
  0x1d, 0xf1, 0x00, 0x00, 0xe9, 0x08, 0xdf, 0xd5, 0x07, 0xfb, 0xf6, 0x18, 
  0x0d, 0x22, 0x0b, 0x0c, 0x1c, 0x23, 0xd1, 0x27, 0xed, 0xf2, 0x08, 0xdc, 
  0x0d, 0x00, 0xfc, 0xf8, 0xee, 0x38, 0x26, 0xef, 0xf0, 0xf4, 0x2f, 0x13, 
  0x0a, 0xf8, 0x00, 0xe0, 0x0c, 0x0f, 0xe3, 0xd3, 0x00, 0xf2, 0x07, 0xfb, 
  0x0e, 0x0c, 0x09, 0x0c, 0x23, 0x1a, 0x18, 0x2e, 0xed, 0x15, 0xf6, 0xf1, 
  0xea, 0xee, 0x05, 0xde, 0xe4, 0x27, 0x05, 0xec, 0x13, 0x00, 0xd6, 0x0a, 
  0x05, 0xe7, 0xf8, 0x2e, 0xee, 0xef, 0x08, 0xfc, 0x1a, 0xef, 0xe2, 0x0c, 
  0x00, 0x00, 0xf5, 0x37, 0xf3, 0xf6, 0x19, 0x21, 0xef, 0x1d, 0xfa, 0xf6, 
  0xd6, 0x08, 0xf9, 0x00, 0xef, 0x2d, 0x12, 0x06, 0x0a, 0xdf, 0x00, 0x1e, 
  0x25, 0xf8, 0xde, 0x07, 0x3a, 0x65, 0xdc, 0x09, 0xec, 0x0a, 0x5f, 0xf1, 
  0xe1, 0xb7, 0x2c, 0xf9, 0x0a, 0x29, 0xf8, 0x17, 0xeb, 0x07, 0x00, 0x07, 
  0x0c, 0x17, 0x00, 0x16, 0x23, 0x10, 0xc3, 0xe8, 0x19, 0xc8, 0x2c, 0x3a, 
  0xea, 0xdd, 0x2f, 0xe3, 0x09, 0x00, 0xef, 0xf4, 0xda, 0xfb, 0xfc, 0x08, 
  0x19, 0xc8, 0xf7, 0xfc, 0xe8, 0x45, 0x23, 0xda, 0xf6, 0x21, 0x1d, 0x0b, 
  0xc6, 0xf1, 0x16, 0x0b, 0xce, 0x38, 0x07, 0xfb, 0x00, 0xf4, 0xb6, 0xba, 
  0xdd, 0xef, 0x00, 0xe4, 0x1a, 0xcb, 0xf6, 0x17, 0x16, 0xd2, 0x14, 0x0b, 
  0x0e, 0x00, 0xf5, 0x3c, 0x13, 0xd7, 0x21, 0xfb, 0x05, 0x26, 0x04, 0xf4, 
  0x04, 0x00, 0x0c, 0x10, 0xee, 0x11, 0x12, 0x00, 0x00, 0x09, 0xf5, 0xe5, 
  0x13, 0x0a, 0x19, 0x00, 0xf5, 0x00, 0x13, 0x14, 0x40, 0x08, 0x0e, 0x13, 
  0x03, 0xe5, 0xee, 0x13, 0x14, 0xf5, 0x13, 0xdb, 0xf9, 0x19, 0x22, 0x25, 
  0xb8, 0xe7, 0x18, 0x12, 0xf6, 0x27, 0x20, 0x05, 0xeb, 0x00, 0xf5, 0xec, 
  0x00, 0xe5, 0x26, 0x17, 0x00, 0x25, 0x3d, 0xe4, 0xfa, 0xf8, 0xf8, 0x16, 
  0xf9, 0xeb, 0xf6, 0x10, 0xfa, 0x17, 0xf5, 0xe9, 0x06, 0xc5, 0xf8, 0x00, 
  0xe9, 0x07, 0x04, 0xe8, 0x00, 0xea, 0xfc, 0xde, 0xe1, 0x16, 0x00, 0xfc, 
  0xf0, 0x23, 0x00, 0x0a, 0x1d, 0xd7, 0x07, 0xbf, 0x23, 0x00, 0xf9, 0x38, 
  0x0a, 0xad, 0xf9, 0xe3, 0xe4, 0x2f, 0x1c, 0x0c, 0x09, 0xef, 0x18, 0x2e, 
  0x00, 0x20, 0x00, 0x0f, 0xe4, 0x09, 0xfb, 0x0b, 0xad, 0x00, 0xeb, 0xf6, 
  0x13, 0x1f, 0x08, 0xfb, 0xf5, 0x00, 0xfc, 0x23, 0xee, 0xcd, 0xe3, 0xfc, 
  0x23, 0x00, 0xdc, 0x0c, 0x13, 0x00, 0x16, 0x0e, 0xf3, 0xfb, 0x0d, 0x0b, 
  0xea, 0x0a, 0xe1, 0x00, 0xe0, 0xdf, 0xf2, 0x0a, 0xf6, 0xe5, 0xe8, 0x00, 
  0xe2, 0x16, 0xf6, 0x1e, 0x25, 0xde, 0xd5, 0xea, 0x00, 0xe7, 0xf4, 0x1b, 
  0xec, 0xf6, 0x00, 0x05, 0xf6, 0xf1, 0x00, 0x07, 0xe8, 0x0e, 0xe9, 0x17, 
  0xe3, 0xdb, 0xe1, 0x07, 0x17, 0x00, 0x19, 0x20, 0x07, 0x05, 0x00, 0x08, 
  0x13, 0xe9, 0x21, 0x17, 0xea, 0xe9, 0x10, 0x00, 0x09, 0x00, 0x04, 0x18, 
  0xe7, 0x00, 0x08, 0x00, 0x25, 0xea, 0x09, 0x00, 0xf8, 0x45, 0xc5, 0xd0, 
  0xbc, 0x21, 0x00, 0xea, 0xd2, 0xfc, 0x2c, 0x00, 0x14, 0x2a, 0xf2, 0x1d, 
  0x00, 0xe8, 0x00, 0xc5, 0xee, 0xef, 0x08, 0xf7, 0x00, 0xeb, 0x05, 0x0f, 
  0xfa, 0xdb, 0xf6, 0x39, 0x45, 0xd9, 0x00, 0x14, 0x0a, 0xcd, 0x21, 0xf6, 
  0x15, 0xf3, 0x04, 0xdd, 0x04, 0x08, 0x10, 0xf4, 0xf7, 0x1d, 0x00, 0xfa, 
  0xdb, 0x2b, 0x0b, 0x0e, 0xf3, 0x0a, 0xe7, 0xea, 0x00, 0x0a, 0x1f, 0x0a, 
  0xf5, 0x21, 0xec, 0x1d, 0x07, 0x1b, 0x12, 0x13, 0x28, 0x2b, 0x0a, 0xf1, 
  0xf1, 0x11, 0x1a, 0xf1, 0xc6, 0xc1, 0x0c, 0xee, 0x1d, 0xf6, 0xd0, 0x05, 
  0x1f, 0x3a, 0xf5, 0xf9, 0x0f, 0x0e, 0x17, 0x22, 0x15, 0x1e, 0xf6, 0x07, 
  0x12, 0x08, 0x08, 0x00, 0x0e, 0x05, 0xec, 0xd1, 0x13, 0xb1, 0x21, 0x0c, 
  0x11, 0x17, 0x17, 0xed, 0x00, 0xe4, 0x08, 0x18, 0xe7, 0xf5, 0xf8, 0x19, 
  0xfa, 0xd3, 0x09, 0xfc, 0x28, 0x17, 0x00, 0xed, 0xed, 0x21, 0x15, 0x2b, 
  0xbb, 0xfc, 0x00, 0x17, 0x00, 0xf2, 0xf2, 0xfb, 0x00, 0x96, 0xe4, 0xba, 
  0xee, 0xcc, 0x18, 0xad, 0xf3, 0xf5, 0xf2, 0x17, 0x0b, 0xdb, 0xf1, 0x00, 
  0x37, 0xe6, 0xf5, 0x1e, 0xd9, 0x0a, 0xef, 0x00, 0x00, 0x33, 0x0f, 0xc6, 
  0xee, 0x11, 0xf4, 0xf4, 0xd4, 0x0c, 0x12, 0x0c, 0x09, 0xf7, 0x16, 0xc9, 
  0x06, 0x00, 0xe7, 0x0b, 0xf5, 0xd9, 0x06, 0x00, 0x2a, 0x21, 0x1b, 0xf6, 
  0x03, 0xd3, 0x00, 0xf3, 0x28, 0x41, 0x0a, 0xf9, 0x0f, 0x00, 0x2b, 0x1d, 
  0xf2, 0xda, 0x18, 0xdc, 0xf6, 0x31, 0x10, 0xfb, 0xf6, 0x0f, 0xea, 0xec, 
  0x00, 0xd7, 0x08, 0xf5, 0xf9, 0xf1, 0x1f, 0xe4, 0xdd, 0x10, 0xdf, 0x2b, 
  0xdd, 0xfb, 0x33, 0x28, 0xe0, 0x22, 0xea, 0xd2, 0x0b, 0xdd, 0xf0, 0x0a, 
  0xf7, 0xf9, 0x08, 0xc3, 0xf3, 0x00, 0xfc, 0x11, 0xee, 0x2d, 0x38, 0x00, 
  0xe0, 0xdd, 0x23, 0xed, 0x1d, 0x21, 0xf2, 0x00, 0x23, 0x07, 0xe3, 0x17, 
  0x0a, 0xd6, 0x24, 0xf1, 0x07, 0x0c, 0x1c, 0x3b, 0x09, 0x09, 0xf0, 0x1c, 
  0x0d, 0x20, 0xdf, 0x00, 0x11, 0x12, 0x00, 0xf5, 0xd7, 0x41, 0xeb, 0xc4, 
  0x0a, 0x1f, 0xdf, 0x00, 0x05, 0xe7, 0xf8, 0x17, 0x04, 0xf8, 0x00, 0xfc, 
  0x09, 0xf4, 0xf4, 0xe2, 0x25, 0xe6, 0xf5, 0x44, 0xed, 0xfb, 0x0d, 0x00, 
  0xf5, 0x1d, 0xe7, 0xf6, 0x0b, 0x00, 0xde, 0xf6, 0x0a, 0xf7, 0xf4, 0xf3, 
  0x00, 0x0b, 0xe3, 0x1e, 0x25, 0x08, 0xe6, 0xf9, 0x2b, 0xf3, 0x18, 0x1b, 
  0x0a, 0x00, 0x5f, 0xec, 0xe1, 0xb7, 0x21, 0x1b, 0xf6, 0x36, 0xe2, 0x0b, 
  0xeb, 0xea, 0xe1, 0x07, 0x12, 0x17, 0x11, 0x16, 0x15, 0x00, 0xe2, 0xe8, 
  0xf3, 0xde, 0x16, 0x3a, 0xe4, 0x23, 0x00, 0xbc, 0x13, 0xd5, 0x04, 0x00, 
  0xe7, 0x0b, 0xfc, 0x2a, 0x12, 0x00, 0xed, 0xfc, 0x28, 0x23, 0xa1, 0x1d, 
  0xe3, 0x00, 0xf2, 0x00, 0xf4, 0xed, 0x07, 0x00, 0xec, 0x1c, 0x24, 0x0f, 
  0x0e, 0x00, 0xe4, 0x00, 0xe6, 0xe6, 0x10, 0x00, 0x00, 0xcb, 0x00, 0x0f, 
  0x00, 0x09, 0x00, 0x0b, 0x45, 0xbf, 0xf0, 0x14, 0x0a, 0xe1, 0x11, 0xfb, 
  0x05, 0x33, 0x0f, 0xd2, 0xfc, 0x00, 0x10, 0x08, 0xe6, 0x00, 0x12, 0x18, 
  0xdb, 0x09, 0x0b, 0x00, 0x19, 0x0f, 0xda, 0x0b, 0xf5, 0xf6, 0x00, 0x29, 
  0x0b, 0x2a, 0x14, 0xf6, 0x03, 0xdc, 0x12, 0x13, 0x00, 0x2b, 0x13, 0x00, 
  0xf9, 0xf8, 0x09, 0x1d, 0xe3, 0xc1, 0x18, 0x09, 0x44, 0x27, 0x81, 0xe7, 
  0x29, 0x49, 0xc9, 0xf3, 0x00, 0x29, 0xf1, 0x0b, 0x00, 0x07, 0x0a, 0xf2, 
  0x23, 0xd9, 0x08, 0x0b, 0x07, 0x05, 0xe2, 0x08, 0x19, 0x0b, 0xea, 0x3a, 
  0xea, 0x23, 0x00, 0xe3, 0xfb, 0xdc, 0x00, 0x30, 0xda, 0x10, 0x08, 0x00, 
  0x25, 0xde, 0xda, 0x04, 0x00, 0x2e, 0xe8, 0x00, 0xed, 0x10, 0x07, 0xf5, 
  0x00, 0x04, 0x1d, 0x44, 0xf6, 0x45, 0xe3, 0x05, 0xf2, 0xf4, 0xdb, 0xdd, 
  0xf7, 0x00, 0x08, 0xd2, 0x06, 0x0b, 0x05, 0xf8, 0xfa, 0xe4, 0x00, 0x00, 
  0x29, 0xd9, 0x05, 0x0a, 0xf6, 0xec, 0x11, 0x00, 0x15, 0x4c, 0x04, 0xdd, 
  0x04, 0x00, 0x08, 0x0c, 0xee, 0xf4, 0x18, 0x0c, 0xe4, 0x09, 0x16, 0x0e, 
  0x13, 0x00, 0xe7, 0xc9, 0x06, 0xf6, 0x19, 0xec, 0x40, 0x19, 0x1b, 0x0a, 
  0x0a, 0xc9, 0x06, 0x0d, 0x1e, 0x2b, 0x13, 0xd3, 0xea, 0x00, 0xf7, 0x1d, 
  0x9b, 0xda, 0x24, 0x12, 0xec, 0x3b, 0xf0, 0xf6, 0xf6, 0x00, 0x16, 0x00, 
  0x0a, 0xbc, 0x26, 0xe9, 0xf2, 0x07, 0x00, 0xd6, 0xe3, 0x08, 0xe7, 0x0b, 
  0xf2, 0x00, 0x29, 0x08, 0x06, 0xf5, 0x21, 0xf4, 0xf5, 0xc5, 0x08, 0x13, 
  0x00, 0x0e, 0x00, 0xc3, 0x26, 0xf5, 0x08, 0x19, 0x06, 0x38, 0xed, 0xef, 
  0xe8, 0xd2, 0x2f, 0x00, 0x0a, 0x00, 0x00, 0xe0, 0x3a, 0xfc, 0x0f, 0xd3, 
  0xf6, 0xd6, 0xf9, 0x00, 0x00, 0x23, 0x1c, 0x46, 0x12, 0x11, 0xc9, 0x09, 
  0xe0, 0x35, 0x0a, 0x08, 0x00, 0x1c, 0xf1, 0xe9, 0x0e, 0x27, 0xf5, 0xce, 
  0x0a, 0x29, 0xd6, 0x0a, 0x05, 0xe7, 0x13, 0x17, 0xee, 0x11, 0xf4, 0xf4, 
  0x00, 0x11, 0xdc, 0x18, 0x13, 0x00, 0x0b, 0x0e, 0xe0, 0x00, 0x33, 0x0b, 
  0xe4, 0x1d, 0xed, 0x00, 0x00, 0xe7, 0xec, 0xd0, 0xf6, 0x1b, 0xee, 0x0d, 
  0xec, 0xdf, 0xf6, 0x07, 0x0f, 0xef, 0xe6, 0xf1, 0x1d, 0x33, 0x24, 0xf7, 
  0x00, 0xec, 0x20, 0x00, 0xe1, 0x00, 0x42, 0x28, 0xf6, 0x52, 0xf8, 0xf5, 
  0x07, 0x07, 0x0a, 0x1c, 0xee, 0xf8, 0xdf, 0xea, 0xeb, 0xf6, 0x1e, 0x28, 
  0x00, 0x00, 0xc9, 0xd2, 0xfa, 0xd1, 0xf8, 0x1d, 0xfb, 0x1c, 0x04, 0x00, 
  0xf3, 0xfb, 0x0c, 0xef, 0xee, 0x16, 0xf7, 0x08, 0xf8, 0xd2, 0xf4, 0x30, 
  0x1d, 0xf8, 0xe3, 0x00, 0x0c, 0xfc, 0xe3, 0xde, 0x00, 0xd6, 0x16, 0xf1, 
  0x0e, 0x18, 0x12, 0x17, 0x09, 0x1a, 0xd1, 0xf7, 0xfa, 0x15, 0x00, 0xe1, 
  0xf5, 0x12, 0xf1, 0xde, 0xad, 0x27, 0xe6, 0xf6, 0xf6, 0xec, 0x00, 0x0a, 
  0xf0, 0x00, 0xf8, 0x3a, 0xfc, 0xe7, 0xf4, 0xe5, 0x2c, 0xe9, 0xfa, 0xf4, 
  0xf7, 0xde, 0xd4, 0x44, 0xfa, 0xf1, 0x33, 0x0b, 0x0b, 0x1d, 0xfa, 0xe1, 
  0xe0, 0xef, 0xde, 0x0a, 0x03, 0x24, 0x12, 0xed, 0xec, 0xdf, 0x0a, 0x00, 
  0x00, 0x00, 0xe6, 0xdb, 0x1d, 0x4c, 0xe8, 0x1b, 0x00, 0xec, 0x30, 0xec, 
  0xf6, 0x00, 0x16, 0x1b, 0xf6, 0x52, 0xf1, 0xd2, 0x00, 0xf9, 0xe1, 0x1c, 
  0xee, 0x00, 0xf8, 0xd5, 0xe4, 0xfb, 0x0a, 0x18, 0xda, 0x0b, 0xdf, 0x3a, 
  0x21, 0xdd, 0xd9, 0x0a, 0xf7, 0x15, 0x00, 0x24, 0xe7, 0xe0, 0xf8, 0xe7, 
  0xfa, 0x43, 0x1c, 0x08, 0xe8, 0x00, 0x18, 0xf6, 0x0a, 0xe7, 0xeb, 0xea, 
  0x45, 0x00, 0xf1, 0xb1, 0x0a, 0xf2, 0x0e, 0xf1, 0xeb, 0x18, 0x25, 0x00, 
  0x23, 0x23, 0x00, 0x12, 0x06, 0x2a, 0x00, 0x0f, 0xfa, 0xd2, 0x05, 0x0b, 
  0x00, 0x00, 0x0b, 0x1e, 0x0a, 0x1f, 0xc6, 0x00, 0x05, 0x0d, 0xfc, 0x0c, 
  0xe1, 0x00, 0xf0, 0x00, 0x2c, 0xfa, 0x12, 0xfa, 0x1c, 0xf7, 0xdf, 0x29, 
  0xda, 0x05, 0x19, 0x21, 0x06, 0x0a, 0xed, 0x14, 0xc0, 0xdf, 0xde, 0x0a, 
  0xf9, 0x1b, 0xfa, 0xfa, 0x0a, 0xea, 0xda, 0xf1, 0xf1, 0xef, 0xd5, 0x07, 
  0x00, 0x26, 0x0c, 0x1b, 0xcf, 0x0a, 0x10, 0xf1, 0x00, 0x1d, 0x21, 0x21, 
  0xe3, 0x52, 0xf1, 0xd2, 0x00, 0xdb, 0x00, 0x1c, 0xe3, 0xf0, 0xe7, 0xe0, 
  0xf9, 0xf6, 0x1e, 0x08, 0xed, 0x2d, 0xea, 0xdd, 0x06, 0xe9, 0x00, 0x3a, 
  0xf7, 0x0e, 0x15, 0x0c, 0x4c, 0x00, 0x0c, 0x22, 0xee, 0x2d, 0x26, 0xfc, 
  0x00, 0xf4, 0x23, 0x13, 0x30, 0x08, 0x00, 0xd5, 0x2e, 0x0b, 0xf1, 0xd3, 
  0x0a, 0xbb, 0x07, 0xf6, 0x00, 0x2f, 0x12, 0x00, 0x00, 0x11, 0x18, 0x25, 
  0xe0, 0x2a, 0xf2, 0xf8, 0xef, 0x09, 0xf1, 0xf5, 0xc9, 0x41, 0xfb, 0xe2, 
  0x30, 0x00, 0x11, 0x05, 0xe5, 0xda, 0xed, 0x0c, 0xee, 0xf8, 0x08, 0x04, 
  0x23, 0xfa, 0x06, 0x12, 0x1c, 0xf7, 0xd4, 0x37, 0x06, 0xf1, 0x00, 0x42, 
  0xef, 0xec, 0x00, 0x00, 0xd6, 0x08, 0xe5, 0x0a, 0x11, 0x12, 0x12, 0x06, 
  0x00, 0x00, 0xd0, 0x0f, 0x0f, 0xde, 0x00, 0x16, 0x1d, 0x26, 0xd0, 0x24, 
  0xf6, 0xec, 0x30, 0x05, 0x0a, 0xc6, 0x21, 0x0d, 0x0a, 0x29, 0xf8, 0xc7, 
  0xf2, 0x07, 0xec, 0x07, 0x17, 0xe1, 0x2a, 0x00, 0x07, 0x10, 0xcd, 0xd8, 
  0x19, 0xe9, 0x00, 0x17, 0x00, 0x00, 0x2f, 0xd9, 0x09, 0xe4, 0x00, 0x3d, 
  0xda, 0x10, 0xfc, 0x3b, 0x12, 0x00, 0xed, 0xfc, 0x00, 0x00, 0xf4, 0x00, 
  0x00, 0x21, 0x15, 0x16, 0xe9, 0x07, 0x16, 0x2d, 0xba, 0x0e, 0xea, 0x05, 
  0x0e, 0x00, 0x12, 0xc5, 0x00, 0xf7, 0x10, 0xee, 0x0d, 0xe0, 0x00, 0x17, 
  0x0b, 0x00, 0xf6, 0x0b, 0x53, 0x00, 0xf5, 0x28, 0xd0, 0xc3, 0x00, 0xf1, 
  0x05, 0x26, 0x08, 0x0c, 0x00, 0xe7, 0xf8, 0x04, 0xcb, 0xfa, 0x00, 0xee, 
  0x09, 0x1a, 0x21, 0xd7, 0xf3, 0xfb, 0x9b, 0x16, 0x0b, 0xc5, 0x00, 0x0a, 
  0x40, 0x21, 0x0e, 0x26, 0x0e, 0xdc, 0xfa, 0x06, 0x14, 0x0b, 0xda, 0xf9, 
  0xdb, 0x11, 0x09, 0xf9, 0xb8, 0xda, 0xf4, 0xe5, 0xf6, 0x27, 0xc0, 0xf6, 
  0xe1, 0x2c, 0x16, 0xf3, 0x0f, 0xe5, 0x0f, 0x0b, 0xf9, 0x25, 0x33, 0xf9, 
  0x0c, 0xf0, 0x11, 0xf5, 0xeb, 0x05, 0xcd, 0xf8, 0x00, 0xe9, 0x00, 0x2e, 
  0xe4, 0x23, 0x08, 0xf6, 0x00, 0xf2, 0x04, 0x3d, 0x00, 0x10, 0xf4, 0x11, 
  0x0c, 0xea, 0xf7, 0x0c, 0x20, 0x23, 0xad, 0xda, 0xd9, 0x10, 0x1d, 0x2b, 
  0xf4, 0xfc, 0x1d, 0xf5, 0xec, 0x2a, 0x07, 0xf6, 0x23, 0xb9, 0x00, 0x00, 
  0xe6, 0xd5, 0x28, 0xf7, 0x0d, 0xc1, 0x05, 0x0f, 0x11, 0xf7, 0x1a, 0x0b, 
  0x53, 0xcc, 0x00, 0x1e, 0x13, 0xd7, 0x19, 0xf1, 0x0b, 0x00, 0x00, 0xf4, 
  0x09, 0x19, 0xfc, 0xfc, 0xd4, 0x06, 0x00, 0x18, 0xed, 0x22, 0x16, 0xe5, 
  0x0d, 0xf1, 0xda, 0xbe, 0xfa, 0x0a, 0x0c, 0x29, 0x20, 0x2a, 0x14, 0x00, 
  0xf9, 0x09, 0x06, 0x20, 0x14, 0x2b, 0x26, 0x00, 0xf9, 0x00, 0x00, 0x1d, 
  0x0e, 0xc1, 0x3c, 0xcb, 0x0a, 0x0a, 0xf0, 0x19, 0x29, 0x2c, 0x0b, 0xec, 
  0x00, 0xe5, 0x17, 0x22, 0xf9, 0x0f, 0x14, 0xf9, 0x0c, 0x17, 0xe7, 0x16, 
  0xe4, 0xe6, 0x0a, 0x2f, 0xfa, 0x00, 0x0b, 0xf4, 0x11, 0xdd, 0xf0, 0x3a, 
  0x0e, 0x15, 0xeb, 0xe8, 0xf3, 0x16, 0x14, 0xf8, 0xfa, 0x0b, 0x26, 0x00, 
  0xe0, 0x17, 0x3b, 0x13, 0x13, 0xf0, 0xf2, 0x0b, 0x23, 0x07, 0xe3, 0xe9, 
  0x32, 0x2a, 0x24, 0x05, 0xeb, 0x23, 0xf7, 0x00, 0x00, 0x00, 0xe0, 0x1c, 
  0xf3, 0x3f, 0xfb, 0xe9, 0x16, 0x2e, 0x0a, 0x17, 0x1c, 0xd9, 0xf5, 0xec, 
  0x30, 0xf6, 0xce, 0xf1, 0xf5, 0xda, 0xf1, 0x23, 0xfc, 0xf8, 0xf4, 0x00, 
  0xf7, 0xfa, 0x00, 0x0c, 0x00, 0x1a, 0xca, 0x29, 0xe0, 0xfb, 0x59, 0x2c, 
  0x06, 0x62, 0x0c, 0xf6, 0xe0, 0xef, 0x14, 0xed, 0x07, 0x37, 0xee, 0xe7, 
  0xec, 0xbf, 0x26, 0x1e, 0x0f, 0xd6, 0x09, 0x07, 0x2b, 0x00, 0x0c, 0xf7, 
  0xd9, 0xe2, 0x40, 0x05, 0x0a, 0x1d, 0x0b, 0xec, 0xfb, 0x0e, 0x08, 0x0b, 
  0xf9, 0x00, 0xf6, 0x00, 0x06, 0xf8, 0x00, 0x20, 0xf2, 0x1f, 0xc3, 0xe8, 
  0x06, 0xde, 0x16, 0x2e, 0xfa, 0xf4, 0x10, 0xe3, 0xf7, 0xf9, 0x00, 0x0c, 
  0x00, 0xf5, 0x00, 0xef, 0x0c, 0xde, 0xc8, 0x00, 0x28, 0x17, 0xe8, 0xda, 
  0xc6, 0x00, 0x15, 0x2b, 0xf4, 0x04, 0xf9, 0x17, 0xc4, 0x0e, 0xd5, 0xfb, 
  0x0e, 0xdd, 0xe4, 0xba, 0xee, 0xe6, 0x18, 0xc9, 0x00, 0xd6, 0x05, 0x00, 
  0x11, 0xe4, 0x0a, 0x22, 0x45, 0xd9, 0xf0, 0x00, 0xf6, 0x14, 0xef, 0x13, 
  0x0b, 0x40, 0xf5, 0xe9, 0x00, 0x00, 0xf8, 0xf8, 0xd4, 0x28, 0xf4, 0x2a, 
  0x13, 0x1a, 0x00, 0x00, 0xfa, 0xf6, 0xf3, 0x16, 0x0b, 0xf6, 0x1f, 0x33, 
  0xf5, 0x08, 0x0e, 0x00, 0x0a, 0xdc, 0x18, 0x00, 0x28, 0x00, 0x13, 0xe2, 
  0xea, 0xde, 0x09, 0x0f, 0x0e, 0x26, 0x24, 0x00, 0x0a, 0x14, 0xc0, 0xf1, 
  0x00, 0x00, 0xf5, 0xf3, 0x0a, 0xe5, 0x26, 0x17, 0x15, 0x25, 0xf6, 0xe4, 
  0x00, 0x1f, 0xdf, 0xbf, 0x00, 0xfb, 0x14, 0x00, 0xfa, 0x0b, 0xb2, 0xe9, 
  0x00, 0x0c, 0x17, 0x0a, 0x09, 0x15, 0xf3, 0xdc, 0x4c, 0xf5, 0xf8, 0xde, 
  0x0c, 0x2d, 0x13, 0x00, 0xf8, 0xd2, 0x0c, 0x0a, 0x27, 0x08, 0x07, 0xd5, 
  0x51, 0x00, 0x00, 0xe9, 0x28, 0xad, 0x1d, 0xf6, 0xf9, 0x18, 0x1c, 0x3b, 
  0x12, 0xf7, 0xf8, 0x25, 0xe6, 0x0b, 0xdf, 0xf1, 0xe4, 0xf7, 0xf6, 0xf5, 
  0xf2, 0x1a, 0xfb, 0xc4, 0x13, 0x1f, 0x11, 0xed, 0xf5, 0x00, 0xf1, 0x3a, 
  0xf3, 0xde, 0x04, 0x08, 0x35, 0x06, 0xf4, 0x06, 0x2f, 0xd5, 0xdf, 0x37, 
  0x00, 0x00, 0xe7, 0x42, 0xef, 0x27, 0xed, 0xf6, 0xeb, 0x08, 0x07, 0xc7, 
  0x07, 0x2d, 0x0c, 0x0d, 0xec, 0x0b, 0xed, 0xf9, 0x1d, 0xc5, 0x00, 0xe3, 
  0x1d, 0x00, 0xd0, 0x09, 0xd9, 0xf6, 0x10, 0xf6, 0xf6, 0x00, 0x00, 0x14, 
  0x0a, 0x1b, 0x08, 0x00, 0xf9, 0xd3, 0x0a, 0x1c, 0x12, 0xf0, 0x08, 0x2b, 
  0x0e, 0xfb, 0x00, 0xe0, 0x06, 0xb1, 0x00, 0x3a, 0x00, 0x00, 0x1f, 0xf6, 
  0x0e, 0x0e, 0xef, 0x00, 0xcd, 0x05, 0x0c, 0xf8, 0x06, 0xbd, 0xed, 0x11, 
  0x18, 0x0c, 0x0c, 0xc7, 0xf6, 0x19, 0x24, 0x00, 0xaf, 0x04, 0x07, 0x38, 
  0xe2, 0x1c, 0x00, 0xfb, 0x0e, 0xc5, 0xee, 0xc5, 0xf7, 0x11, 0x08, 0xe4, 
  0x06, 0xcb, 0x13, 0x0f, 0x00, 0xf7, 0x05, 0x2e, 0x37, 0xe6, 0xf5, 0x14, 
  0xed, 0xec, 0xf8, 0xed, 0xfb, 0x40, 0xfc, 0xbb, 0x04, 0xd6, 0x10, 0xfc, 
  0xe6, 0x17, 0x18, 0x06, 0xe4, 0x1a, 0x2c, 0x1b, 0x13, 0xf6, 0x00, 0xbe, 
  0xea, 0xe3, 0xfa, 0xec, 0x0b, 0x21, 0xf9, 0x26, 0x0a, 0x09, 0x0c, 0x19, 
  0xf6, 0x16, 0x1d, 0xea, 0xdb, 0xf8, 0x11, 0x1d, 0xf2, 0x00, 0x18, 0xdc, 
  0x27, 0x0a, 0xf0, 0x0a, 0x1f, 0x49, 0xd4, 0xd1, 0x05, 0x00, 0x0f, 0x0b, 
  0xf9, 0x0f, 0xf6, 0xf9, 0x00, 0x00, 0x08, 0x00, 0xf9, 0x0a, 0x0a, 0xe0, 
  0x0d, 0x22, 0x2c, 0x23, 0xef, 0xf4, 0x2f, 0xf6, 0x09, 0x00, 0xfc, 0x00, 
  0xe7, 0x16, 0xfc, 0x08, 0x06, 0xea, 0xbe, 0x0c, 0xf0, 0x17, 0xe8, 0xed, 
  0x00, 0x21, 0x24, 0x20, 0x0c, 0x07, 0x16, 0x38, 0xec, 0xd6, 0xf2, 0x05, 
  0x00, 0xe8, 0x1c, 0xba, 0xdd, 0xe6, 0x10, 0x09, 0x13, 0xeb, 0x13, 0xf8, 
  0xfa, 0xdb, 0x0f, 0x22, 0x45, 0x00, 0x0b, 0x32, 0xd9, 0xe1, 0x21, 0xfb, 
  0xfb, 0x26, 0xf5, 0xe9, 0x00, 0xf8, 0x0c, 0xf8, 0xcb, 0x0c, 0x06, 0x18, 
  0x09, 0x00, 0x0b, 0x00, 0xf3, 0xf6, 0xb4, 0xea, 0x06, 0x0a, 0xfa, 0xf6, 
  0x35, 0x11, 0x0e, 0xed, 0x0a, 0xee, 0xee, 0x06, 0x00, 0x21, 0x1d, 0xc4, 
  0xf1, 0x08, 0x1a, 0x1d, 0x9b, 0xc1, 0x30, 0xf7, 0x14, 0x1e, 0xe0, 0xfb, 
  0x15, 0x00, 0x16, 0xe5, 0x0a, 0xe5, 0x00, 0xd2, 0xdc, 0xf9, 0x00, 0x00, 
  0x0c, 0xe9, 0xf8, 0x20, 0xf9, 0x1a, 0x14, 0xd1, 0x00, 0xb1, 0x00, 0x3a, 
  0x00, 0x23, 0x27, 0x00, 0x0e, 0xf2, 0x0d, 0x00, 0xcd, 0x00, 0x00, 0xe7, 
  0x06, 0xde, 0xf7, 0x04, 0x10, 0x17, 0xe8, 0xf6, 0xc6, 0x21, 0x15, 0x4c, 
  0xe9, 0xf5, 0x16, 0x00, 0xe2, 0x0e, 0x00, 0x05, 0xf2, 0xc5, 0xe4, 0x00, 
  0x09, 0x00, 0x18, 0xc0, 0x06, 0xf5, 0x0e, 0x1f, 0xef, 0xf7, 0x14, 0x45, 
  0x00, 0xf3, 0x00, 0xf6, 0xf6, 0xec, 0xef, 0x05, 0xfb, 0x40, 0x0b, 0xf4, 
  0x12, 0x22, 0x0c, 0x10, 0xe6, 0xfa, 0xfa, 0x1e, 0xdb, 0x09, 0x21, 0xc9, 
  0xe0, 0x00, 0xc1, 0x2c, 0x1c, 0xec, 0x0c, 0x33, 0x00, 0x19, 0x14, 0x1d, 
  0x03, 0xf7, 0x0c, 0x00, 0x00, 0x16, 0x0a, 0xf9, 0xf9, 0x08, 0xef, 0x00, 
  0x0e, 0xda, 0x30, 0xee, 0x1d, 0x27, 0xd0, 0x05, 0x29, 0x2c, 0xb3, 0x14, 
  0x0f, 0xf2, 0x17, 0x0b, 0x15, 0x0f, 0x1f, 0x15, 0x00, 0x27, 0x00, 0xf5, 
  0xf9, 0xf0, 0x33, 0x18, 0x0d, 0x22, 0xea, 0x0c, 0x1c, 0x00, 0x08, 0x00, 
  0x05, 0x07, 0xfc, 0x49, 0x26, 0xfb, 0xf8, 0x08, 0x12, 0xea, 0xed, 0xfc, 
  0x18, 0x45, 0x18, 0x26, 0x0a, 0xf8, 0xf9, 0xca, 0x23, 0xf5, 0x07, 0xc8, 
  0x0a, 0xe4, 0x00, 0xf1, 0xf2, 0x3b, 0x25, 0x0c, 0x23, 0x11, 0x08, 0x09, 
  0xfa, 0x2a, 0xf6, 0xe9, 0xfa, 0x12, 0xec, 0xb0, 0x1c, 0x0d, 0x05, 0x28, 
  0x1d, 0x14, 0xef, 0xf6, 0xfb, 0xf3, 0x00, 0x0c, 0xee, 0xf8, 0xf0, 0xf0, 
  0x00, 0xef, 0x18, 0xe8, 0x13, 0x1a, 0xdf, 0x1b, 0x06, 0xf6, 0x00, 0x00, 
  0xdf, 0x1d, 0x0c, 0xcd, 0xe0, 0x00, 0xec, 0x13, 0xfd, 0x2d, 0xf4, 0x06, 
  0x0a, 0x0b, 0xda, 0x1e, 0x16, 0xe7, 0x09, 0xf9, 0xf2, 0x0d, 0x18, 0x00, 
  0xcf, 0xe2, 0x5f, 0x00, 0xe1, 0xe3, 0x0b, 0x07, 0xde, 0xe5, 0xf1, 0xe9, 
  0xf9, 0x07, 0xec, 0x15, 0xe9, 0x27, 0x08, 0xd5, 0xf2, 0xf6, 0x33, 0x00, 
  0x0d, 0x17, 0xd4, 0xdd, 0x0b, 0x2f, 0xe1, 0x0a, 0x05, 0x07, 0x04, 0x0c, 
  0x33, 0xf0, 0x00, 0xde, 0xdb, 0x00, 0x38, 0xf4, 0xe8, 0xd2, 0x0c, 0x1d, 
  0x27, 0x00, 0xdc, 0x0b, 0x00, 0xf5, 0x00, 0xd3, 0x14, 0x2a, 0x0e, 0x05, 
  0xdd, 0x18, 0x25, 0x3b, 0xf7, 0xf7, 0x10, 0x12, 0x1a, 0x0b, 0xf2, 0xf1, 
  0xd4, 0x1c, 0xec, 0xde, 0xf2, 0x27, 0xfb, 0xf6, 0x27, 0x1f, 0xce, 0xed, 
  0x00, 0x19, 0x0b, 0x00, 0x00, 0xef, 0xfc, 0xf4, 0x35, 0xf4, 0xee, 0xfa, 
  0x09, 0x00, 0xca, 0x1b, 0xe0, 0xeb, 0x33, 0xea, 0xef, 0xf6, 0xe7, 0xd7, 
  0xeb, 0xef, 0x00, 0x00, 0xf6, 0x00, 0xdb, 0xf3, 0x00, 0xea, 0xed, 0x00, 
  0x07, 0x11, 0xf7, 0xf9, 0x1d, 0x0d, 0xac, 0x12, 0xf6, 0xec, 0x20, 0xfb, 
  0xe1, 0xd4, 0x2c, 0x0d, 0xde, 0x29, 0xcb, 0x99, 0x0e, 0xe2, 0xe1, 0x00, 
  0x0c, 0xf8, 0x08, 0x36, 0x0e, 0x10, 0xd7, 0xf0, 0x13, 0x17, 0x00, 0x23, 
  0xfa, 0x23, 0x17, 0xf6, 0xfb, 0xf2, 0x0d, 0x00, 0x00, 0x00, 0xfc, 0xf8, 
  0x19, 0xd3, 0xd1, 0x04, 0x10, 0x17, 0xe8, 0x0a, 0xf6, 0x10, 0x00, 0x0b, 
  0x00, 0xfc, 0x24, 0x38, 0xce, 0x0e, 0x00, 0x05, 0xf9, 0xd1, 0xee, 0xe9, 
  0xd4, 0xef, 0x08, 0xd2, 0xfa, 0xe0, 0xf6, 0xf8, 0x11, 0xf7, 0x0a, 0x45, 
  0x1c, 0x0d, 0xf5, 0x32, 0xe3, 0xcd, 0x19, 0x05, 0x0b, 0x4c, 0x04, 0x0c, 
  0x09, 0x11, 0x14, 0x10, 0x00, 0x06, 0xfa, 0x0c, 0xdb, 0x00, 0x36, 0xc9, 
  0x13, 0x00, 0xda, 0x2c, 0x0b, 0xf6, 0x13, 0x0a, 0x40, 0x00, 0x0e, 0x30, 
  0x0e, 0xe5, 0xee, 0x00, 0x3c, 0x00, 0x43, 0xf1, 0xdb, 0x00, 0x1a, 0x25, 
  0xe3, 0xb4, 0xf4, 0x1b, 0x0a, 0x31, 0xd0, 0x0a, 0x33, 0x49, 0xf5, 0xdf, 
  0x00, 0xf2, 0x17, 0xe9, 0x00, 0xf1, 0x33, 0xf2, 0x0c, 0xf0, 0x08, 0xea, 
  0x0e, 0x1a, 0x0a, 0xf0, 0xfa, 0x0b, 0x16, 0x23, 0xe4, 0x17, 0x10, 0xcf, 
  0x13, 0x00, 0x04, 0x61, 0xda, 0x00, 0xf4, 0xf8, 0x12, 0x00, 0xc8, 0x08, 
  0x18, 0x3a, 0xb9, 0xe3, 0xf6, 0x31, 0x0e, 0x2b, 0x00, 0x00, 0x0f, 0x00, 
  0xe2, 0x38, 0xd5, 0xf6, 0xeb, 0xdd, 0xe4, 0xe9, 0xe6, 0xe6, 0x10, 0x09, 
  0x13, 0xf5, 0x0a, 0xd2, 0x11, 0xe4, 0x00, 0xe9, 0x00, 0xcc, 0x00, 0x0a, 
  0xf6, 0xb8, 0x21, 0xfb, 0x05, 0x26, 0x08, 0x00, 0x12, 0x08, 0x04, 0x04, 
  0xc2, 0x06, 0x18, 0x06, 0xd1, 0x00, 0x0b, 0x37, 0x0d, 0xeb, 0xcd, 0xea, 
  0xf5, 0xec, 0x19, 0x0a, 0x35, 0x2a, 0x1b, 0x13, 0x07, 0xd3, 0x06, 0x0d, 
  0x00, 0x00, 0x0a, 0xf1, 0xf1, 0x11, 0x33, 0x00, 0xf2, 0xda, 0x18, 0xdc, 
  0x0a, 0x00, 0xa1, 0x0a, 0xf6, 0x0f, 0x0b, 0xf9, 0x13, 0xd7, 0x08, 0x22, 
  0xeb, 0x1e, 0x1f, 0xf2, 0x0c, 0x1f, 0xe7, 0xf5, 0x00, 0x00, 0x14, 0x00, 
  0xfa, 0x2d, 0xea, 0xf4, 0x00, 0x00, 0xe1, 0x13, 0x00, 0x0e, 0xeb, 0x24, 
  0x26, 0xf5, 0x10, 0xe7, 0xfa, 0x5a, 0x1c, 0xf8, 0x18, 0xdd, 0x18, 0x0a, 
  0x3a, 0xe7, 0x1d, 0xca, 0x0c, 0x00, 0x00, 0x22, 0x3c, 0x0e, 0x2b, 0xf6, 
  0x0e, 0x47, 0x1c, 0x2f, 0x09, 0x1a, 0xd8, 0x09, 0xfa, 0x35, 0xf2, 0xca, 
  0xf5, 0xee, 0xfb, 0x0b, 0xf2, 0x1a, 0xeb, 0x0a, 0x1d, 0x0a, 0xef, 0x0a, 
  0xfb, 0xa7, 0x08, 0x00, 0xf7, 0xe7, 0x04, 0xf4, 0x00, 0xfa, 0x0c, 0x12, 
  0x1c, 0xef, 0xd4, 0x29, 0xfa, 0xf6, 0x3f, 0x2c, 0xf5, 0x27, 0x0c, 0xe1, 
  0xe0, 0x00, 0x00, 0xf6, 0x00, 0x12, 0xe2, 0xe7, 0xe2, 0xea, 0xf6, 0x1e, 
  0x0f, 0xf8, 0xf7, 0xf1, 0x48, 0x26, 0xf4, 0x00, 0xe3, 0xf6, 0x20, 0xf6, 
  0xf6, 0xe3, 0x2c, 0x14, 0x00, 0x00, 0xe9, 0xf5, 0xdc, 0x00, 0xec, 0xf9, 
  0x12, 0xe1, 0x32, 0x20, 0x23, 0xfb, 0x00, 0x08, 0x19, 0xde, 0x16, 0x0c, 
  0xef, 0x00, 0x00, 0xe3, 0x0e, 0x00, 0x04, 0x00, 0x0d, 0xf0, 0x00, 0x19, 
  0x19, 0xbd, 0xe4, 0xfc, 0x18, 0x17, 0xf4, 0xf6, 0xe3, 0x08, 0x00, 0x00, 
  0xe9, 0x04, 0x1d, 0x2d, 0xe2, 0x1c, 0xe3, 0x0a, 0x0e, 0xb9, 0x12, 0x0c, 
  0x00, 0xf7, 0x08, 0x09, 0x20, 0xf5, 0x05, 0x0f, 0xef, 0xe4, 0x00, 0x22, 
  0x45, 0x00, 0xf5, 0x3c, 0xe3, 0x0a, 0x43, 0x00, 0x10, 0x40, 0x0f, 0xd2, 
  0x1b, 0x08, 0x0c, 0x00, 0x09, 0x0c, 0x06, 0x12, 0x25, 0x22, 0x21, 0xe5, 
  0x00, 0x05, 0xc1, 0xdf, 0x0b, 0xec, 0xf4, 0xec, 0x35, 0x21, 0x22, 0x0a, 
  0xfd, 0xf7, 0x06, 0x06, 0x46, 0x2b, 0x1d, 0xd3, 0xdb, 0x08, 0x09, 0x16, 
  0x0e, 0x0d, 0x30, 0x1b, 0xf6, 0x14, 0xd0, 0xec, 0x15, 0x1d, 0x0b, 0xf3, 
  0xf6, 0xca, 0x26, 0x22, 0x1d, 0xf9, 0x14, 0xf2, 0x00, 0xe9, 0x32, 0x20, 
  0xf9, 0xf6, 0x0a, 0x08, 0x19, 0x17, 0x00, 0x17, 0x16, 0x2f, 0x10, 0xc6, 
  0x05, 0xf2, 0xf3, 0x24, 0xf3, 0xfb, 0xf4, 0x08, 0x0c, 0xf5, 0xf7, 0x00, 
  0x18, 0x3a, 0xdd, 0xc7, 0xe3, 0x08, 0x24, 0xea, 0xdd, 0x00, 0x16, 0x17, 
  0x14, 0x00, 0x00, 0x0f, 0x15, 0xf4, 0xc9, 0xd1, 0xc2, 0xf7, 0x10, 0xdb, 
  0x0d, 0xe0, 0x13, 0x00, 0x11, 0xbf, 0x0f, 0x17, 0xd7, 0x00, 0xf0, 0x00, 
  0x00, 0xe1, 0x19, 0xf6, 0xf5, 0x33, 0xf8, 0x00, 0x04, 0xd6, 0x04, 0x08, 
  0xf7, 0x17, 0x12, 0x0c, 0xdb, 0x11, 0xea, 0xd7, 0x13, 0x05, 0x00, 0xa7, 
  0x00, 0xf6, 0x19, 0x0a, 0x4a, 0x00, 0x0e, 0x26, 0x00, 0x00, 0x06, 0x26, 
  0x14, 0x00, 0xf6, 0xea, 0xf9, 0x00, 0x22, 0xf9, 0x00, 0xda, 0x48, 0xb9, 
  0x1d, 0x0a, 0xd0, 0x0a, 0x0a, 0xf1, 0xc9, 0xf3, 0x0a, 0xd7, 0x17, 0x17, 
  0x15, 0x00, 0xf6, 0x00, 0x17, 0xf0, 0x08, 0x0b, 0x00, 0x10, 0xec, 0xe0, 
  0x13, 0xd3, 0x37, 0xf4, 0xef, 0x17, 0xf8, 0xe3, 0x0e, 0x00, 0x04, 0x00, 
  0x00, 0x00, 0xfc, 0xe7, 0xfa, 0x0b, 0xda, 0x0c, 0x10, 0x17, 0xe8, 0xed, 
  0xed, 0x08, 0x24, 0x16, 0xd2, 0x07, 0x1d, 0x0b, 0x0a, 0x45, 0xea, 0x0a, 
  0x15, 0xd1, 0xee, 0xba, 0xf7, 0xe6, 0x10, 0xf7, 0x00, 0xf5, 0x18, 0x00, 
  0xfa, 0xe4, 0xfb, 0x00, 0x45, 0x00, 0x00, 0xf6, 0x00, 0xec, 0x21, 0xf6, 
  0x00, 0x19, 0x0b, 0xf4, 0xfc, 0x11, 0x08, 0x00, 0xf7, 0x11, 0x1e, 0x12, 
  0xe4, 0x2b, 0x36, 0x1b, 0xf3, 0xf6, 0xb4, 0xdf, 0x16, 0xf6, 0x00, 0x29, 
  0x00, 0x08, 0x07, 0x00, 0xf6, 0xee, 0xfa, 0x0d, 0x1e, 0x41, 0x13, 0xd3, 
  0xea, 0x08, 0x22, 0x07, 0xf2, 0x0d, 0x48, 0xb9, 0x14, 0x31, 0xc0, 0x14, 
  0xf6, 0x66, 0xbe, 0x0d, 0x0a, 0xf2, 0x00, 0x0b, 0xdc, 0x16, 0x14, 0x07, 
  0x06, 0x00, 0x19, 0x16, 0x0e, 0x10, 0xcd, 0xe0, 0x13, 0xf5, 0x4e, 0x23, 
  0xef, 0x17, 0x10, 0xf6, 0x13, 0xe4, 0x00, 0x24, 0xe7, 0x1b, 0x08, 0x11, 
  0x0c, 0x00, 0xb5, 0x00, 0xf8, 0x0c, 0x00, 0xb4, 0x13, 0x31, 0x0e, 0x00, 
  0xf4, 0x04, 0x16, 0x2d, 0xf6, 0x2a, 0x00, 0x00, 0xf9, 0xd1, 0xc9, 0xe9, 
  0xcb, 0xdd, 0x10, 0x00, 0x13, 0xeb, 0x0a, 0xf1, 0x11, 0xee, 0x00, 0x22, 
  0xf2, 0xb2, 0xfb, 0x0a, 0xd9, 0x00, 0xf8, 0x0a, 0xf5, 0x33, 0x0b, 0x00, 
  0xf7, 0x11, 0x18, 0x0c, 0xe6, 0x00, 0x24, 0x06, 0x09, 0x11, 0x21, 0xa0, 
  0x13, 0x05, 0xc1, 0xdf, 0xfa, 0x0a, 0x19, 0x1f, 0xf5, 0x19, 0xf2, 0x1d, 
  0x00, 0x09, 0x18, 0x00, 0x1e, 0x16, 0x13, 0x00, 0xe3, 0x11, 0x22, 0x16, 
  0xd5, 0xe7, 0x18, 0xe5, 0x00, 0x1e, 0xf0, 0x00, 0x00, 0x2c, 0xea, 0xec, 
  0xed, 0xd7, 0x08, 0x00, 0x15, 0x0f, 0x1f, 0xdd, 0xfa, 0x2f, 0x19, 0xca, 
  0x0e, 0xfb, 0x00, 0x18, 0x13, 0x22, 0xdf, 0x00, 0x00, 0xf4, 0x00, 0x13, 
  0xfb, 0x00, 0xfc, 0xc3, 0x19, 0x05, 0xf8, 0x2a, 0x06, 0x00, 0x1c, 0xef, 
  0x08, 0xdd, 0x23, 0x1d, 0x30, 0xdf, 0x00, 0xf5, 0x0c, 0x04, 0xf9, 0xd3, 
  0x14, 0x1c, 0x1d, 0x0a, 0xf2, 0x47, 0x37, 0x2f, 0x12, 0x11, 0x10, 0x25, 
  0x20, 0x20, 0xf6, 0xf8, 0xfa, 0x09, 0xfb, 0xf5, 0x0e, 0x34, 0xf5, 0xe2, 
  0xe3, 0x29, 0xdf, 0xfb, 0x0b, 0xf3, 0xf5, 0x3a, 0x00, 0xef, 0xf8, 0xfc, 
  0xdd, 0xfa, 0xee, 0x0c, 0x1c, 0x11, 0x00, 0x00, 0xfa, 0x05, 0x0d, 0xea, 
  0xf5, 0x31, 0x06, 0xcd, 0xeb, 0x00, 0x00, 0x00, 0xf9, 0x2d, 0xe8, 0xf3, 
  0xf6, 0x21, 0xed, 0x0f, 0x0f, 0xcd, 0xe6, 0xf9, 0x0e, 0x33, 0xf4, 0xee, 
  0xe3, 0x1e, 0x20, 0xf6, 0x00, 0x3a, 0x00, 0xf9, 0xf6, 0x29, 0x0f, 0xd2, 
  0xeb, 0xea, 0xe1, 0x00, 0x06, 0xd9, 0x21, 0x0b, 0x23, 0x10, 0xc3, 0x00, 
  0x13, 0xe9, 0x00, 0xe9, 0xea, 0xdd, 0xf0, 0xc6, 0x17, 0xe4, 0x04, 0x30, 
  0xcd, 0x16, 0x04, 0x08, 0x12, 0x0b, 0xe4, 0x04, 0x10, 0x2e, 0xad, 0xf6, 
  0x0a, 0x21, 0x1d, 0xea, 0x00, 0x04, 0x0f, 0x22, 0xd8, 0xf2, 0x00, 0x0f, 
  0x07, 0x00, 0xd2, 0xd1, 0xee, 0xc3, 0x10, 0xf7, 0x0d, 0xe0, 0x0e, 0xf1, 
  0xfa, 0xe4, 0x0f, 0xf5, 0x29, 0xbf, 0x0b, 0x14, 0x00, 0xf6, 0x00, 0x00, 
  0xf0, 0x33, 0x13, 0xdd, 0x00, 0x08, 0x04, 0x0c, 0xdd, 0x1d, 0x12, 0x12, 
  0xf7, 0x2b, 0x00, 0xa0, 0xfa, 0x0a, 0x26, 0xdf, 0x0b, 0xec, 0x13, 0x0a, 
  0x20, 0x32, 0x00, 0x00, 0x00, 0x09, 0x18, 0x19, 0x28, 0x16, 0x00, 0xf9, 
  0x00, 0x19, 0x2b, 0x0f, 0xb8, 0xcd, 0x00, 0xee, 0x14, 0xf6, 0x10, 0x0f, 
  0x1f, 0xe3, 0xea, 0xf9, 0x0f, 0xae, 0x00, 0xf5, 0x15, 0x0f, 0x33, 0x00, 
  0x12, 0x08, 0x21, 0x0b, 0x15, 0x10, 0xcd, 0xd1, 0x13, 0xde, 0x21, 0x3a, 
  0xd3, 0x0c, 0x10, 0xf6, 0x13, 0xe4, 0x04, 0x30, 0xc0, 0xea, 0xf8, 0x00, 
  0x19, 0x0b, 0xda, 0x15, 0xf0, 0x2e, 0xc5, 0xed, 0x00, 0x29, 0x0e, 0xf5, 
  0x0c, 0xf9, 0x16, 0x17, 0xd8, 0xe4, 0xea, 0x05, 0x07, 0xf4, 0xf7, 0xf4, 
  0xcb, 0xf7, 0x20, 0x00, 0x06, 0xe0, 0x05, 0x08, 0x00, 0xdb, 0x05, 0xf5, 
  0x00, 0xd9, 0xfb, 0x1e, 0xc6, 0xd7, 0xf8, 0x0f, 0xf0, 0x40, 0x04, 0x00, 
  0xf7, 0x08, 0xfc, 0x08, 0xee, 0x00, 0x06, 0x18, 0xf7, 0x1a, 0x21, 0xc9, 
  0x00, 0xf1, 0xe7, 0xf5, 0xfa, 0xd9, 0x00, 0x14, 0xf5, 0x21, 0xf2, 0xf6, 
  0x0e, 0xee, 0xfa, 0x00, 0x1e, 0x41, 0x30, 0xf9, 0xdb, 0x08, 0x11, 0x16, 
  0xb8, 0x26, 0x18, 0xe5, 0x0a, 0xec, 0xc0, 0x00, 0x15, 0x2c, 0x0b, 0xe5, 
  0xf6, 0xe5, 0x08, 0x17, 0x07, 0x1e, 0x1f, 0xe4, 0x0c, 0xf0, 0x19, 0x20, 
  0xf9, 0x10, 0x1e, 0x10, 0x13, 0x00, 0x2c, 0x2e, 0x06, 0x17, 0x08, 0xf6, 
  0xfb, 0xf2, 0x04, 0x0c, 0xf3, 0x05, 0x00, 0x08, 0x0c, 0xea, 0x09, 0xf8, 
  0x00, 0x0c, 0xe8, 0xda, 0xd9, 0x10, 0xf9, 0x16, 0x00, 0x04, 0x33, 0x2d, 
  0xce, 0x1c, 0xf9, 0x0f, 0x15, 0xf4, 0xf7, 0x23, 0x00, 0x00, 0x2f, 0xdb, 
  0x00, 0x00, 0x05, 0x17, 0x06, 0xd2, 0x0a, 0x22, 0x45, 0xb2, 0x00, 0x0a, 
  0x00, 0x0a, 0x2a, 0xfb, 0xfb, 0x33, 0xfc, 0x23, 0x0d, 0x00, 0xfc, 0x0c, 
  0xd4, 0xfa, 0x00, 0x00, 0xc8, 0x1a, 0x2c, 0xa0, 0xed, 0x0f, 0xb4, 0x00, 
  0x00, 0x00, 0x1f, 0x00, 0x20, 0x00, 0x29, 0x13, 0x0e, 0xdc, 0x0c, 0x0d, 
  0xf6, 0x0b, 0x13, 0x00, 0xf1, 0x2a, 0x2b, 0x07, 0xc6, 0x19, 0x18, 0x09, 
  0x27, 0x31, 0xd0, 0x00, 0x00, 0x58, 0xdf, 0x00, 0x05, 0xd7, 0xf1, 0x39, 
  0x0e, 0xf1, 0x14, 0xf9, 0xe3, 0x08, 0x11, 0xea, 0x07, 0xe6, 0x0a, 0x28, 
  0x06, 0x00, 0xea, 0xc6, 0x00, 0xd1, 0xe1, 0x3a, 0x00, 0x15, 0xf8, 0xf4, 
  0x19, 0x05, 0x04, 0x00, 0x0c, 0x38, 0x26, 0x08, 0xe0, 0xd2, 0xf4, 0x1d, 
  0x30, 0xe7, 0xeb, 0x0b, 0x17, 0x00, 0xd4, 0x00, 0x0a, 0xc8, 0x24, 0x00, 
  0xeb, 0x47, 0x1c, 0x00, 0x09, 0x09, 0xf0, 0xee, 0xf3, 0x00, 0xf2, 0x0f, 
  0x06, 0x12, 0xfb, 0xde, 0xd7, 0x41, 0xeb, 0xec, 0x0a, 0x14, 0xd6, 0xf6, 
  0x05, 0xcd, 0x08, 0x2e, 0xf7, 0xde, 0xfc, 0xf4, 0x09, 0xf4, 0x06, 0xee, 
  0x09, 0xf7, 0xd4, 0x29, 0xe7, 0xf6, 0x19, 0xea, 0xe4, 0x1d, 0xf4, 0x00, 
  0xeb, 0x21, 0xf9, 0xd0, 0x07, 0x24, 0x0c, 0xe7, 0xd8, 0xf5, 0x13, 0x1e, 
  0x07, 0xef, 0xe6, 0x00, 0x57, 0x3f, 0xf4, 0x00, 0xcf, 0x14, 0x40, 0x05, 
  0xeb, 0x0f, 0x37, 0x14, 0x00, 0x52, 0x08, 0x00, 0xe3, 0x07, 0xf6, 0x00, 
  0xfa, 0x10, 0x21, 0xf5, 0xf2, 0xeb, 0x0a, 0x37, 0x06, 0x38, 0xbe, 0xf4, 
  0xfa, 0xf4, 0x08, 0x27, 0xf7, 0x0e, 0x08, 0xf4, 0x19, 0xf5, 0x04, 0x00, 
  0x06, 0xf5, 0x26, 0x00, 0x00, 0x0c, 0x23, 0x26, 0xf6, 0x08, 0xe3, 0x00, 
  0x2e, 0x07, 0xdc, 0xc8, 0x32, 0x2a, 0xf9, 0x05, 0xf9, 0x23, 0x2e, 0xf4, 
  0x00, 0x1a, 0xe0, 0x1c, 0x00, 0x0b, 0x00, 0x00, 0xea, 0x09, 0xf1, 0xf5, 
  0xe4, 0xe6, 0xfb, 0x14, 0x44, 0x29, 0x08, 0x0f, 0xf0, 0xda, 0xf1, 0x00, 
  0x00, 0xde, 0xf8, 0xf8, 0x09, 0x06, 0xe2, 0xfa, 0x38, 0xf7, 0x00, 0xe5, 
  0x0d, 0xe6, 0x33, 0x21, 0xe4, 0x14, 0x00, 0xb9, 0x00, 0xf8, 0x07, 0xed, 
  0xf2, 0x09, 0xf4, 0x06, 0xe2, 0xbf, 0xda, 0xf1, 0x16, 0xd6, 0xcd, 0x07, 
  0x57, 0x19, 0x24, 0x09, 0x14, 0xcf, 0x00, 0xf1, 0xd7, 0x8b, 0x21, 0x0d, 
  0xf6, 0xf2, 0xf1, 0xf5, 0x07, 0xd3, 0x14, 0x1c, 0xf4, 0x00, 0xdf, 0x00, 
  0x07, 0xe6, 0x1e, 0x18, 0xfa, 0x22, 0x16, 0x00, 0x16, 0xd1, 0x08, 0x1d, 
  0x00, 0x07, 0x0d, 0xd0, 0x19, 0x0b, 0x00, 0xe7, 0x0c, 0x22, 0x13, 0xef, 
  0xe8, 0xe9, 0x2f, 0x30, 0x30, 0xf8, 0x0e, 0xe0, 0x45, 0x04, 0x0f, 0x22, 
  0x0a, 0xad, 0x16, 0xec, 0xf2, 0x00, 0x25, 0x23, 0x09, 0x00, 0x00, 0x09, 
  0x0d, 0x15, 0xe8, 0x17, 0x06, 0x12, 0xf6, 0xe9, 0xbb, 0x27, 0xeb, 0xd8, 
  0x27, 0x1f, 0x00, 0xed, 0xf0, 0xda, 0xf5, 0x00, 0xfc, 0xd6, 0xf4, 0x0c, 
  0x1a, 0xe3, 0xfa, 0x00, 0x09, 0x09, 0x21, 0x0e, 0xed, 0x0f, 0x00, 0x00, 
  0x00, 0x27, 0x00, 0xe1, 0x20, 0xe7, 0x0e, 0xe3, 0x0a, 0x1b, 0xf4, 0x00, 
  0x14, 0xca, 0xe3, 0x1e, 0x1d, 0xef, 0x22, 0xf9, 0x1d, 0x26, 0x00, 0x12, 
  0x00, 0xf6, 0xf0, 0xfb, 0xc2, 0xf1, 0xf5, 0x1b, 0x0f, 0x00, 0xda, 0xd2, 
  0xe3, 0xf1, 0xcd, 0x2a, 0x0c, 0xf8, 0x2a, 0x2b, 0xf2, 0x24, 0x29, 0x08, 
  0xf3, 0xf5, 0xea, 0x00, 0x00, 0x17, 0x08, 0xcf, 0x00, 0xdc, 0xf3, 0x24, 
  0xcd, 0x10, 0x08, 0xef, 0x0c, 0xc8, 0x09, 0x00, 0x08, 0x23, 0xdd, 0xed, 
  0xed, 0x21, 0x1d, 0xf5, 0xf4, 0xfc, 0x1d, 0x4f, 0xec, 0x53, 0x16, 0xfb, 
  0xf9, 0xb9, 0xee, 0xd1, 0x00, 0x11, 0x10, 0xc0, 0x06, 0xf5, 0x0e, 0x08, 
  0xfa, 0xd2, 0x00, 0xf5, 0x45, 0xe6, 0xfb, 0x1e, 0xd9, 0x0a, 0xf8, 0x00, 
  0x0b, 0x26, 0x00, 0xdd, 0x0d, 0x19, 0x04, 0xf4, 0xdd, 0x06, 0x1e, 0x18, 
  0x09, 0x22, 0x0b, 0x93, 0xfa, 0x00, 0x0d, 0xf5, 0xea, 0x1d, 0x13, 0x14, 
  0x35, 0x32, 0x00, 0xf6, 0x07, 0xee, 0xf4, 0x13, 0x14, 0x16, 0x39, 0xd3, 
  0x07, 0x2a, 0x00, 0x16, 0x1d, 0xb4, 0x18, 0x00, 0x0a, 0x1e, 0x00, 0x0a, 
  0x33, 0x1d, 0xd4, 0xec, 0x18, 0x0e, 0x1e, 0x17, 0x0e, 0x07, 0x33, 0xe4, 
  0x23, 0xf8, 0x19, 0xe0, 0x0e, 0x15, 0xcd, 0xf8, 0x20, 0xf5, 0x16, 0x5c, 
  0xdf, 0x23, 0xf8, 0xe3, 0x13, 0xd5, 0xf3, 0x49, 0x00, 0xfb, 0x00, 0x11, 
  0x19, 0xde, 0x09, 0xf4, 0xf8, 0x3a, 0xd1, 0xda, 0x00, 0x39, 0x0e, 0x41, 
  0x2e, 0x04, 0xf9, 0xf5, 0xc4, 0xe4, 0xe3, 0xfb, 0x00, 0xd1, 0xf7, 0xe9, 
  0x00, 0xef, 0x10, 0xdb, 0x20, 0xe0, 0x13, 0x00, 0x00, 0x00, 0x0f, 0x00, 
  0x29, 0x0d, 0x05, 0x00, 0xf6, 0xf6, 0x08, 0x0a, 0xf5, 0x40, 0xfc, 0x23, 
  0x0d, 0xf8, 0x0c, 0x13, 0xf7, 0x06, 0x0c, 0x1e, 0xdb, 0x2b, 0x41, 0xe5, 
  0x00, 0x05, 0xc1, 0x00, 0x00, 0xf6, 0x06, 0x14, 0x15, 0x19, 0x1b, 0x30, 
  0xf6, 0xc0, 0x00, 0xfa, 0x1e, 0x16, 0x30, 0x00, 0xf1, 0x11, 0x11, 0x0f, 
  0xc6, 0x0d, 0x18, 0xf7, 0x14, 0x00, 0x20, 0x00, 0x1f, 0x58, 0xf5, 0x00, 
  0x0a, 0xf2, 0x08, 0x00, 0xf2, 0x25, 0x1f, 0xf2, 0x0c, 0xe9, 0x00, 0x0b, 
  0x15, 0x0a, 0x14, 0xf8, 0x00, 0xde, 0xea, 0x45, 0xfa, 0x0c, 0x10, 0x13, 
  0xfb, 0xdc, 0x04, 0x3d, 0xda, 0x05, 0x08, 0x08, 0x1f, 0xbd, 0xe4, 0xf4, 
  0x08, 0x17, 0xe8, 0xe3, 0xd9, 0x29, 0xf2, 0x36, 0xe9, 0xfc, 0x0f, 0x22, 
  0xce, 0x53, 0x07, 0xf1, 0x23, 0xf4, 0xf7, 0x00, 0x23, 0x23, 0x18, 0xc9, 
  0x20, 0xf5, 0x00, 0x08, 0x06, 0xbf, 0x0a, 0x67, 0x0e, 0xd9, 0xf0, 0x1e, 
  0xed, 0xec, 0xf8, 0x13, 0x10, 0x19, 0xf5, 0x0c, 0xf7, 0x2a, 0x08, 0xfc, 
  0xee, 0x11, 0x18, 0x06, 0xdb, 0x11, 0x2c, 0x1b, 0xf3, 0x00, 0xf3, 0xf5, 
  0x0b, 0xd9, 0x19, 0x1f, 0x2a, 0x00, 0xf2, 0xe3, 0x07, 0x09, 0x12, 0xfa, 
  0x28, 0x16, 0x0a, 0xe2, 0xea, 0x11, 0xf7, 0x33, 0xc6, 0xda, 0x3c, 0xee, 
  0x31, 0x14, 0xe0, 0x05, 0x0a, 0x00, 0xc9, 0xf3, 0x13, 0xe5, 0xf8, 0x0b, 
  0xf2, 0x07, 0x1f, 0x00, 0x1d, 0x2f, 0xe7, 0xbf, 0xf9, 0x0a, 0x1e, 0xf8, 
  0x00, 0x00, 0xd4, 0xf4, 0x00, 0xe9, 0xf0, 0x27, 0xf2, 0x0e, 0x00, 0xf4, 
  0xf3, 0xf0, 0x00, 0xd6, 0x12, 0x16, 0x26, 0xfc, 0x10, 0xd2, 0x18, 0x13, 
  0x13, 0x08, 0x00, 0xea, 0x2e, 0x0f, 0x07, 0xe9, 0x00, 0xc8, 0x0e, 0xf1, 
  0x00, 0x47, 0x2e, 0x0c, 0x00, 0xf7, 0x00, 0x09, 0xe0, 0x15, 0xfb, 0xf8, 
  0xef, 0x2e, 0xf6, 0x00, 0xc9, 0x1a, 0xf0, 0xce, 0x0a, 0x00, 0xe7, 0xe8, 
  0x00, 0x00, 0xfc, 0x45, 0x00, 0x22, 0xf8, 0x04, 0x09, 0xf4, 0xe8, 0x00, 
  0x13, 0x09, 0xb4, 0x1b, 0x06, 0xf1, 0x26, 0x21, 0xf5, 0x31, 0xf4, 0xf6, 
  0xf5, 0xf8, 0xf2, 0xf6, 0x00, 0x2d, 0xe2, 0xd4, 0xec, 0xbf, 0x0a, 0x0f, 
  0x2c, 0x08, 0xf7, 0xf1, 0x00, 0x00, 0xe8, 0x12, 0xf6, 0xe2, 0x4f, 0x05, 
  0xf6, 0xc6, 0x00, 0x07, 0xf6, 0x0e, 0xe2, 0xe9, 0xe3, 0xf1, 0xcd, 0x2a, 
  0xee, 0x17, 0xc6, 0x0b, 0xf9, 0xfb, 0x0a, 0xf8, 0x06, 0x22, 0x16, 0x17, 
  0x16, 0x00, 0xd9, 0x1d, 0x09, 0x1c, 0xef, 0xc3, 0xf3, 0x00, 0x04, 0xde, 
  0xe1, 0xea, 0xed, 0x04, 0xe8, 0x00, 0x3b, 0x13, 0xf6, 0x00, 0xf9, 0xbf, 
  0x17, 0x0f, 0x0f, 0xe9, 0x0a, 0xbb, 0x07, 0xe7, 0xf2, 0xf4, 0xee, 0x00, 
  0x23, 0x23, 0xc1, 0x1c, 0xe0, 0x3f, 0xdf, 0xe1, 0xfa, 0x09, 0xf1, 0xe9, 
  0x1c, 0x1a, 0xeb, 0xf6, 0x27, 0x00, 0x00, 0xf6, 0xeb, 0x0d, 0xfc, 0xf4, 
  0xf3, 0x11, 0x10, 0xe1, 0xf7, 0xe9, 0xfa, 0xe2, 0x09, 0xcc, 0x0b, 0x37, 
  0x0d, 0x00, 0x19, 0x21, 0xef, 0x00, 0x0c, 0xd7, 0xf5, 0x08, 0xde, 0xb4, 
  0x11, 0x1b, 0x0c, 0x06, 0xf6, 0xf5, 0x00, 0xf9, 0x16, 0x00, 0x1a, 0x00, 
  0xd5, 0x19, 0xe8, 0x1b, 0x1d, 0xf6, 0x40, 0xf1, 0xeb, 0xe3, 0x37, 0x28, 
  0xf6, 0x1b, 0x00, 0x0b, 0x00, 0xf1, 0xe1, 0xf9, 0x06, 0xe1, 0x2a, 0x0b, 
  0x15, 0xf6, 0xcd, 0xf8, 0x20, 0x00, 0x21, 0x0c, 0x00, 0x17, 0x00, 0xc6, 
  0x05, 0x07, 0x00, 0x30, 0xf3, 0xf0, 0xec, 0x19, 0x06, 0x00, 0xe4, 0xfc, 
  0xf8, 0x51, 0xe8, 0x0a, 0x13, 0x19, 0x00, 0x20, 0xe9, 0x00, 0x07, 0x00, 
  0xe2, 0x0e, 0xf2, 0xfb, 0x23, 0xd1, 0xc9, 0x00, 0xdd, 0x09, 0x10, 0x00, 
  0xf3, 0xd6, 0x0e, 0x1f, 0x16, 0x1c, 0x05, 0x39, 0x29, 0x00, 0xf0, 0x0a, 
  0xd0, 0xe1, 0xf8, 0xf1, 0xf5, 0x4c, 0x0f, 0xe9, 0x09, 0x00, 0xfc, 0xf8, 
  0x00, 0x0c, 0x18, 0x1e, 0xed, 0x34, 0x00, 0xe5, 0x00, 0xf6, 0xe7, 0xea, 
  0x11, 0xd9, 0x0c, 0x00, 0x35, 0xef, 0x07, 0x26, 0xfd, 0xe5, 0x0c, 0x0d, 
  0x00, 0x41, 0x1d, 0xea, 0xea, 0x11, 0x33, 0x07, 0xb8, 0x0d, 0x18, 0xcb, 
  0x0a, 0x3b, 0xc0, 0xfb, 0x1f, 0x00, 0xd4, 0x00, 0xed, 0x0e, 0x08, 0x0b, 
  0xf2, 0x00, 0x0a, 0xf9, 0xdd, 0x1f, 0xdf, 0xca, 0x00, 0xf6, 0x00, 0x08, 
  0xe0, 0x44, 0x21, 0xf4, 0x06, 0xe9, 0xf0, 0x13, 0x09, 0x00, 0xfc, 0xd0, 
  0x33, 0x0b, 0xfc, 0xef, 0xd5, 0x22, 0x1c, 0x04, 0xe0, 0xdd, 0xf4, 0x39, 
  0x1d, 0xd7, 0x00, 0xf5, 0x45, 0xf9, 0xea, 0x22, 0x14, 0x00, 0xf2, 0x00, 
  0xf2, 0x23, 0x00, 0x3b, 0x1a, 0x23, 0xe8, 0x00, 0xe6, 0x0b, 0x00, 0x0f, 
  0xef, 0x12, 0xfb, 0xf5, 0x29, 0x1a, 0x0b, 0x28, 0x1d, 0x14, 0xef, 0xe3, 
  0x05, 0x26, 0x04, 0x2e, 0xee, 0xf8, 0x00, 0x00, 0x1a, 0xe9, 0x06, 0xf4, 
  0x1c, 0x00, 0xbf, 0x00, 0xed, 0x0a, 0x26, 0x0b, 0x00, 0xec, 0x0c, 0xec, 
  0xf5, 0x11, 0xec, 0xda, 0x03, 0xf7, 0x0c, 0xed, 0xe2, 0xea, 0x0a, 0x1e, 
  0x00, 0x00, 0xef, 0xf1, 0x3a, 0x33, 0xc4, 0x09, 0xb2, 0xec, 0x10, 0xf6, 
  0xcd, 0x2c, 0x42, 0x14, 0xf6, 0x29, 0xf1, 0xde, 0xf2, 0x07, 0xf6, 0x23, 
  0x17, 0xd9, 0x19, 0xea, 0x15, 0x15, 0x00, 0x10, 0x13, 0x00, 0x37, 0x0c, 
  0x00, 0x17, 0x08, 0xf6, 0x1c, 0xf2, 0xf3, 0x24, 0xc0, 0x16, 0x00, 0x00, 
  0xfa, 0xd3, 0xda, 0x00, 0x00, 0xf4, 0xf4, 0xed, 0xed, 0x08, 0x07, 0xf5, 
  0xd2, 0x04, 0x0f, 0x5a, 0x0a, 0x38, 0x00, 0xf1, 0x0e, 0x00, 0xf7, 0xe9, 
  0xd4, 0x23, 0x08, 0xee, 0x06, 0xe0, 0xf6, 0xe9, 0xea, 0xc9, 0x0f, 0xe9, 
  0x1c, 0xbf, 0xeb, 0x14, 0xd9, 0xd7, 0x08, 0xfb, 0xfb, 0x40, 0xf5, 0xdd, 
  0x12, 0xd6, 0x08, 0x08, 0xe6, 0x0c, 0xfa, 0x06, 0xed, 0x09, 0x0b, 0x0e, 
  0x00, 0x0a, 0xcd, 0xd4, 0xfa, 0xec, 0x00, 0x00, 0x0b, 0x21, 0x07, 0x13, 
  0x0e, 0xee, 0x00, 0x19, 0x1e, 0x00, 0x26, 0xf9, 0xcd, 0xf8, 0x09, 0x0f, 
  0xb8, 0xcd, 0x24, 0xdc, 0x14, 0x1e, 0x91, 0x05, 0xf6, 0x00, 0xd4, 0xec, 
  0x00, 0xbc, 0x00, 0xde, 0x15, 0x16, 0x1f, 0xe4, 0x17, 0xf8, 0x19, 0x00, 
  0xf9, 0x0a, 0x00, 0x08, 0x0d, 0xb1, 0x2c, 0x17, 0xfa, 0x00, 0x27, 0xed, 
  0x00, 0x15, 0xfc, 0xf4, 0xe7, 0x05, 0x00, 0x11, 0x06, 0xde, 0xf7, 0xfc, 
  0x00, 0x00, 0x23, 0xb4, 0x00, 0x19, 0x0e, 0x16, 0xd2, 0xfc, 0x0f, 0x17, 
  0xe2, 0x2a, 0xdc, 0x00, 0xf9, 0xa2, 0xee, 0xe9, 0xdd, 0xf7, 0xe8, 0xad, 
  0xfa, 0xeb, 0xf6, 0x17, 0x0b, 0xf7, 0x0f, 0x39, 0x29, 0x0d, 0xf5, 0x28, 
  0xd9, 0x0a, 0x19, 0x00, 0x10, 0x0d, 0x0b, 0xd2, 0x04, 0x08, 0xfc, 0x08, 
  0xba, 0x11, 0x00, 0x0c, 0x09, 0x1a, 0x41, 0xae, 0xfa, 0xfb, 0x26, 0xc9, 
  0xfa, 0xec, 0x0c, 0xf6, 0x15, 0x08, 0x0e, 0x30, 0x00, 0x00, 0xe8, 0xf3, 
  0x0a, 0x00, 0xf6, 0xe2, 0xf9, 0x00, 0x1a, 0x42, 0x00, 0xf3, 0x30, 0x00, 
  0xf6, 0x31, 0x10, 0xf6, 0x0a, 0x2c, 0xc9, 0xe5, 0xfb, 0xe5, 0xf8, 0x22, 
  0xf2, 0x07, 0x1f, 0xf2, 0x12, 0xf8, 0x2a, 0x36, 0x07, 0x15, 0xf6, 0xe0, 
  0xfa, 0xf5, 0x00, 0x0c, 0x16, 0xf4, 0xf8, 0xcf, 0x00, 0xe4, 0x15, 0x0c, 
  0xf3, 0x0b, 0xf4, 0x2a, 0x06, 0x0b, 0x13, 0x11, 0x10, 0x0c, 0xdd, 0xed, 
  0xd9, 0x29, 0x00, 0x00, 0x17, 0xf5, 0xf9, 0x00, 0xec, 0x0e, 0x00, 0x14, 
  0x15, 0xe8, 0xd2, 0xe9, 0xd4, 0xe6, 0x18, 0xdb, 0x06, 0xeb, 0x18, 0x00, 
  0x11, 0xe4, 0xfb, 0xf5, 0x00, 0xf3, 0x00, 0x1e, 0xe3, 0x29, 0x08, 0x0f, 
  0xeb, 0x26, 0x08, 0x2e, 0x0d, 0x19, 0x00, 0x13, 0xe6, 0x23, 0xfa, 0x1e, 
  0xed, 0x11, 0x00, 0xd7, 0x06, 0x00, 0x00, 0x0b, 0xfa, 0xc5, 0x1f, 0xf6, 
  0x15, 0x00, 0x14, 0x43, 0xf6, 0x1b, 0x06, 0x26, 0x1e, 0x00, 0xf6, 0xf9, 
  0xea, 0x2a, 0x2b, 0x0f, 0xe3, 0xb4, 0x18, 0xdc, 0x27, 0x31, 0x91, 0xf6, 
  0xf6, 0xf1, 0x0b, 0xf9, 0x18, 0xe5, 0x08, 0x22, 0xeb, 0x25, 0x29, 0xdd, 
  0x17, 0xf0, 0x11, 0x0b, 0x0e, 0xfb, 0xcd, 0xe0, 0x06, 0xbc, 0x2c, 0x17, 
  0x00, 0x0c, 0x00, 0x13, 0x09, 0x07, 0x04, 0x0c, 0xda, 0x10, 0x08, 0x22, 
  0x00, 0xea, 0x00, 0x00, 0x20, 0x45, 0xdd, 0x0a, 0xe3, 0x29, 0x0e, 0x2b, 
  0xe9, 0x00, 0x1d, 0x0b, 0xba, 0xc8, 0xdc, 0x05, 0x00, 0xd1, 0x09, 0xe9, 
  0x1a, 0xe6, 0x00, 0xdb, 0xfa, 0xc1, 0x05, 0x0f, 0x06, 0xee, 0x14, 0x2e, 
  0x1c, 0xd9, 0xf5, 0x3c, 0xd9, 0xf6, 0x11, 0xf6, 0x10, 0x40, 0xfc, 0xdd, 
  0x0d, 0x2a, 0x00, 0x08, 0x09, 0x0c, 0x12, 0x06, 0xdb, 0x09, 0x36, 0xf2, 
  0x26, 0x05, 0xda, 0xf5, 0x06, 0xf6, 0x0c, 0x1f, 0x00, 0x08, 0x07, 0x0a, 
  0x07, 0x00, 0x12, 0x06, 0x00, 0x21, 0xed, 0x07, 0x07, 0x11, 0xf7, 0x00, 
  0xe3, 0x33, 0x0c, 0xee, 0x3b, 0x00, 0xd0, 0xfb, 0xeb, 0x58, 0xbe, 0xf9, 
  0x22, 0x00, 0xda, 0x39, 0xf2, 0x0f, 0x33, 0xf2, 0x0c, 0xe9, 0x11, 0x20, 
  0x1c, 0x05, 0xcd, 0xf0, 0x13, 0xc8, 0x0b, 0x51, 0xef, 0x23, 0x00, 0x00, 
  0x00, 0xeb, 0x08, 0x49, 0x00, 0x00, 0x00, 0x19, 0x0c, 0xde, 0xda, 0x00, 
  0x00, 0x2e, 0x00, 0xf6, 0x00, 0x00, 0x1d, 0x20, 0xd2, 0x04, 0x2c, 0x2d, 
  0xba, 0x00, 0xdc, 0x0a, 0x07, 0xe8, 0xe4, 0xdd, 0x1a, 0x09, 0x18, 0x09, 
  0x06, 0x00, 0x13, 0x17, 0xfa, 0xdb, 0xf1, 0xe9, 0x0e, 0xe6, 0x00, 0x00, 
  0xed, 0xb8, 0x2a, 0xf6, 0x05, 0x19, 0xf8, 0x23, 0x00, 0x11, 0x10, 0x10, 
  0x00, 0x11, 0x0c, 0x0c, 0xf7, 0x11, 0x00, 0xe5, 0xfa, 0x05, 0xcd, 0x0b, 
  0x11, 0xcf, 0x06, 0x00, 0x00, 0x19, 0x07, 0xe3, 0x00, 0xe5, 0x0c, 0x13, 
  0x28, 0x2b, 0x0a, 0xd3, 0xf9, 0xef, 0x11, 0x07, 0x0e, 0xda, 0x00, 0xdc, 
  0x14, 0x4f, 0x20, 0xf6, 0x29, 0x1d, 0x0b, 0xec, 0x0f, 0x00, 0xf8, 0x2e, 
  0x00, 0x07, 0x3d, 0xf2, 0xfa, 0x10, 0x00, 0xea, 0x07, 0xf0, 0x0a, 0x20, 
  0xe7, 0x0b, 0xdf, 0x17, 0x0b, 0xf4, 0x1f, 0x1d, 0xfb, 0x24, 0x08, 0xd0, 
  0x26, 0x05, 0x08, 0x11, 0xf4, 0x16, 0x38, 0xf4, 0xf8, 0x0c, 0x3b, 0x43, 
  0x1d, 0x00, 0x15, 0xea, 0x0c, 0x04, 0xe3, 0xf5, 0x28, 0xf2, 0x1d, 0xf6, 
  0xf9, 0x00, 0x25, 0x23, 0x09, 0x00, 0x08, 0x1c, 0xed, 0x0b, 0x00, 0xf1, 
  0xf5, 0x37, 0xec, 0xbb, 0xbb, 0x4e, 0xf5, 0xf6, 0x13, 0x14, 0x00, 0x05, 
  0x05, 0xb4, 0xf8, 0x3a, 0xfc, 0xf8, 0xf8, 0xf8, 0x00, 0xfa, 0xf4, 0x00, 
  0x25, 0x00, 0xd4, 0x29, 0x06, 0xeb, 0x00, 0x2c, 0xe4, 0x27, 0xe1, 0xd7, 
  0xeb, 0xdf, 0x29, 0xda, 0x07, 0x09, 0x06, 0xe7, 0xe2, 0xca, 0xf6, 0xf9, 
  0x16, 0xe7, 0xf7, 0xcd, 0x2b, 0x0d, 0xdc, 0x00, 0x00, 0x27, 0x30, 0xe7, 
  0x0a, 0xa8, 0x0b, 0xf9, 0x05, 0x1b, 0xe9, 0x00, 0x00, 0xe2, 0xf6, 0xf9, 
  0xa6, 0xfe, 0xff, 0xff, 0x04, 0x00, 0x00, 0x00, 0x00, 0x01, 0x00, 0x00, 
  0x9c, 0x6d, 0xb8, 0xfc, 0x78, 0x16, 0x62, 0xf9, 0x70, 0xf8, 0x78, 0x08, 
  0xe8, 0x05, 0xd7, 0xf8, 0x0e, 0x6a, 0xd0, 0xfe, 0x60, 0x24, 0x36, 0x0d, 
  0xa0, 0xe8, 0x79, 0xf8, 0x60, 0x6b, 0x1f, 0x07, 0xff, 0xdb, 0x2a, 0x00, 
  0x68, 0x8e, 0x73, 0x03, 0x38, 0xbc, 0x33, 0x05, 0x30, 0x33, 0x0a, 0x07, 
  0xc0, 0xf7, 0x02, 0xf6, 0xc4, 0x3e, 0x0a, 0x01, 0x1c, 0xd3, 0xfe, 0x01, 
  0x80, 0xd3, 0xee, 0xf5, 0x00, 0xfd, 0x0f, 0x06, 0x90, 0x6a, 0x79, 0x07, 
  0xc2, 0xfb, 0x79, 0x01, 0x80, 0x21, 0xb1, 0x0f, 0x58, 0x55, 0x00, 0xf9, 
  0xa0, 0xe7, 0xe6, 0x05, 0xb0, 0x89, 0x23, 0x08, 0x90, 0x2e, 0x5e, 0xf6, 
  0x5c, 0x2a, 0x16, 0x00, 0x50, 0xb0, 0x52, 0xfb, 0x20, 0xc4, 0x39, 0xf6, 
  0x50, 0xfc, 0x38, 0x0b, 0x98, 0x24, 0x58, 0x03, 0x30, 0xd1, 0x56, 0xf4, 
  0x80, 0xae, 0x30, 0x0c, 0x08, 0x0a, 0xc2, 0xfa, 0xc0, 0x86, 0x46, 0x0a, 
