#pragma once
#include <stdint.h>
#include <stddef.h>

// Gerado a partir de model_data.cc
alignas(16) const unsigned char g_model[] = {
  28,0,0,0,84,70,76,51,20,0,32,0,28,0,24,0,20,0,16,0,12,0,0,0,8,0,4,0,20,0,0,0,28,0,0,0,140,0,0,0,228,0,0,0,152,5,0,0,168,5,0,0,88,8,0,0,3,0,0,0,1,0,0,0,16,0,0,0,0,0,10,0,16,0,12,0,8,0,4,0,10,0,0,0,12,0,0,0,28,0,0,0,56,0,0,0,15,0,0,0,115,101,114,118,105,110,103,95,100,101,102,97,117,108,116,0,1,0,0,0,4,0,0,0,156,255,255,255,3,0,0,0,4,0,0,0,5,0,0,0,100,101,110,115,101,0,0,0,1,0,0,0,4,0,0,0,246,250,255,255,4,0,0,0,7,0,0,0,105,110,112,117,116,95,49,0,2,0,0,0,52,0,0,0,4,0,0,0,220,255,255,255,6,0,0,0,4,0,0,0,19,0,0,0,67,79,78,86,69,82,83,73,79,78,95,77,69,84,65,68,65,84,65,0,8,0,12,0,8,0,4,0,8,0,0,0,5,0,0,0,4,0,0,0,19,0,0,0,109,105,110,95,114,117,110,116,105,109,101,95,118,101,114,115,105,111,110,0,7,0,0,0,176,4,0,0,168,4,0,0,148,4,0,0,148,0,0,0,140,0,0,0,108,0,0,0,4,0,0,0,134,251,255,255,4,0,0,0,88,0,0,0,12,0,0,0,8,0,14,0,8,0,4,0,8,0,0,0,16,0,0,0,40,0,0,0,0,0,6,0,8,0,4,0,6,0,0,0,4,0,0,0,1,0,0,0,235,3,0,0,0,0,10,0,16,0,12,0,8,0,4,0,10,0,0,0,2,0,0,0,2,0,0,0,4,0,0,0,6,0,0,0,50,46,49,48,46,49,0,0,234,251,255,255,4,0,0,0,16,0,0,0,49,46,49,52,46,48,0,0,0,0,0,0,0,0,0,0,108,251,255,255,10,252,255,255,4,0,0,0,232,3,0,0,51,236,3,243,6,10,7,231,9,15,77,0,195,255,247,7,248,11,227,11,219,14,212,33,11,9,252,217,248,245,240,1,10,7,249,19,3,6,255,1,247,236,246,255,248,251,254,7,5,4,4,10,0,5,248,11,247,249,251,248,4,3,254,251,0,4,227,217,211,184,251,0,38,237,4,252,227,3,0,252,46,253,229,0,11,240,8,207,246,8,10,0,203,245,15,13,248,248,248,242,254,208,65,253,233,250,4,39,252,7,49,253,12,5,251,254,12,240,1,242,178,1,23,255,249,21,18,255,7,251,255,183,235,32,9,255,255,246,219,4,206,41,32,1,14,52,222,240,245,251,8,243,1,21,8,3,246,26,24,236,3,254,12,255,245,237,251,16,11,227,249,10,209,254,248,214,2,211,6,30,239,6,35,246,8,209,0,254,252,12,245,241,211,250,253,3,223,13,241,7,24,253,242,252,6,248,11,21,223,19,17,10,254,251,252,243,223,250,249,8,34,252,229,251,247,39,23,2,1,21,6,38,12,245,31,237,5,248,223,2,230,1,19,4,0,240,247,2,19,249,39,2,254,68,246,4,3,0,254,18,253,4,231,7,36,31,12,252,228,240,4,5,5,4,3,226,226,18,233,27,232,3,248,9,64,6,38,24,6,252,252,1,203,18,7,8,19,251,244,254,8,0,1,9,253,2,1,0,246,240,1,4,7,249,10,247,227,2,5,1,18,0,250,247,239,247,242,5,0,253,0,63,7,245,2,10,0,0,241,226,45,246,93,10,23,10,249,8,13,62,233,249,250,4,26,0,8,20,17,250,250,241,220,45,0,14,206,7,238,0,224,8,8,255,10,252,255,250,1,4,245,254,88,231,255,10,0,0,20,6,9,33,27,244,220,3,26,239,25,129,8,9,2,12,255,246,253,219,249,233,25,6,4,14,0,197,14,255,253,215,234,251,250,8,250,248,32,244,247,3,251,239,1,34,233,227,68,11,2,53,253,254,253,6,43,20,8,197,255,16,180,250,10,10,246,12,249,4,253,252,0,18,4,20,9,37,245,248,52,2,250,253,37,255,252,252,0,0,247,242,10,245,250,249,250,1,6,5,30,30,52,252,24,4,4,220,8,4,166,5,248,250,6,250,2,0,12,5,0,12,11,251,236,26,9,255,194,252,254,32,9,28,249,41,21,238,9,1,234,235,4,1,0,0,232,3,59,2,247,255,250,246,5,237,252,253,228,246,8,212,250,238,2,255,1,1,245,1,6,13,252,234,24,5,247,40,241,2,8,48,7,251,240,7,64,43,249,253,10,4,29,250,233,0,253,247,8,188,185,41,52,247,253,247,30,251,244,210,217,240,21,21,246,1,18,85,23,253,2,23,14,2,249,5,228,239,48,243,244,251,3,5,0,34,5,251,27,11,254,13,223,250,7,7,246,2,27,214,95,254,13,13,15,0,40,249,5,44,16,248,39,210,6,137,22,28,4,17,251,226,14,10,12,0,14,1,72,4,9,28,244,5,252,246,228,240,232,246,1,1,1,4,16,9,4,2,2,2,226,232,9,202,6,254,13,250,23,250,0,6,252,38,255,6,59,248,238,67,2,1,37,1,233,255,252,252,6,7,254,0,242,4,251,59,11,6,210,23,28,249,9,240,5,3,227,9,252,1,5,23,222,7,246,254,234,26,247,253,31,4,2,245,238,254,249,248,11,34,2,255,8,2,7,59,237,11,12,0,255,250,5,5,10,1,10,11,16,32,50,22,1,244,61,29,253,27,185,243,231,243,251,2,3,253,217,254,9,8,16,237,2,242,15,247,239,232,246,38,24,8,6,2,246,1,30,253,235,193,19,253,234,1,9,25,5,7,225,243,255,18,16,251,23,247,4,248,13,2,53,246,49,3,250,38,253,246,240,62,8,242,31,4,25,0,5,253,72,248,2,247,7,244,255,246,244,251,253,10,240,2,33,5,11,15,250,237,54,0,12,247,254,255,3,6,11,181,21,22,249,5,9,31,246,1,248,244,3,240,248,229,15,212,7,6,250,253,169,255,253,246,7,7,12,9,245,9,14,206,20,249,1,244,5,4,196,22,18,254,10,13,25,230,249,241,31,6,255,234,254,58,253,245,0,9,5,252,15,3,1,220,246,1,228,255,0,249,23,5,245,1,251,251,243,251,233,247,252,241,243,250,20,20,248,5,17,218,35,5,231,23,244,241,17,210,208,14,240,40,251,23,21,253,30,6,255,251,5,252,175,224,0,0,6,0,8,0,4,0,6,0,0,0,4,0,0,0,4,0,0,0,3,64,5,0,124,255,255,255,128,255,255,255,15,0,0,0,77,76,73,82,32,67,111,110,118,101,114,116,101,100,46,0,1,0,0,0,20,0,0,0,0,0,14,0,24,0,20,0,16,0,12,0,8,0,4,0,14,0,0,0,20,0,0,0,28,0,0,0,100,0,0,0,104,0,0,0,108,0,0,0,4,0,0,0,109,97,105,110,0,0,0,0,1,0,0,0,20,0,0,0,0,0,14,0,20,0,0,0,16,0,12,0,11,0,4,0,14,0,0,0,20,0,0,0,0,0,0,8,16,0,0,0,20,0,0,0,4,0,4,0,4,0,0,0,1,0,0,0,3,0,0,0,3,0,0,0,0,0,0,0,2,0,0,0,1,0,0,0,1,0,0,0,3,0,0,0,1,0,0,0,0,0,0,0,4,0,0,0,148,1,0,0,4,1,0,0,128,0,0,0,4,0,0,0,146,254,255,255,0,0,0,1,24,0,0,0,32,0,0,0,60,0,0,0,4,0,0,0,0,0,0,9,80,0,0,0,2,0,0,0,255,255,255,255,1,0,0,0,124,254,255,255,8,0,0,0,16,0,0,0,1,0,0,0,128,255,255,255,255,255,255,255,1,0,0,0,14,128,53,62,25,0,0,0,83,116,97,116,101,102,117,108,80,97,114,116,105,116,105,111,110,101,100,67,97,108,108,58,48,0,0,0,2,0,0,0,1,0,0,0,1,0,0,0,150,255,255,255,0,0,0,1,20,0,0,0,52,0,0,0,3,0,0,0,0,0,0,9,68,0,0,0,228,254,255,255,8,0,0,0,20,0,0,0,1,0,0,0,0,0,0,0,0,0,0,0,0,0,0,0,1,0,0,0,188,248,53,60,23,0,0,0,115,101,113,117,101,110,116,105,97,108,47,100,101,110,115,101,47,77,97,116,77,117,108,0,2,0,0,0,1,0,0,0,232,3,0,0,0,0,22,0,28,0,24,0,23,0,16,0,12,0,8,0,0,0,0,0,0,0,7,0,22,0,0,0,0,0,0,1,20,0,0,0,52,0,0,0,2,0,0,0,0,0,0,2,84,0,0,0,100,255,255,255,8,0,0,0,20,0,0,0,1,0,0,0,0,0,0,0,0,0,0,0,0,0,0,0,1,0,0,0,108,175,182,56,39,0,0,0,115,101,113,117,101,110,116,105,97,108,47,100,101,110,115,101,47,66,105,97,115,65,100,100,47,82,101,97,100,86,97,114,105,97,98,108,101,79,112,0,1,0,0,0,1,0,0,0,0,0,22,0,32,0,28,0,27,0,20,0,16,0,12,0,0,0,0,0,8,0,7,0,22,0,0,0,0,0,0,1,24,0,0,0,44,0,0,0,72,0,0,0,1,0,0,0,0,0,0,9,92,0,0,0,2,0,0,0,255,255,255,255,232,3,0,0,12,0,12,0,0,0,0,0,8,0,4,0,12,0,0,0,8,0,0,0,16,0,0,0,1,0,0,0,255,255,255,255,255,255,255,255,1,0,0,0,129,128,0,60,25,0,0,0,115,101,114,118,105,110,103,95,100,101,102,97,117,108,116,95,105,110,112,117,116,95,49,58,48,0,0,0,2,0,0,0,1,0,0,0,232,3,0,0,1,0,0,0,16,0,0,0,12,0,16,0,15,0,0,0,8,0,4,0,12,0,0,0,9,0,0,0,4,0,0,0,0,0,0,9
};
const int g_model_len = 2224;
