#pragma once
#include <stdint.h>
#include <stddef.h>
alignas(16) const unsigned char g_model[] = {32,0,0,0,84,70,76,51,0,0,0,0,20,0,32,0,28,0,24,0,20,0,16,0,12,0,0,0,8,0,4,0,20,0,0,0,28,0,0,0,124,0,0,0,212,0,0,0,96,3,0,0,112,3,0,0,224,24,0,0,3,0,0,0,1,0,0,0,4,0,0,0,162,249,255,255,12,0,0,0,28,0,0,0,52,0,0,0,15,0,0,0,115,101,114,118,105,110,103,95,100,101,102,97,117,108,116,0,1,0,0,0,4,0,0,0,160,255,255,255,29,0,0,0,4,0,0,0,3,0,0,0,111,117,116,0,1,0,0,0,4,0,0,0,162,249,255,255,4,0,0,0,6,0,0,0,105,110,112,95,100,110,0,0,2,0,0,0,52,0,0,0,4,0,0,0,220,255,255,255,32,0,0,0,4,0,0,0,19,0,0,0,67,79,78,86,69,82,83,73,79,78,95,77,69,84,65,68,65,84,65,0,8,0,12,0,8,0,4,0,8,0,0,0,31,0,0,0,4,0,0,0,19,0,0,0,109,105,110,95,114,117,110,116,105,109,101,95,118,101,114,115,105,111,110,0,33,0,0,0,136,2,0,0,128,2,0,0,108,2,0,0,88,2,0,0,68,2,0,0,60,2,0,0,40,2,0,0,16,2,0,0,192,1,0,0,136,1,0,0,88,1,0,0,80,1,0,0,72,1,0,0,48,1,0,0,28,1,0,0,4,1,0,0,252,0,0,0,244,0,0,0,236,0,0,0,228,0,0,0,220,0,0,0,212,0,0,0,204,0,0,0,196,0,0,0,188,0,0,0,180,0,0,0,172,0,0,0,164,0,0,0,156,0,0,0,148,0,0,0,140,0,0,0,108,0,0,0,4,0,0,0,154,250,255,255,4,0,0,0,88,0,0,0,12,0,0,0,8,0,14,0,8,0,4,0,8,0,0,0,16,0,0,0,40,0,0,0,0,0,6,0,8,0,4,0,6,0,0,0,4,0,0,0,1,0,0,0,235,3,0,0,0,0,10,0,16,0,12,0,8,0,4,0,10,0,0,0,2,0,0,0,2,0,0,0,4,0,0,0,6,0,0,0,50,46,49,48,46,49,0,0,254,250,255,255,4,0,0,0,16,0,0,0,49,46,49,52,46,48,0,0,0,0,0,0,0,0,0,0,220,233,255,255,224,233,255,255,228,233,255,255,232,233,255,255,236,233,255,255,240,233,255,255,244,233,255,255,248,233,255,255,252,233,255,255,0,234,255,255,4,234,255,255,8,234,255,255,12,234,255,255,16,234,255,255,20,234,255,255,86,251,255,255,4,0,0,0,5,0,0,0,240,160,27,129,201,0,0,0,106,251,255,255,4,0,0,0,4,0,0,0,0,0,0,0,122,251,255,255,4,0,0,0,8,0,0,0,129,127,129,129,127,127,129,129,80,234,255,255,84,234,255,255,150,251,255,255,4,0,0,0,32,0,0,0,0,0,0,0,0,0,0,0,0,0,0,0,0,0,0,0,0,0,0,0,0,0,0,0,0,0,0,0,0,0,0,0,194,251,255,255,4,0,0,0,40,0,0,0,153,174,190,129,166,138,235,226,127,129,127,27,82,163,103,69,134,144,37,116,127,81,127,150,87,86,29,18,84,120,101,212,73,154,208,30,199,129,175,127,246,251,255,255,4,0,0,0,64,0,0,0,234,86,121,191,18,116,97,127,151,53,92,137,227,33,31,127,100,214,129,205,64,89,200,227,127,176,91,66,111,214,61,197,252,34,97,53,129,122,166,28,8,134,140,127,171,183,10,141,175,131,185,129,12,182,111,254,241,167,47,53,129,250,66,14,66,252,255,255,4,0,0,0,8,0,0,0,127,202,247,60,206,237,171,136,86,252,255,255,4,0,0,0,4,0,0,0,8,0,0,0,40,235,255,255,106,252,255,255,4,0,0,0,4,0,0,0,217,1,0,0,122,252,255,255,4,0,0,0,4,0,0,0,1,0,0,0,138,252,255,255,4,0,0,0,4,0,0,0,0,0,0,0,92,235,255,255,96,235,255,255,15,0,0,0,77,76,73,82,32,67,111,110,118,101,114,116,101,100,46,0,1,0,0,0,20,0,0,0,0,0,14,0,24,0,20,0,16,0,12,0,8,0,4,0,14,0,0,0,20,0,0,0,28,0,0,0,240,3,0,0,244,3,0,0,248,3,0,0,4,0,0,0,109,97,105,110,0,0,0,0,15,0,0,0,160,3,0,0,64,3,0,0,232,2,0,0,192,2,0,0,100,2,0,0,16,2,0,0,204,1,0,0,132,1,0,0,48,1,0,0,0,1,0,0,192,0,0,0,136,0,0,0,96,0,0,0,40,0,0,0,4,0,0,0,122,253,255,255,12,0,0,0,16,0,0,0,8,0,0,0,1,0,0,0,29,0,0,0,1,0,0,0,28,0,0,0,38,253,255,255,20,0,0,0,0,0,0,8,16,0,0,0,20,0,0,0,7,0,0,0,44,236,255,255,1,0,0,0,28,0,0,0,3,0,0,0,27,0,0,0,6,0,0,0,255,255,255,255,206,253,255,255,12,0,0,0,16,0,0,0,3,0,0,0,1,0,0,0,27,0,0,0,2,0,0,0,23,0,0,0,26,0,0,0,126,253,255,255,20,0,0,0,0,0,0,59,20,0,0,0,24,0,0,0,2,0,0,0,194,253,255,255,2,0,0,0,1,0,0,0,26,0,0,0,2,0,0,0,25,0,0,0,5,0,0,0,178,253,255,255,20,0,0,0,0,0,0,32,20,0,0,0,24,0,0,0,1,0,0,0,162,253,255,255,1,0,0,0,1,0,0,0,25,0,0,0,4,0,0,0,24,0,0,0,1,0,0,0,2,0,0,0,2,0,0,0,146,253,255,255,16,0,0,0,0,0,0,55,16,0,0,0,20,0,0,0,130,253,255,255,0,0,0,2,1,0,0,0,24,0,0,0,1,0,0,0,23,0,0,0,26,254,255,255,36,0,0,0,0,0,0,5,52,0,0,0,56,0,0,0,6,0,0,0,0,0,14,0,24,0,23,0,16,0,12,0,8,0,4,0,14,0,0,0,217,1,0,0,1,0,0,0,217,1,0,0,1,0,0,0,0,0,0,1,1,0,0,0,23,0,0,0,1,0,0,0,22,0,0,0,106,254,255,255,20,0,0,0,0,0,0,1,32,0,0,0,36,0,0,0,5,0,0,0,124,255,255,255,0,0,0,1,1,0,0,0,1,0,0,0,0,0,0,1,1,0,0,0,22,0,0,0,3,0,0,0,21,0,0,0,7,0,0,0,11,0,0,0,174,254,255,255,20,0,0,0,0,0,0,2,28,0,0,0,32,0,0,0,4,0,0,0,112,255,255,255,1,0,0,0,1,0,0,0,1,0,0,0,1,0,0,0,21,0,0,0,3,0,0,0,20,0,0,0,8,0,0,0,10,0,0,0,238,254,255,255,32,0,0,0,0,0,0,1,44,0,0,0,48,0,0,0,5,0,0,0,12,0,20,0,19,0,12,0,8,0,7,0,12,0,0,0,0,0,0,1,1,0,0,0,1,0,0,0,0,0,0,1,1,0,0,0,20,0,0,0,3,0,0,0,19,0,0,0,12,0,0,0,9,0,0,0,62,255,255,255,32,0,0,0,0,0,0,2,40,0,0,0,44,0,0,0,4,0,0,0,12,0,16,0,0,0,12,0,8,0,4,0,12,0,0,0,1,0,0,0,1,0,0,0,1,0,0,0,1,0,0,0,19,0,0,0,3,0,0,0,18,0,0,0,14,0,0,0,13,0,0,0,0,0,10,0,16,0,12,0,8,0,4,0,10,0,0,0,12,0,0,0,16,0,0,0,3,0,0,0,1,0,0,0,18,0,0,0,2,0,0,0,0,0,0,0,17,0,0,0,186,255,255,255,28,0,0,0,0,0,0,59,28,0,0,0,32,0,0,0,2,0,0,0,0,0,6,0,8,0,4,0,6,0,0,0,4,0,0,0,1,0,0,0,17,0,0,0,4,0,0,0,16,0,0,0,3,0,0,0,4,0,0,0,4,0,0,0,0,0,14,0,26,0,20,0,16,0,12,0,11,0,4,0,14,0,0,0,36,0,0,0,0,0,0,32,36,0,0,0,40,0,0,0,1,0,0,0,0,0,14,0,8,0,0,0,0,0,0,0,0,0,4,0,14,0,0,0,1,0,0,0,1,0,0,0,16,0,0,0,4,0,0,0,15,0,0,0,1,0,0,0,2,0,0,0,2,0,0,0,0,0,14,0,22,0,0,0,16,0,12,0,11,0,4,0,14,0,0,0,24,0,0,0,0,0,0,55,24,0,0,0,28,0,0,0,0,0,6,0,8,0,7,0,6,0,0,0,0,0,0,2,1,0,0,0,15,0,0,0,1,0,0,0,0,0,0,0,1,0,0,0,29,0,0,0,1,0,0,0,0,0,0,0,30,0,0,0,192,16,0,0,64,16,0,0,192,15,0,0,108,15,0,0,24,15,0,0,188,14,0,0,80,14,0,0,124,13,0,0,128,12,0,0,172,11,0,0,216,10,0,0,4,10,0,0,48,9,0,0,180,8,0,0,36,8,0,0,216,7,0,0,136,7,0,0,52,7,0,0,160,6,0,0,252,5,0,0,248,4,0,0,84,4,0,0,80,3,0,0,188,2,0,0,100,2,0,0,8,2,0,0,168,1,0,0,28,1,0,0,128,0,0,0,4,0,0,0,206,239,255,255,0,0,0,1,24,0,0,0,32,0,0,0,60,0,0,0,30,0,0,0,0,0,0,9,80,0,0,0,2,0,0,0,255,255,255,255,1,0,0,0,180,239,255,255,8,0,0,0,16,0,0,0,1,0,0,0,128,255,255,255,255,255,255,255,1,0,0,0,0,0,128,59,25,0,0,0,83,116,97,116,101,102,117,108,80,97,114,116,105,116,105,111,110,101,100,67,97,108,108,58,48,0,0,0,2,0,0,0,1,0,0,0,1,0,0,0,70,240,255,255,0,0,0,1,24,0,0,0,32,0,0,0,64,0,0,0,29,0,0,0,0,0,0,9,112,0,0,0,2,0,0,0,255,255,255,255,1,0,0,0,44,240,255,255,8,0,0,0,20,0,0,0,1,0,0,0,127,0,0,0,0,0,0,0,0,0,0,0,1,0,0,0,117,199,153,57,54,0,0,0,116,99,110,95,109,99,117,95,105,110,116,56,95,100,115,47,111,117,116,47,77,97,116,77,117,108,59,116,99,110,95,109,99,117,95,105,110,116,56,95,100,115,47,111,117,116,47,66,105,97,115,65,100,100,0,0,2,0,0,0,1,0,0,0,1,0,0,0,222,240,255,255,0,0,0,1,24,0,0,0,32,0,0,0,64,0,0,0,28,0,0,0,0,0,0,9,96,0,0,0,2,0,0,0,255,255,255,255,8,0,0,0,196,240,255,255,8,0,0,0,20,0,0,0,1,0,0,0,128,255,255,255,255,255,255,255,0,0,0,0,1,0,0,0,138,27,60,60,38,0,0,0,116,99,110,95,109,99,117,95,105,110,116,56,95,100,115,47,102,108,97,116,116,101,110,95,115,116,97,116,105,99,47,82,101,115,104,97,112,101,0,0,2,0,0,0,1,0,0,0,8,0,0,0,226,241,255,255,0,0,0,1,20,0,0,0,20,0,0,0,27,0,0,0,0,0,0,2,60,0,0,0,204,241,255,255,44,0,0,0,116,99,110,95,109,99,117,95,105,110,116,56,95,100,115,47,102,108,97,116,116,101,110,95,115,116,97,116,105,99,47,82,101,115,104,97,112,101,47,115,104,97,112,101,0,0,0,0,1,0,0,0,2,0,0,0,62,242,255,255,0,0,0,1,20,0,0,0,20,0,0,0,26,0,0,0,0,0,0,2,60,0,0,0,40,242,255,255,44,0,0,0,116,99,110,95,109,99,117,95,105,110,116,56,95,100,115,47,102,108,97,116,116,101,110,95,115,116,97,116,105,99,47,115,116,114,105,100,101,100,95,115,108,105,99,101,0,0,0,0,0,0,0,0,150,242,255,255,0,0,0,1,20,0,0,0,20,0,0,0,25,0,0,0,0,0,0,2,52,0,0,0,128,242,255,255,36,0,0,0,116,99,110,95,109,99,117,95,105,110,116,56,95,100,115,47,102,108,97,116,116,101,110,95,115,116,97,116,105,99,47,83,104,97,112,101,0,0,0,0,1,0,0,0,4,0,0,0,110,242,255,255,0,0,0,1,24,0,0,0,40,0,0,0,68,0,0,0,24,0,0,0,0,0,0,9,96,0,0,0,4,0,0,0,255,255,255,255,1,0,0,0,1,0,0,0,8,0,0,0,92,242,255,255,8,0,0,0,16,0,0,0,1,0,0,0,128,255,255,255,255,255,255,255,1,0,0,0,138,27,60,60,32,0,0,0,116,99,110,95,109,99,117,95,105,110,116,56,95,100,115,47,112,111,111,108,95,116,111,49,47,65,118,103,80,111,111,108,0,0,0,0,4,0,0,0,1,0,0,0,1,0,0,0,1,0,0,0,8,0,0,0,254,242,255,255,0,0,0,1,24,0,0,0,40,0,0,0,68,0,0,0,23,0,0,0,0,0,0,9,208,0,0,0,4,0,0,0,255,255,255,255,217,1,0,0,1,0,0,0,8,0,0,0,236,242,255,255,8,0,0,0,16,0,0,0,1,0,0,0,128,255,255,255,255,255,255,255,1,0,0,0,138,27,60,60,144,0,0,0,116,99,110,95,109,99,117,95,105,110,116,56,95,100,115,47,98,50,95,115,101,112,47,82,101,108,117,59,116,99,110,95,109,99,117,95,105,110,116,56,95,100,115,47,98,50,95,115,101,112,47,66,105,97,115,65,100,100,59,116,99,110,95,109,99,117,95,105,110,116,56,95,100,115,47,98,49,95,115,101,112,47,66,105,97,115,65,100,100,47,82,101,97,100,86,97,114,105,97,98,108,101,79,112,59,116,99,110,95,109,99,117,95,105,110,116,56,95,100,115,47,98,50,95,115,101,112,47,115,101,112,97,114,97,98,108,101,95,99,111,110,118,50,100,0,0,0,0,4,0,0,0,1,0,0,0,217,1,0,0,1,0,0,0,8,0,0,0,254,243,255,255,0,0,0,1,24,0,0,0,40,0,0,0,68,0,0,0,22,0,0,0,0,0,0,9,112,0,0,0,4,0,0,0,255,255,255,255,217,1,0,0,1,0,0,0,8,0,0,0,236,243,255,255,8,0,0,0,16,0,0,0,1,0,0,0,222,255,255,255,255,255,255,255,1,0,0,0,203,218,178,60,50,0,0,0,116,99,110,95,109,99,117,95,105,110,116,56,95,100,115,47,98,50,95,115,101,112,47,115,101,112,97,114,97,98,108,101,95,99,111,110,118,50,100,47,100,101,112,116,104,119,105,115,101,49,0,0,4,0,0,0,1,0,0,0,217,1,0,0,1,0,0,0,8,0,0,0,158,244,255,255,0,0,0,1,24,0,0,0,40,0,0,0,68,0,0,0,21,0,0,0,0,0,0,9,208,0,0,0,4,0,0,0,255,255,255,255,217,1,0,0,1,0,0,0,8,0,0,0,140,244,255,255,8,0,0,0,16,0,0,0,1,0,0,0,128,255,255,255,255,255,255,255,1,0,0,0,247,175,10,61,144,0,0,0,116,99,110,95,109,99,117,95,105,110,116,56,95,100,115,47,98,49,95,115,101,112,47,82,101,108,117,59,116,99,110,95,109,99,117,95,105,110,116,56,95,100,115,47,98,49,95,115,101,112,47,66,105,97,115,65,100,100,59,116,99,110,95,109,99,117,95,105,110,116,56,95,100,115,47,98,49,95,115,101,112,47,66,105,97,115,65,100,100,47,82,101,97,100,86,97,114,105,97,98,108,101,79,112,59,116,99,110,95,109,99,117,95,105,110,116,56,95,100,115,47,98,49,95,115,101,112,47,115,101,112,97,114,97,98,108,101,95,99,111,110,118,50,100,0,0,0,0,4,0,0,0,1,0,0,0,217,1,0,0,1,0,0,0,8,0,0,0,158,245,255,255,0,0,0,1,24,0,0,0,40,0,0,0,68,0,0,0,20,0,0,0,0,0,0,9,112,0,0,0,4,0,0,0,255,255,255,255,217,1,0,0,1,0,0,0,1,0,0,0,140,245,255,255,8,0,0,0,16,0,0,0,1,0,0,0,88,0,0,0,0,0,0,0,1,0,0,0,58,48,86,61,50,0,0,0,116,99,110,95,109,99,117,95,105,110,116,56,95,100,115,47,98,49,95,115,101,112,47,115,101,112,97,114,97,98,108,101,95,99,111,110,118,50,100,47,100,101,112,116,104,119,105,115,101,49,0,0,4,0,0,0,1,0,0,0,217,1,0,0,1,0,0,0,1,0,0,0,62,246,255,255,0,0,0,1,24,0,0,0,40,0,0,0,72,0,0,0,19,0,0,0,0,0,0,9,96,0,0,0,4,0,0,0,255,255,255,255,217,1,0,0,1,0,0,0,1,0,0,0,44,246,255,255,8,0,0,0,20,0,0,0,1,0,0,0,163,255,255,255,255,255,255,255,0,0,0,0,1,0,0,0,187,126,143,61,29,0,0,0,116,99,110,95,109,99,117,95,105,110,116,56,95,100,115,47,116,111,95,50,100,47,82,101,115,104,97,112,101,0,0,0,4,0,0,0,1,0,0,0,217,1,0,0,1,0,0,0,1,0,0,0,74,247,255,255,0,0,0,1,20,0,0,0,20,0,0,0,18,0,0,0,0,0,0,2,48,0,0,0,52,247,255,255,35,0,0,0,116,99,110,95,109,99,117,95,105,110,116,56,95,100,115,47,116,111,95,50,100,47,82,101,115,104,97,112,101,47,115,104,97,112,101,0,1,0,0,0,4,0,0,0,154,247,255,255,0,0,0,1,20,0,0,0,20,0,0,0,17,0,0,0,0,0,0,2,48,0,0,0,132,247,255,255,35,0,0,0,116,99,110,95,109,99,117,95,105,110,116,56,95,100,115,47,116,111,95,50,100,47,115,116,114,105,100,101,100,95,115,108,105,99,101,0,0,0,0,0,230,247,255,255,0,0,0,1,20,0,0,0,20,0,0,0,16,0,0,0,0,0,0,2,40,0,0,0,208,247,255,255,27,0,0,0,116,99,110,95,109,99,117,95,105,110,116,56,95,100,115,47,116,111,95,50,100,47,83,104,97,112,101,0,1,0,0,0,3,0,0,0,46,248,255,255,0,0,0,1,20,0,0,0,52,0,0,0,15,0,0,0,0,0,0,9,96,0,0,0,186,251,255,255,3,0,0,0,8,0,0,0,16,0,0,0,1,0,0,0,0,0,0,0,0,0,0,0,1,0,0,0,244,123,182,59,49,0,0,0,116,99,110,95,109,99,117,95,105,110,116,56,95,100,115,47,98,49,95,115,101,112,47,115,101,112,97,114,97,98,108,101,95,99,111,110,118,50,100,47,100,101,112,116,104,119,105,115,101,0,0,0,4,0,0,0,1,0,0,0,5,0,0,0,1,0,0,0,1,0,0,0,186,248,255,255,0,0,0,1,20,0,0,0,52,0,0,0,14,0,0,0,0,0,0,2,88,0,0,0,20,248,255,255,8,0,0,0,20,0,0,0,1,0,0,0,0,0,0,0,0,0,0,0,0,0,0,0,1,0,0,0,39,147,204,57,42,0,0,0,116,99,110,95,109,99,117,95,105,110,116,56,95,100,115,47,111,117,116,47,66,105,97,115,65,100,100,47,82,101,97,100,86,97,114,105,97,98,108,101,79,112,0,0,1,0,0,0,1,0,0,0,50,249,255,255,0,0,0,1,20,0,0,0,132,0,0,0,13,0,0,0,0,0,0,9,164,0,0,0,140,248,255,255,8,0,0,0,72,0,0,0,8,0,0,0,0,0,0,0,0,0,0,0,0,0,0,0,0,0,0,0,0,0,0,0,0,0,0,0,0,0,0,0,0,0,0,0,0,0,0,0,0,0,0,0,0,0,0,0,0,0,0,0,0,0,0,0,0,0,0,0,0,0,0,0,0,0,0,0,8,0,0,0,168,59,147,59,111,68,139,59,162,111,197,59,222,19,82,59,40,52,54,58,2,161,36,58,161,178,152,59,244,115,151,59,39,0,0,0,116,99,110,95,109,99,117,95,105,110,116,56,95,100,115,47,98,49,95,115,101,112,47,115,101,112,97,114,97,98,108,101,95,99,111,110,118,50,100,0,4,0,0,0,8,0,0,0,1,0,0,0,1,0,0,0,1,0,0,0,2,250,255,255,0,0,0,1,20,0,0,0,136,0,0,0,10,0,0,0,0,0,0,2,176,0,0,0,92,249,255,255,8,0,0,0,76,0,0,0,8,0,0,0,0,0,0,0,0,0,0,0,0,0,0,0,0,0,0,0,0,0,0,0,0,0,0,0,0,0,0,0,0,0,0,0,0,0,0,0,0,0,0,0,0,0,0,0,0,0,0,0,0,0,0,0,0,0,0,0,0,0,0,0,0,0,0,0,0,0,0,0,8,0,0,0,41,30,213,56,8,28,219,56,128,9,196,56,95,217,172,56,207,128,204,56,223,110,213,56,18,181,220,56,161,163,217,56,46,0,0,0,116,99,110,95,109,99,117,95,105,110,116,56,95,100,115,47,98,49,95,115,101,112,47,66,105,97,115,65,100,100,47,82,101,97,100,86,97,114,105,97,98,108,101,79,112,50,0,0,1,0,0,0,8,0,0,0,210,250,255,255,0,0,0,1,20,0,0,0,136,0,0,0,10,0,0,0,0,0,0,2,176,0,0,0,44,250,255,255,8,0,0,0,76,0,0,0,8,0,0,0,0,0,0,0,0,0,0,0,0,0,0,0,0,0,0,0,0,0,0,0,0,0,0,0,0,0,0,0,0,0,0,0,0,0,0,0,0,0,0,0,0,0,0,0,0,0,0,0,0,0,0,0,0,0,0,0,0,0,0,0,0,0,0,0,0,0,0,0,8,0,0,0,222,117,131,56,197,241,131,56,185,123,186,56,249,28,200,56,127,225,130,56,124,33,149,56,255,84,185,56,44,34,190,56,46,0,0,0,116,99,110,95,109,99,117,95,105,110,116,56,95,100,115,47,98,49,95,115,101,112,47,66,105,97,115,65,100,100,47,82,101,97,100,86,97,114,105,97,98,108,101,79,112,49,0,0,1,0,0,0,8,0,0,0,162,251,255,255,0,0,0,1,20,0,0,0,136,0,0,0,10,0,0,0,0,0,0,2,176,0,0,0,252,250,255,255,8,0,0,0,76,0,0,0,8,0,0,0,0,0,0,0,0,0,0,0,0,0,0,0,0,0,0,0,0,0,0,0,0,0,0,0,0,0,0,0,0,0,0,0,0,0,0,0,0,0,0,0,0,0,0,0,0,0,0,0,0,0,0,0,0,0,0,0,0,0,0,0,0,0,0,0,0,0,0,0,8,0,0,0,54,95,118,57,226,10,105,57,131,48,165,57,47,196,47,57,236,113,24,56,155,189,9,56,45,132,127,57,236,110,125,57,45,0,0,0,116,99,110,95,109,99,117,95,105,110,116,56,95,100,115,47,98,49,95,115,101,112,47,66,105,97,115,65,100,100,47,82,101,97,100,86,97,114,105,97,98,108,101,79,112,0,0,0,1,0,0,0,8,0,0,0,114,252,255,255,0,0,0,1,40,0,0,0,160,0,0,0,9,0,0,0,0,0,0,9,204,0,0,0,0,0,18,0,16,0,0,0,0,0,12,0,8,0,0,0,0,0,4,0,18,0,0,0,3,0,0,0,8,0,0,0,76,0,0,0,8,0,0,0,0,0,0,0,0,0,0,0,0,0,0,0,0,0,0,0,0,0,0,0,0,0,0,0,0,0,0,0,0,0,0,0,0,0,0,0,0,0,0,0,0,0,0,0,0,0,0,0,0,0,0,0,0,0,0,0,0,0,0,0,0,0,0,0,0,0,0,0,8,0,0,0,242,168,242,58,167,141,243,58,220,28,44,59,58,177,56,59,18,151,241,58,127,163,9,59,216,12,43,59,77,123,47,59,49,0,0,0,116,99,110,95,109,99,117,95,105,110,116,56,95,100,115,47,98,50,95,115,101,112,47,115,101,112,97,114,97,98,108,101,95,99,111,110,118,50,100,47,100,101,112,116,104,119,105,115,101,0,0,0,4,0,0,0,1,0,0,0,5,0,0,0,1,0,0,0,8,0,0,0,106,253,255,255,0,0,0,1,20,0,0,0,132,0,0,0,8,0,0,0,0,0,0,9,164,0,0,0,196,252,255,255,8,0,0,0,72,0,0,0,8,0,0,0,0,0,0,0,0,0,0,0,0,0,0,0,0,0,0,0,0,0,0,0,0,0,0,0,0,0,0,0,0,0,0,0,0,0,0,0,0,0,0,0,0,0,0,0,0,0,0,0,0,0,0,0,0,0,0,0,0,0,0,0,0,0,0,0,8,0,0,0,92,133,152,59,25,207,156,59,0,76,140,59,113,103,119,59,17,91,146,59,31,191,152,59,213,243,157,59,184,193,155,59,39,0,0,0,116,99,110,95,109,99,117,95,105,110,116,56,95,100,115,47,98,50,95,115,101,112,47,115,101,112,97,114,97,98,108,101,95,99,111,110,118,50,100,0,4,0,0,0,8,0,0,0,1,0,0,0,1,0,0,0,8,0,0,0,58,254,255,255,0,0,0,1,20,0,0,0,48,0,0,0,7,0,0,0,0,0,0,9,68,0,0,0,148,253,255,255,8,0,0,0,16,0,0,0,1,0,0,0,0,0,0,0,0,0,0,0,1,0,0,0,101,72,210,59,27,0,0,0,116,99,110,95,109,99,117,95,105,110,116,56,95,100,115,47,111,117,116,47,77,97,116,77,117,108,49,0,2,0,0,0,1,0,0,0,8,0,0,0,162,254,255,255,0,0,0,1,20,0,0,0,20,0,0,0,6,0,0,0,0,0,0,2,60,0,0,0,140,254,255,255,46,0,0,0,116,99,110,95,109,99,117,95,105,110,116,56,95,100,115,47,102,108,97,116,116,101,110,95,115,116,97,116,105,99,47,82,101,115,104,97,112,101,47,115,104,97,112,101,47,49,0,0,0,0,0,0,250,254,255,255,0,0,0,1,20,0,0,0,20,0,0,0,3,0,0,0,0,0,0,2,52,0,0,0,228,254,255,255,37,0,0,0,116,99,110,95,109,99,117,95,105,110,116,56,95,100,115,47,116,111,95,50,100,47,82,101,115,104,97,112,101,47,115,104,97,112,101,47,50,0,0,0,0,0,0,0,74,255,255,255,0,0,0,1,20,0,0,0,20,0,0,0,4,0,0,0,0,0,0,2,52,0,0,0,52,255,255,255,37,0,0,0,116,99,110,95,109,99,117,95,105,110,116,56,95,100,115,47,116,111,95,50,100,47,82,101,115,104,97,112,101,47,115,104,97,112,101,47,49,0,0,0,0,0,0,0,154,255,255,255,0,0,0,1,20,0,0,0,20,0,0,0,3,0,0,0,0,0,0,2,68,0,0,0,132,255,255,255,52,0,0,0,116,99,110,95,109,99,117,95,105,110,116,56,95,100,115,47,102,108,97,116,116,101,110,95,115,116,97,116,105,99,47,115,116,114,105,100,101,100,95,115,108,105,99,101,47,115,116,97,99,107,95,49,0,0,0,0,1,0,0,0,1,0,0,0,0,0,22,0,28,0,24,0,23,0,16,0,12,0,8,0,0,0,0,0,0,0,7,0,22,0,0,0,0,0,0,1,24,0,0,0,24,0,0,0,2,0,0,0,0,0,0,2,68,0,0,0,4,0,4,0,4,0,0,0,50,0,0,0,116,99,110,95,109,99,117,95,105,110,116,56,95,100,115,47,102,108,97,116,116,101,110,95,115,116,97,116,105,99,47,115,116,114,105,100,101,100,95,115,108,105,99,101,47,115,116,97,99,107,0,0,1,0,0,0,1,0,0,0,0,0,22,0,32,0,28,0,27,0,20,0,16,0,12,0,0,0,0,0,8,0,7,0,22,0,0,0,0,0,0,1,24,0,0,0,48,0,0,0,76,0,0,0,1,0,0,0,0,0,0,9,96,0,0,0,3,0,0,0,255,255,255,255,217,1,0,0,1,0,0,0,12,0,12,0,0,0,0,0,8,0,4,0,12,0,0,0,8,0,0,0,16,0,0,0,1,0,0,0,163,255,255,255,255,255,255,255,1,0,0,0,187,126,143,61,24,0,0,0,115,101,114,118,105,110,103,95,100,101,102,97,117,108,116,95,105,110,112,95,100,110,58,48,0,0,0,0,3,0,0,0,1,0,0,0,217,1,0,0,1,0,0,0,9,0,0,0,176,0,0,0,148,0,0,0,132,0,0,0,116,0,0,0,96,0,0,0,64,0,0,0,44,0,0,0,24,0,0,0,4,0,0,0,192,255,255,255,14,0,0,0,2,0,0,0,0,0,0,14,208,255,255,255,9,0,0,0,4,0,0,0,0,0,0,9,224,255,255,255,1,0,0,0,2,0,0,0,0,0,0,1,240,255,255,255,3,0,0,0,3,0,0,0,0,0,0,3,12,0,16,0,15,0,0,0,8,0,4,0,12,0,0,0,4,0,0,0,3,0,0,0,0,0,0,4,220,255,255,255,22,0,0,0,0,0,0,22,232,255,255,255,83,0,0,0,0,0,0,83,244,255,255,255,45,0,0,0,0,0,0,45,12,0,12,0,11,0,0,0,0,0,4,0,12,0,0,0,77,0,0,0,0,0,0,77};
const int g_model_len = 6616;
