// auto-generated from modelo_quant.tflite
const unsigned char g_model[] = {28,0,0,0,84,70,76,51,20,0,32,0,28,0,24,0,20,0,16,0,12,0,0,0,8,0,4,0,20,0,0,0,
28,0,0,0,128,0,0,0,216,0,0,0,112,106,2,0,128,106,2,0,8,128,2,0,3,0,0,0,1,0,0,0,
4,0,0,0,14,146,253,255,12,0,0,0,28,0,0,0,56,0,0,0,15,0,0,0,115,101,114,118,105,110,103,95,
100,101,102,97,117,108,116,0,1,0,0,0,4,0,0,0,156,255,255,255,36,0,0,0,4,0,0,0,7,0,0,0,
100,101,110,115,101,95,49,0,1,0,0,0,4,0,0,0,142,150,253,255,4,0,0,0,7,0,0,0,105,110,112,117,
116,95,49,0,2,0,0,0,52,0,0,0,4,0,0,0,220,255,255,255,39,0,0,0,4,0,0,0,19,0,0,0,
67,79,78,86,69,82,83,73,79,78,95,77,69,84,65,68,65,84,65,0,8,0,12,0,8,0,4,0,8,0,0,0,
38,0,0,0,4,0,0,0,19,0,0,0,109,105,110,95,114,117,110,116,105,109,101,95,118,101,114,115,105,111,110,0,
40,0,0,0,148,105,2,0,140,105,2,0,252,104,2,0,228,103,2,0,212,101,2,0,184,101,2,0,156,101,2,0,
128,101,2,0,100,101,2,0,72,101,2,0,184,99,2,0,168,3,2,0,152,131,0,0,136,130,0,0,116,130,0,0,
96,130,0,0,76,130,0,0,56,130,0,0,40,2,0,0,24,1,0,0,16,1,0,0,8,1,0,0,0,1,0,0,
248,0,0,0,240,0,0,0,232,0,0,0,224,0,0,0,216,0,0,0,208,0,0,0,200,0,0,0,192,0,0,0,
184,0,0,0,176,0,0,0,168,0,0,0,160,0,0,0,152,0,0,0,144,0,0,0,136,0,0,0,104,0,0,0,
4,0,0,0,162,151,253,255,4,0,0,0,84,0,0,0,12,0,0,0,8,0,14,0,8,0,4,0,8,0,0,0,
16,0,0,0,36,0,0,0,0,0,6,0,8,0,4,0,6,0,0,0,4,0,0,0,0,0,0,0,0,0,10,0,
16,0,12,0,8,0,4,0,10,0,0,0,2,0,0,0,2,0,0,0,4,0,0,0,6,0,0,0,50,46,49,48,
46,49,0,0,2,152,253,255,4,0,0,0,16,0,0,0,49,46,49,48,46,48,0,0,0,0,0,0,0,0,0,0,
28,130,253,255,32,130,253,255,36,130,253,255,40,130,253,255,44,130,253,255,48,130,253,255,52,130,253,255,56,130,253,255,
60,130,253,255,64,130,253,255,68,130,253,255,72,130,253,255,76,130,253,255,80,130,253,255,84,130,253,255,88,130,253,255,
92,130,253,255,96,130,253,255,102,152,253,255,4,0,0,0,0,1,0,0,208,136,55,62,243,33,132,188,70,108,193,189,
56,207,72,62,96,160,73,61,219,28,108,188,52,116,84,62,164,234,206,61,204,161,132,189,192,25,199,60,231,41,227,189,
233,70,247,60,198,125,81,62,179,59,13,61,16,167,203,61,214,12,63,62,87,54,89,62,44,195,69,62,225,53,54,62,
24,223,3,61,43,171,136,62,30,116,206,189,190,12,86,62,194,12,7,190,87,1,33,189,152,138,14,189,190,210,35,190,
248,162,56,62,238,95,41,62,176,241,53,190,173,0,91,62,41,249,93,190,68,80,58,190,241,137,70,190,112,44,54,190,
29,114,64,62,32,150,117,188,142,111,2,62,60,207,69,62,75,222,45,62,212,103,101,62,224,147,112,190,9,170,83,190,
224,174,63,188,69,155,51,62,101,137,91,62,111,236,241,188,200,55,9,190,189,83,7,190,229,23,67,62,243,23,51,62,
184,97,50,62,14,231,77,62,30,114,48,62,42,184,67,62,115,100,134,190,54,128,53,62,203,36,115,189,48,66,130,62,
36,170,198,61,83,201,64,62,13,72,139,190,102,138,222,189,185,217,73,62,114,153,253,255,4,0,0,0,0,128,0,0,
124,58,148,61,143,46,192,189,75,71,155,62,173,200,240,57,141,229,122,62,207,109,198,62,43,189,88,62,152,230,174,60,
243,210,88,62,162,110,52,62,212,56,164,61,5,3,51,190,250,251,47,62,41,152,21,187,120,181,16,62,38,192,141,61,
57,71,9,62,130,123,195,188,21,22,28,62,143,205,196,189,238,196,74,189,169,235,47,62,0,88,246,188,168,145,43,62,
41,145,235,61,66,171,13,61,230,228,134,62,139,9,189,61,140,72,26,62,192,237,38,62,182,1,239,61,64,121,238,188,
206,167,99,62,76,177,144,61,233,188,101,61,103,156,150,188,228,103,25,190,199,111,254,59,232,148,80,62,163,161,11,189,
167,28,91,61,203,80,128,189,30,241,6,62,107,117,0,190,36,88,3,62,187,134,151,188,143,200,146,62,63,254,82,61,
227,74,164,189,165,31,3,62,25,65,73,62,56,216,73,62,20,99,67,189,176,218,13,190,53,225,99,61,68,166,136,189,
136,158,62,62,253,125,56,62,80,118,22,61,196,49,104,189,139,65,31,62,77,193,21,190,11,53,60,189,82,47,248,60,
133,212,192,61,177,226,53,62,243,134,53,188,38,77,238,61,13,112,137,62,80,52,22,189,152,54,166,188,165,229,247,60,
140,22,239,189,38,33,11,62,103,161,210,189,144,51,245,189,59,213,52,61,165,70,222,61,55,180,180,60,9,222,208,61,
92,4,164,189,28,206,70,60,42,7,33,62,248,132,196,62,188,173,241,61,255,120,218,60,76,1,239,61,217,36,205,61,
202,252,187,61,32,44,150,62,164,79,38,188,161,160,68,189,239,225,74,62,151,5,131,62,123,243,192,61,86,3,95,60,
40,27,165,189,117,177,83,62,44,204,60,189,19,149,174,189,133,109,132,61,4,106,62,60,237,164,145,60,129,139,11,60,
56,86,75,62,25,17,112,62,230,23,49,62,216,73,5,62,250,80,189,189,24,7,169,60,54,2,57,62,27,68,63,190,
53,0,250,61,253,125,35,190,127,177,162,61,95,126,178,61,128,193,39,62,73,63,7,62,249,197,190,189,250,188,95,62,
36,248,238,187,14,100,68,62,99,123,224,61,237,79,213,187,126,133,34,62,95,241,8,190,212,182,205,61,255,166,67,190,
211,248,60,190,173,141,26,190,198,58,168,189,120,237,158,189,108,27,124,189,211,164,2,62,52,139,156,189,224,55,210,188,
161,235,245,60,70,203,172,60,83,79,23,190,98,240,144,61,100,12,19,189,212,124,24,190,189,114,174,61,230,45,222,189,
167,31,144,61,241,167,4,62,165,103,197,187,50,8,241,61,248,182,66,61,112,5,14,62,184,146,70,189,174,143,129,189,
152,138,37,190,51,155,29,62,137,36,23,190,252,220,108,57,134,157,101,61,2,105,2,62,66,250,46,188,68,124,149,61,
134,169,42,187,56,128,234,61,64,161,125,187,94,171,246,61,59,136,234,60,5,38,229,61,170,35,135,188,147,28,25,190,
100,61,66,189,217,160,174,60,121,29,78,61,44,147,35,190,155,217,0,62,100,245,189,189,113,244,253,189,37,163,208,186,
104,75,210,189,38,199,244,60,179,46,77,190,2,158,205,189,255,239,239,189,116,249,215,189,248,146,171,61,42,51,86,61,
26,163,154,61,149,136,186,189,168,232,255,60,40,239,251,60,141,8,235,188,30,91,28,190,246,229,195,61,1,187,58,190,
102,193,119,189,184,132,109,189,95,76,225,61,238,170,209,61,48,51,164,189,199,179,166,189,168,0,31,190,253,107,63,190,
77,6,127,189,85,250,20,62,136,252,192,61,126,154,192,61,69,23,143,61,82,111,245,60,156,109,35,189,219,138,190,61,
32,234,137,61,59,236,190,61,178,65,38,60,85,184,31,190,254,145,148,189,31,170,179,189,221,73,42,62,93,16,225,188,
210,51,86,189,253,33,21,61,119,101,39,190,105,163,86,60,121,135,247,189,81,150,106,190,144,139,33,190,239,249,75,190,
78,64,15,190,42,34,18,190,61,29,52,190,62,190,10,62,233,245,20,190,251,179,185,61,129,233,250,189,132,160,36,188,
198,255,129,59,50,253,42,62,115,136,95,188,39,72,16,189,78,205,236,189,210,149,4,61,50,114,29,190,177,225,140,61,
74,206,19,190,1,134,21,190,103,242,185,189,156,220,133,190,191,236,26,61,29,18,10,188,42,21,178,61,174,94,132,189,
229,195,130,60,30,186,113,189,47,65,33,61,67,94,242,189,90,255,64,190,146,84,200,189,190,223,6,190,224,146,236,188,
197,226,123,61,57,140,15,62,140,87,58,188,87,59,240,188,83,144,206,188,118,15,160,189,133,0,41,188,160,25,2,190,
220,137,162,60,161,148,6,62,186,224,251,61,24,141,220,189,121,76,147,189,73,165,11,190,54,225,100,188,178,110,155,189,
35,1,102,59,34,55,220,189,27,132,140,189,238,49,140,61,56,116,104,60,65,207,11,62,64,245,162,189,226,113,33,62,
103,48,32,61,244,102,135,189,11,240,180,61,1,168,99,61,86,247,63,190,111,84,56,188,138,180,148,61,192,193,208,61,
234,72,134,188,5,141,33,62,121,194,28,190,215,44,72,58,16,46,67,60,101,6,145,60,143,177,3,190,61,197,221,188,
93,59,53,61,242,15,7,190,234,192,244,61,164,187,39,62,115,194,85,189,212,184,7,62,81,123,0,62,135,212,175,186,
201,202,173,60,14,3,126,189,180,255,2,62,171,173,6,62,152,109,212,189,46,93,184,189,133,175,128,58,61,255,182,61,
18,28,175,59,19,168,175,189,240,62,60,61,106,186,39,189,113,254,226,61,243,219,120,61,76,14,107,188,237,241,194,61,
215,110,16,62,30,158,190,61,56,95,14,190,66,181,27,189,252,100,219,189,237,159,18,190,48,29,226,189,234,59,8,190,
71,21,176,189,150,208,238,189,205,97,35,190,195,10,13,62,41,234,8,62,241,133,186,189,41,50,147,189,176,83,133,189,
178,98,248,61,175,84,24,62,192,180,171,188,11,226,115,189,176,34,230,189,235,2,14,62,117,192,148,189,225,221,131,61,
146,250,24,190,154,169,17,62,123,226,14,60,151,5,178,188,72,91,204,61,121,43,16,62,117,93,254,189,56,154,44,62,
64,131,180,189,254,125,141,189,68,213,237,58,162,156,169,61,75,98,27,62,45,169,188,189,3,33,214,61,184,0,223,61,
106,130,249,185,188,141,224,189,127,113,11,189,160,191,28,62,221,154,36,62,192,169,139,61,131,206,37,62,187,39,84,61,
151,55,200,61,243,155,17,190,160,93,196,188,71,215,220,188,234,147,160,188,90,123,35,62,162,251,140,61,1,17,240,189,
226,140,108,189,83,21,139,61,224,158,14,62,212,20,98,61,213,241,46,189,125,158,10,190,40,84,24,190,209,242,174,189,
122,133,205,188,73,159,221,61,60,224,58,62,62,39,130,61,50,246,149,62,121,57,130,60,180,55,105,190,194,176,58,61,
187,92,106,62,59,136,19,61,241,66,246,189,131,169,37,190,193,141,54,189,170,216,225,189,49,98,178,189,254,126,39,62,
199,151,42,190,6,16,27,62,98,166,208,189,230,158,253,189,41,191,124,61,43,254,151,189,255,181,14,190,227,173,77,189,
123,8,54,188,33,179,67,189,131,250,151,62,0,66,151,59,186,66,61,62,243,217,244,188,123,145,135,62,254,220,37,190,
44,18,62,62,9,195,218,188,182,115,232,187,220,210,134,189,87,6,78,189,86,38,241,188,8,98,237,189,30,73,44,190,
91,187,13,190,211,69,141,60,97,117,161,62,155,196,166,189,16,130,17,190,104,50,200,61,221,0,241,188,145,65,170,61,
166,19,30,190,201,76,36,60,112,217,164,189,202,113,12,190,192,58,183,61,52,110,84,189,58,199,93,190,249,113,108,190,
102,82,0,190,178,181,1,190,127,211,215,189,251,114,115,189,137,71,201,60,110,184,183,188,255,26,127,189,139,253,200,61,
51,8,7,62,1,162,241,189,148,150,35,189,85,101,180,59,27,14,167,60,79,175,33,189,0,66,169,61,21,47,214,61,
54,30,152,190,246,75,228,189,208,103,189,60,98,254,119,61,159,243,110,189,190,49,83,189,211,7,143,59,12,223,168,61,
115,151,10,190,10,14,224,61,144,198,14,60,56,0,74,61,173,30,163,189,141,212,83,189,26,172,244,189,132,161,179,189,
154,243,36,190,79,199,252,61,73,92,169,189,214,210,27,60,4,232,211,61,52,65,97,61,161,232,145,61,206,52,11,189,
158,152,67,62,145,14,3,62,73,59,45,190,237,125,183,61,24,46,199,189,12,157,138,61,69,178,253,59,192,247,148,189,
88,238,65,190,192,149,160,189,96,26,238,189,191,211,53,190,121,38,46,189,103,105,144,189,220,248,204,61,149,148,35,62,
8,73,153,61,85,115,175,189,39,158,220,189,92,165,107,61,183,249,136,61,25,72,255,61,143,204,157,190,11,71,65,61,
177,9,175,61,77,71,32,189,48,218,119,61,140,83,193,188,107,193,130,61,102,149,22,62,157,155,31,62,231,55,58,190,
253,85,14,62,22,159,192,61,70,157,255,189,200,15,205,188,70,238,206,189,254,131,159,189,4,185,177,189,40,145,17,190,
184,210,11,189,92,102,39,190,142,47,206,189,40,202,40,190,242,198,31,190,69,93,17,62,208,204,203,60,158,252,181,61,
114,94,29,190,64,66,33,59,97,110,197,189,28,87,21,190,5,176,148,189,203,106,139,189,211,33,29,62,144,184,104,60,
52,186,6,190,100,74,17,190,12,188,69,189,199,171,45,62,240,237,242,60,125,148,50,62,120,158,60,189,65,255,32,62,
187,118,155,189,118,35,178,61,138,229,240,61,245,180,218,189,66,52,131,189,3,123,219,189,222,114,183,61,122,47,208,189,
168,24,26,190,6,66,139,61,80,35,80,60,184,200,243,188,204,84,0,61,92,11,34,190,202,210,223,61,48,46,6,188,
76,55,46,61,242,5,239,61,176,96,115,61,100,139,116,61,90,89,128,189,234,5,255,61,41,59,29,62,82,254,240,61,
60,220,145,61,84,78,128,61,0,178,161,187,192,63,139,61,14,138,250,189,96,160,32,61,189,14,1,62,60,183,218,189,
172,15,115,61,128,214,5,188,14,109,176,189,222,80,233,61,211,253,27,62,90,252,111,189,88,124,188,60,24,158,80,189,
204,43,30,190,168,237,151,189,57,46,11,62,184,170,247,60,104,108,173,60,7,141,20,62,16,37,205,189,97,195,5,62,
229,223,22,62,236,247,105,61,145,17,34,62,203,94,3,190,0,64,183,185,191,149,1,62,152,212,156,189,78,122,208,61,
221,145,23,62,172,159,79,189,154,61,16,190,56,137,176,60,142,182,200,189,218,14,139,61,217,144,31,62,250,218,208,61,
64,123,70,59,216,130,2,189,31,51,17,190,16,136,204,189,40,215,140,61,48,72,203,189,61,251,10,190,73,154,239,189,
49,105,217,189,96,97,153,188,110,97,214,61,254,190,37,190,60,240,22,190,44,186,142,189,147,52,23,62,0,169,129,186,
50,159,167,189,218,196,225,61,252,203,10,61,44,148,26,189,62,39,220,61,0,20,2,61,114,237,0,190,86,142,212,61,
32,227,189,59,12,162,234,189,207,227,45,62,225,72,32,62,56,205,198,60,192,27,139,61,189,227,201,189,53,22,36,190,
21,62,56,61,49,46,240,188,202,102,148,189,237,169,239,187,63,74,71,190,19,114,107,60,223,47,113,59,208,189,236,189,
92,201,181,189,100,45,166,189,19,187,18,62,177,0,152,58,18,169,171,60,85,227,177,61,18,12,42,190,253,222,181,59,
9,250,179,61,121,142,5,62,60,246,225,58,5,237,110,187,172,243,38,60,137,43,252,61,45,205,130,61,165,210,111,189,
57,42,21,190,62,229,52,189,74,205,236,61,221,157,188,188,126,25,44,61,225,68,203,61,151,99,93,188,50,118,78,189,
217,251,22,61,119,55,54,190,137,67,13,62,255,227,57,190,71,237,36,62,89,30,38,61,27,86,161,61,219,101,253,61,
194,155,117,189,185,214,28,61,32,7,67,61,127,218,21,190,48,42,253,189,82,106,151,188,174,194,71,189,26,232,209,188,
188,12,1,190,190,235,51,188,220,171,175,61,223,46,26,189,11,199,26,188,202,235,93,61,131,148,40,190,54,127,58,60,
161,124,200,61,223,85,129,61,111,47,17,189,235,156,164,59,148,109,252,61,136,122,222,188,145,164,213,189,80,79,3,189,
18,31,12,62,233,226,177,189,209,171,163,61,207,106,217,189,176,202,220,189,162,3,171,61,186,159,15,190,199,41,146,61,
69,183,11,61,108,61,130,61,156,85,254,189,11,177,247,189,124,243,231,61,238,107,180,60,146,70,28,62,76,122,38,62,
208,62,71,61,252,26,216,189,117,130,67,61,94,24,209,61,62,40,138,61,85,133,224,61,251,102,147,186,54,5,22,62,
187,176,232,189,141,197,74,189,125,152,123,188,16,190,32,62,20,35,142,61,171,222,227,189,34,15,196,188,8,234,204,189,
214,60,11,62,22,208,77,61,5,100,2,62,58,71,75,188,207,102,154,189,197,36,7,62,36,223,222,189,174,84,71,190,
70,76,24,190,66,235,168,61,148,233,105,189,6,226,166,189,220,18,27,189,130,112,175,58,52,175,206,61,133,224,228,61,
198,155,19,61,124,208,132,189,139,117,161,187,153,67,221,189,78,31,3,62,97,249,40,190,92,254,23,190,80,51,2,62,
157,27,134,60,63,121,205,189,176,22,214,189,16,249,125,188,63,79,151,189,57,242,10,62,88,145,133,189,17,11,29,190,
221,157,240,61,42,203,78,189,237,128,146,62,110,86,214,189,106,200,73,62,205,230,22,60,4,15,99,61,103,212,175,58,
73,68,97,62,3,76,86,189,225,127,152,59,233,188,247,60,192,9,89,62,137,88,82,188,228,123,71,185,94,7,117,189,
235,244,44,190,17,97,26,62,81,120,39,189,198,116,11,62,187,233,158,61,179,144,80,190,255,241,47,190,97,126,207,189,
68,208,211,188,112,52,229,61,53,230,100,61,22,86,22,62,159,82,112,61,76,178,35,190,217,242,117,62,255,251,133,61,
219,41,41,189,221,143,245,188,14,209,44,62,125,11,140,61,124,134,62,190,214,69,235,58,78,158,17,61,201,180,13,62,
174,55,74,61,183,221,177,189,117,67,84,62,84,153,132,189,154,12,2,62,59,34,227,189,109,28,53,61,240,254,17,190,
218,249,23,190,186,175,148,189,16,183,224,189,93,70,23,190,242,103,248,61,138,116,121,60,100,206,44,189,132,65,37,61,
92,67,83,189,75,120,63,61,3,176,31,190,8,155,249,60,117,251,180,61,185,204,76,189,20,146,20,190,94,95,199,61,
58,124,17,61,77,172,34,61,45,2,149,188,191,205,29,188,244,88,92,62,230,51,253,189,251,240,130,189,64,77,140,61,
151,193,64,190,245,79,33,190,106,204,135,189,183,97,10,189,193,202,111,188,238,224,138,189,36,38,181,61,246,128,218,189,
130,67,12,61,90,158,23,62,58,155,38,62,250,95,208,61,175,15,162,61,4,209,118,189,159,129,146,189,84,72,12,189,
176,73,49,189,31,89,27,62,252,209,60,190,62,89,201,61,156,218,33,187,165,136,136,60,198,47,193,61,63,32,146,190,
72,79,50,62,89,253,162,62,47,58,187,60,190,121,4,62,148,152,137,60,110,223,108,58,211,235,255,189,173,237,247,189,
148,126,9,62,157,96,186,188,185,116,243,188,77,67,64,189,76,121,85,189,255,215,33,190,58,29,96,61,123,29,80,189,
175,70,107,189,187,68,17,189,252,135,44,190,124,56,187,189,200,99,233,61,192,126,89,62,136,112,50,190,3,14,106,189,
175,162,43,188,194,38,99,190,104,191,5,190,223,131,98,61,105,173,58,62,141,102,213,61,122,238,204,60,189,121,151,60,
163,166,25,190,162,98,229,61,139,193,37,190,244,97,37,190,236,124,84,61,214,132,238,61,44,6,63,61,202,207,13,190,
141,220,206,189,221,237,26,62,24,102,6,61,48,125,154,189,0,171,167,58,50,76,188,61,219,140,9,190,16,123,28,189,
218,90,5,190,156,27,37,189,16,9,234,60,128,24,182,186,188,178,145,189,0,74,4,60,152,109,32,189,155,27,41,62,
214,154,224,61,202,213,112,189,167,233,3,190,46,111,11,190,100,34,77,61,178,78,94,189,104,63,42,189,22,150,42,190,
48,176,154,188,186,64,151,189,244,4,51,189,36,33,37,190,184,207,232,60,244,151,29,190,226,255,103,189,77,8,42,190,
179,121,204,189,165,92,37,62,35,208,31,62,98,205,242,61,167,154,31,62,32,231,188,188,52,149,116,189,0,137,14,61,
85,231,181,189,238,21,24,190,91,174,0,62,71,129,255,189,33,243,10,62,224,188,236,60,202,7,178,61,64,82,24,61,
40,169,193,189,1,137,48,190,44,74,157,189,58,128,194,61,78,86,199,61,187,7,18,190,181,221,129,189,121,56,220,189,
46,199,228,61,237,123,31,62,191,22,33,62,2,176,244,61,138,252,6,190,205,108,24,62,64,70,73,189,79,211,48,190,
168,180,162,188,215,137,190,189,176,13,175,189,146,84,243,189,216,164,51,190,49,109,11,62,205,144,236,189,237,175,217,189,
120,1,96,61,128,41,93,60,65,21,224,189,59,160,43,62,82,143,244,61,224,225,49,60,92,136,219,189,218,254,234,189,
44,154,2,61,107,248,38,190,242,250,132,61,130,25,20,190,168,94,216,189,69,38,190,189,194,236,197,61,150,86,172,61,
230,160,128,61,146,123,155,61,243,233,26,190,56,224,177,189,64,238,31,187,74,141,90,189,36,221,16,190,25,242,143,189,
236,17,33,61,200,20,106,189,0,222,215,186,170,71,19,190,98,88,245,189,18,49,173,61,224,158,49,60,152,75,20,189,
238,179,236,61,111,167,27,190,228,144,104,61,228,21,170,189,66,171,215,61,68,40,61,189,148,71,205,189,192,126,99,59,
120,255,78,189,202,97,188,61,182,29,109,189,94,238,146,61,151,202,29,190,42,122,169,61,51,245,204,189,88,34,64,189,
112,178,182,188,164,99,91,61,35,83,22,62,250,202,241,61,8,218,88,61,128,19,72,189,186,232,228,61,144,157,158,189,
90,47,190,189,112,45,142,61,181,44,193,189,48,20,241,189,56,33,123,189,18,185,255,61,168,134,3,189,128,231,162,186,
98,127,177,61,64,95,156,60,26,158,173,61,230,251,249,61,168,78,227,188,180,89,110,61,104,106,55,189,197,77,137,189,
48,71,79,61,128,178,13,59,170,142,251,189,148,230,8,190,136,249,33,61,227,95,1,62,197,182,6,190,126,190,208,61,
232,147,170,60,118,74,136,189,160,147,13,188,170,170,251,189,144,5,42,189,156,42,35,61,234,252,152,61,64,220,232,59,
28,205,176,189,25,178,169,189,128,134,205,186,148,29,96,61,168,58,204,189,27,20,43,190,158,213,147,61,184,245,217,188,
26,85,172,61,156,110,100,61,241,255,6,62,155,131,28,62,49,35,132,189,181,44,35,190,192,198,25,61,200,14,52,189,
0,161,112,187,112,197,227,60,221,135,196,189,240,127,231,188,170,80,183,61,217,95,145,189,176,73,132,61,80,172,51,190,
208,228,86,61,111,37,17,62,166,145,26,190,86,218,178,61,0,215,66,189,128,115,220,186,148,201,22,190,96,205,32,61,
6,13,242,61,199,253,42,190,198,82,95,189,24,138,142,61,200,131,236,188,39,31,39,190,132,56,174,189,104,149,78,189,
109,230,26,190,194,56,93,189,130,89,209,61,144,227,189,188,60,165,55,61,9,159,50,62,230,92,235,189,236,32,0,61,
210,67,176,61,248,101,27,190,134,21,198,61,151,167,14,62,176,209,10,189,152,100,127,61,249,230,199,189,224,253,70,189,
171,177,35,62,70,36,242,61,55,146,11,62,236,219,17,189,40,159,211,188,55,0,46,62,224,55,91,60,143,36,183,189,
192,222,85,61,195,178,45,190,56,107,64,189,112,79,156,60,241,132,8,62,44,23,25,190,193,236,35,62,202,119,180,61,
64,43,235,60,200,180,110,61,5,69,158,189,158,225,175,61,32,153,50,190,130,238,220,189,229,0,11,190,233,226,228,189,
36,177,93,61,67,156,0,190,2,139,179,61,40,79,106,189,251,70,38,62,32,182,6,188,160,98,249,60,64,209,234,59,
97,169,24,62,11,89,132,189,24,0,37,190,4,111,103,189,160,128,24,188,64,119,223,60,52,4,59,189,208,149,37,188,
134,180,233,189,190,206,244,189,200,162,80,61,64,180,130,59,172,23,146,189,112,63,146,60,133,221,211,189,126,185,155,61,
244,14,43,61,178,111,236,61,73,106,24,190,143,128,30,190,96,220,21,190,150,135,185,61,192,19,59,187,101,240,38,190,
16,190,222,60,0,7,117,189,64,1,161,59,46,99,85,189,45,234,42,62,116,149,208,189,24,24,156,188,81,183,19,62,
174,137,158,61,152,182,180,189,93,175,42,190,142,119,246,61,146,133,10,190,80,120,158,188,194,108,182,61,190,164,41,190,
56,232,170,188,25,125,27,62,40,57,191,189,122,108,206,61,176,62,141,60,149,105,36,62,80,67,14,189,118,13,164,61,
123,209,25,62,78,193,172,61,0,249,216,60,26,132,209,189,214,201,19,190,17,183,46,62,222,101,231,61,163,154,19,190,
55,74,0,62,142,217,102,189,0,57,163,59,166,23,180,61,122,187,160,61,0,4,126,186,208,134,235,188,61,19,10,62,
210,16,163,61,22,249,185,61,24,155,195,60,150,25,248,61,138,189,105,189,254,229,217,61,130,1,251,61,118,14,51,190,
157,79,9,190,137,106,184,189,140,246,84,189,32,216,72,189,76,91,2,190,203,30,29,62,136,86,71,189,103,93,51,62,
246,202,202,61,152,111,241,60,200,10,3,189,192,46,11,188,226,154,180,61,166,176,163,61,88,17,4,61,49,131,0,62,
116,144,70,189,114,86,168,61,136,97,105,61,194,153,150,61,47,241,241,189,93,5,8,62,238,111,209,189,71,23,5,190,
216,154,73,61,70,163,181,61,222,253,223,61,32,138,152,189,182,74,201,61,172,9,34,61,245,153,188,189,164,123,15,61,
80,232,132,60,122,122,14,190,221,161,210,189,64,246,249,188,253,125,29,62,109,183,11,190,162,58,251,189,62,229,167,189,
222,56,187,61,82,86,205,61,217,61,160,189,128,14,51,61,237,176,28,62,76,211,51,189,24,39,242,60,198,194,171,61,
60,182,2,189,134,71,207,189,134,233,17,190,112,118,21,188,235,11,31,62,78,201,19,190,32,194,70,189,192,167,166,189,
52,169,143,61,41,45,219,61,247,136,40,190,100,199,146,189,26,243,56,190,92,228,153,189,186,83,6,190,77,32,35,190,
92,156,4,60,72,101,50,190,126,158,183,61,172,202,52,190,174,184,250,61,177,204,68,188,102,25,135,60,197,18,138,61,
51,123,43,61,210,201,234,188,89,225,111,61,92,6,184,186,213,159,219,60,99,31,142,61,94,44,214,61,28,236,234,189,
49,252,201,189,157,67,112,189,221,165,17,62,253,219,61,190,99,23,52,190,116,10,62,190,64,144,62,190,143,200,222,189,
123,239,0,62,69,154,185,188,183,168,31,190,6,112,250,189,102,1,27,62,251,54,34,61,177,43,58,189,66,134,44,188,
54,90,5,190,54,3,124,189,175,23,14,190,220,124,109,61,249,22,12,62,242,23,120,61,158,134,216,189,161,30,24,190,
136,3,71,190,174,42,221,189,100,7,111,61,191,142,96,188,133,159,164,61,6,85,13,62,18,18,203,189,1,24,24,62,
238,57,2,62,44,198,3,62,127,2,49,190,112,204,1,190,29,34,193,188,148,46,147,61,99,246,158,189,220,61,54,190,
122,132,236,61,179,108,85,61,151,1,117,189,7,0,95,189,38,103,48,190,183,213,53,190,161,217,27,190,65,204,158,59,
101,158,176,189,57,240,169,61,99,142,237,189,24,32,145,188,99,191,200,61,96,168,116,61,85,96,26,62,0,119,48,59,
108,83,16,190,72,229,68,190,241,48,20,190,18,112,49,189,17,148,213,61,94,75,118,186,82,87,211,61,112,234,183,189,
248,213,142,61,45,29,23,61,174,125,100,189,169,122,0,61,33,147,154,61,40,12,147,61,1,120,129,189,116,116,40,190,
101,73,78,61,181,207,6,190,234,15,247,189,49,196,187,61,119,235,240,189,20,209,34,189,63,67,42,62,73,232,168,61,
54,28,217,188,163,187,103,188,106,255,190,189,36,235,91,61,80,106,31,60,183,147,248,187,215,226,51,62,38,234,206,189,
224,47,9,60,125,160,20,190,160,99,58,190,0,188,66,189,156,159,249,189,2,221,8,190,221,143,67,187,249,183,234,188,
254,78,118,61,84,218,32,61,89,81,154,189,81,237,95,189,105,241,232,187,238,162,175,61,215,251,9,190,194,90,184,61,
57,109,11,61,14,203,28,190,214,19,82,190,93,214,165,189,96,89,168,189,229,216,191,189,30,66,159,189,53,7,231,189,
167,52,184,189,64,9,152,59,251,45,153,59,235,95,198,61,198,50,205,189,53,95,192,61,37,92,57,58,198,14,43,188,
114,70,245,189,3,104,218,61,149,186,30,62,206,15,40,61,92,164,151,59,8,100,165,60,231,40,254,189,214,2,179,61,
142,236,231,61,77,233,73,190,221,53,36,190,223,10,233,61,243,119,212,188,240,19,187,188,158,0,229,189,228,3,168,189,
82,106,154,61,85,32,62,188,56,130,189,189,135,249,133,189,123,115,37,190,41,176,19,190,235,255,37,190,48,163,242,60,
192,102,27,189,48,184,188,188,25,192,254,187,248,150,184,188,0,116,100,187,18,133,208,61,112,143,201,188,41,85,112,189,
4,63,231,61,251,52,34,62,195,146,40,190,59,35,30,190,196,166,91,61,109,225,232,187,128,97,5,59,137,80,145,189,
3,72,75,190,139,1,186,189,80,66,254,60,222,180,110,57,247,161,22,62,80,148,78,190,156,151,14,62,62,74,39,190,
86,209,175,189,242,239,129,61,189,244,17,190,197,95,206,188,71,194,150,61,216,27,36,190,188,11,7,190,81,101,171,59,
188,146,223,61,133,37,61,61,156,92,39,61,16,213,111,189,165,5,35,189,230,110,225,61,212,4,4,190,204,49,87,61,
178,147,138,61,52,194,12,190,163,174,4,62,173,245,130,189,80,199,76,188,238,144,246,189,74,237,245,61,45,197,137,60,
84,57,129,61,10,209,151,61,160,46,185,188,52,148,88,61,154,33,112,189,80,66,161,189,170,195,24,190,138,115,46,190,
117,236,66,61,88,126,82,188,133,128,159,189,186,194,84,190,120,99,151,60,88,15,140,188,154,102,252,61,78,64,217,61,
22,78,5,190,106,248,254,189,115,163,50,189,170,104,240,61,14,66,137,61,174,180,65,190,37,29,31,189,92,112,78,189,
19,5,191,189,179,174,40,62,32,222,24,190,179,26,20,190,139,132,16,62,104,89,66,61,192,199,241,189,127,57,170,58,
81,47,76,190,203,220,20,61,10,111,210,189,220,188,171,189,139,46,45,61,46,143,60,190,147,181,222,189,79,146,52,190,
106,224,33,61,235,30,51,61,38,194,113,62,100,163,232,189,62,73,133,62,154,207,100,61,181,22,85,62,55,221,121,61,
83,44,49,62,79,157,121,61,104,145,220,189,233,26,242,187,167,218,53,62,150,171,51,60,203,139,158,59,126,44,88,61,
61,30,174,61,89,25,2,189,133,171,31,62,35,76,24,189,86,26,246,189,57,146,49,62,239,10,145,62,153,219,208,189,
243,145,111,187,185,194,148,61,9,41,225,62,55,100,78,62,127,156,150,62,125,160,63,190,120,233,75,62,245,118,0,62,
178,51,201,189,96,150,132,189,99,164,57,190,9,24,186,189,27,231,46,190,116,82,72,58,248,112,191,61,196,198,111,186,
149,233,156,189,66,65,62,62,165,101,93,62,129,89,0,61,72,215,255,186,166,51,27,189,178,114,134,189,162,0,162,188,
232,204,76,62,83,46,144,187,233,1,136,186,18,110,173,61,63,78,4,189,243,204,167,189,160,172,87,62,138,106,68,189,
183,50,23,61,206,221,183,188,25,13,132,189,110,129,79,61,127,211,162,189,142,7,12,190,243,78,3,62,0,211,41,189,
179,90,40,62,101,91,83,61,248,137,137,61,88,107,177,61,1,206,26,62,218,224,19,61,93,4,145,189,54,143,161,61,
171,116,75,62,47,162,89,60,137,108,0,190,7,44,214,61,89,154,210,60,141,159,15,189,239,34,223,61,47,161,29,188,
233,169,144,61,118,28,129,61,22,213,45,189,191,192,213,62,204,107,170,61,16,121,39,61,47,94,13,190,89,247,205,189,
168,29,34,61,109,242,73,189,101,49,37,62,190,127,87,189,78,23,193,61,15,165,201,61,233,196,88,189,208,82,58,62,
226,15,211,189,90,83,66,62,223,20,161,61,205,56,11,61,75,48,41,189,114,34,58,62,250,29,136,62,18,33,150,61,
191,75,17,62,154,127,180,59,108,235,119,61,166,120,164,189,179,46,51,190,116,12,39,61,254,5,97,62,173,39,150,61,
165,49,236,188,61,153,2,60,185,100,61,190,193,160,226,61,5,185,210,189,111,248,219,62,58,27,210,61,32,33,20,186,
144,49,131,189,235,216,63,61,141,23,233,61,101,123,208,189,107,42,99,62,175,46,33,62,253,228,112,189,130,249,154,60,
80,185,205,60,175,231,37,62,206,215,38,61,48,187,91,61,88,99,190,189,20,73,47,189,31,150,195,61,206,153,18,190,
11,109,251,61,218,131,193,189,46,6,23,190,31,132,2,62,134,249,235,189,80,20,1,60,56,82,245,189,83,216,22,190,
154,96,33,190,198,140,174,61,48,126,1,189,22,64,226,189,204,202,128,189,85,89,52,190,12,255,198,60,48,181,199,189,
24,173,115,189,41,207,244,189,170,141,44,61,222,152,206,189,193,221,67,190,216,229,232,188,220,52,0,189,122,22,248,189,
217,71,65,190,132,154,25,190,140,111,79,61,196,214,23,189,50,122,218,61,169,47,39,190,200,38,178,188,192,233,205,189,
92,158,254,189,4,195,34,190,94,227,46,190,231,40,27,61,80,184,36,188,137,39,6,190,95,4,47,62,220,175,9,190,
152,43,240,189,18,143,50,190,149,40,191,189,188,140,194,189,134,183,227,61,97,39,27,62,35,143,153,61,202,13,143,61,
24,1,218,188,153,47,30,62,152,207,224,188,10,126,148,189,248,166,145,188,50,230,214,61,230,124,18,190,184,0,12,189,
218,108,19,190,7,69,215,189,232,206,249,60,96,137,151,60,233,11,43,188,167,77,52,190,206,95,46,190,138,93,107,189,
34,17,43,190,28,244,18,61,40,113,171,188,136,136,216,189,99,191,18,62,97,42,7,190,244,8,10,61,52,215,91,61,
17,117,186,189,240,0,215,188,78,203,174,61,41,70,15,190,109,22,219,189,107,66,25,62,227,149,10,62,210,99,174,61,
73,71,147,189,142,47,90,189,224,206,9,189,35,249,23,62,185,19,166,189,149,134,120,61,109,9,27,62,213,96,50,189,
96,184,214,189,56,215,215,189,26,168,220,61,152,143,199,60,223,53,36,62,192,111,108,59,237,0,182,189,18,188,203,188,
171,245,46,60,133,51,36,62,179,216,233,189,182,218,52,190,10,45,247,189,62,229,201,61,143,36,43,190,210,180,174,61,
170,234,160,61,249,228,44,62,65,128,6,190,189,22,18,190,166,159,199,61,63,73,22,190,110,201,7,62,175,37,45,190,
130,2,230,61,224,71,145,188,60,117,71,189,120,183,54,61,208,60,207,189,69,125,72,61,196,190,185,189,230,178,206,61,
148,55,27,190,64,246,254,59,80,34,91,61,198,217,223,61,202,13,203,61,135,143,1,190,208,81,36,188,40,22,233,189,
181,218,15,190,164,131,68,61,103,103,242,189,63,4,14,62,118,22,36,190,43,38,205,189,120,59,133,61,208,117,227,60,
193,5,19,62,204,186,60,189,134,167,188,189,88,184,147,60,112,12,169,189,196,179,29,190,160,1,20,188,0,88,5,58,
216,169,218,60,86,229,175,61,88,163,11,189,96,222,0,61,89,13,51,62,208,242,43,189,60,16,46,189,124,241,77,61,
63,50,1,190,190,90,201,61,22,38,232,61,164,8,60,61,190,197,41,190,26,127,100,189,1,137,14,62,111,108,235,189,
203,33,1,190,92,202,84,61,88,249,21,190,168,44,86,61,128,61,188,60,152,144,50,61,29,203,9,62,36,114,63,189,
50,64,235,61,246,184,214,61,205,163,28,62,175,97,2,62,215,14,40,62,9,234,37,190,130,30,4,190,58,77,157,61,
168,200,9,61,122,246,164,61,147,108,38,62,0,105,34,61,192,135,8,188,44,205,30,190,252,103,108,189,232,192,35,189,
44,97,137,189,73,254,13,62,194,82,159,61,16,226,15,188,191,101,38,190,78,144,225,61,74,229,119,189,64,107,63,59,
224,239,50,189,159,125,30,62,120,20,247,188,177,168,9,62,32,125,221,188,32,191,23,61,214,173,223,189,45,44,39,62,
76,158,220,189,250,47,150,61,84,53,63,61,76,246,48,190,240,196,59,61,185,171,12,62,224,140,236,60,116,121,4,61,
96,27,11,190,6,196,120,189,215,56,159,189,161,66,146,189,7,21,38,62,178,236,8,190,192,115,100,188,110,95,245,61,
174,181,26,190,193,109,49,190,88,185,8,190,184,126,49,189,22,113,128,61,190,161,166,61,48,246,138,188,157,49,23,62,
236,170,4,190,190,239,175,61,150,211,247,189,40,200,135,61,9,246,226,189,95,204,25,62,118,184,202,61,155,84,20,62,
96,220,143,189,247,119,44,62,41,127,6,62,112,251,25,188,56,115,14,190,230,252,232,61,15,159,1,62,23,117,156,189,
236,75,0,189,144,140,103,60,186,85,154,61,48,53,149,60,32,218,158,187,40,171,55,189,112,163,27,189,244,80,132,61,
70,126,255,61,82,226,130,188,163,81,109,62,66,133,196,59,224,145,148,62,31,237,84,187,163,231,75,62,79,236,31,189,
199,251,159,62,179,247,165,61,120,38,87,190,171,55,31,189,99,174,194,60,230,236,133,61,50,235,180,61,100,218,169,61,
236,122,73,61,45,85,152,189,39,113,157,61,89,31,97,190,12,155,176,61,219,192,167,189,53,68,102,62,17,60,92,61,
138,206,181,61,179,168,9,62,222,232,73,62,143,4,31,189,48,135,127,62,222,159,171,61,24,219,134,62,157,239,44,190,
174,183,10,189,219,76,136,189,3,175,179,189,123,202,143,189,230,187,45,190,143,97,166,189,128,71,173,59,6,52,14,62,
139,220,8,61,188,230,59,190,187,11,182,62,76,182,148,62,247,137,235,61,59,117,19,190,231,171,229,189,111,156,173,189,
129,206,11,62,194,239,227,188,35,59,205,189,47,238,143,61,254,57,64,61,21,253,206,189,230,135,161,183,133,171,62,190,
10,244,182,57,93,1,97,187,28,194,173,61,107,213,159,189,195,74,46,190,146,3,30,190,14,167,81,189,9,184,227,189,
217,248,75,189,150,222,101,188,49,166,235,61,240,205,59,189,240,25,142,61,102,249,159,189,74,247,124,189,103,31,27,61,
73,52,26,61,230,89,67,62,30,3,142,61,23,135,235,59,232,165,168,189,186,124,39,190,219,13,53,190,108,31,73,62,
117,230,242,189,203,24,195,189,168,239,62,61,137,87,206,61,108,252,249,60,97,96,80,189,78,37,24,61,190,184,97,61,
179,182,17,61,195,246,223,189,94,155,93,62,100,217,17,190,82,246,129,189,157,251,167,61,45,99,25,189,112,91,184,188,
140,165,32,62,13,193,9,62,118,8,26,190,15,7,103,189,178,69,14,61,197,116,159,61,110,29,223,60,249,96,5,61,
15,58,182,62,117,243,115,189,118,107,130,61,250,200,223,189,95,106,195,189,193,116,1,189,240,149,140,62,189,178,113,61,
156,40,104,190,26,77,41,189,66,242,239,189,81,22,147,62,43,143,202,188,126,145,255,62,147,227,223,188,38,57,147,189,
21,34,193,61,31,54,228,188,85,226,18,188,218,250,128,60,198,215,195,62,6,116,169,61,212,251,48,62,36,154,248,60,
191,164,121,60,172,203,90,61,208,182,210,62,181,54,4,62,3,76,70,62,66,239,157,189,239,201,235,61,136,170,245,189,
124,37,65,62,72,59,251,188,90,42,52,190,168,40,47,61,27,95,70,62,108,31,86,189,24,175,177,61,34,89,129,61,
41,23,190,189,42,132,35,190,87,50,129,61,91,44,199,189,246,66,60,189,18,235,2,190,7,74,8,61,103,211,144,189,
209,32,16,61,175,187,136,61,229,151,185,61,82,27,175,61,64,93,7,62,170,255,72,62,234,245,33,61,161,229,129,60,
151,75,22,189,227,134,204,61,141,143,238,189,195,190,206,189,23,214,225,61,163,150,121,189,250,254,250,189,246,68,159,61,
237,134,207,188,57,108,185,61,202,38,79,62,100,95,32,189,193,131,34,189,163,64,179,189,79,129,188,61,88,71,239,61,
252,137,148,61,145,10,166,189,213,92,45,61,216,213,156,188,139,115,170,189,149,1,19,190,3,160,165,61,2,14,43,62,
76,152,240,61,154,6,48,189,51,17,126,61,8,108,73,188,78,113,45,187,135,97,200,189,234,146,84,61,203,229,140,61,
246,174,36,187,137,57,18,190,94,152,61,190,212,158,154,189,211,129,138,62,120,221,152,60,107,51,158,189,178,74,28,189,
6,88,177,61,200,114,32,189,61,201,6,189,28,133,227,60,225,167,19,62,131,27,228,61,72,147,245,189,133,169,82,62,
137,181,243,60,140,197,142,61,167,43,192,189,176,201,138,62,53,181,76,62,45,105,165,189,198,165,14,190,194,160,182,61,
37,46,231,61,141,96,238,61,19,54,153,189,79,41,165,189,114,75,158,61,185,132,163,60,170,195,15,190,117,94,26,189,
243,67,129,61,14,162,158,62,168,200,10,62,92,130,63,190,12,79,249,61,153,77,248,60,174,68,22,62,34,117,28,62,
52,14,38,62,107,80,168,189,27,181,102,189,196,91,233,187,198,125,254,61,143,153,218,188,238,246,27,62,111,72,74,189,
138,200,63,62,21,8,64,190,175,176,63,60,252,204,130,61,141,136,168,61,113,180,159,62,135,185,101,61,220,152,61,190,
192,195,202,60,174,160,38,190,223,28,144,61,105,82,244,186,183,233,158,62,241,145,29,62,233,166,235,61,120,46,22,190,
64,76,1,190,157,111,189,189,204,208,88,62,184,53,196,58,83,179,63,61,2,11,93,62,137,8,121,62,4,128,235,61,
128,57,166,62,194,96,13,59,93,220,215,61,232,81,27,61,230,69,242,187,13,38,32,62,220,235,158,61,253,218,148,61,
149,244,2,62,253,244,226,61,8,142,117,61,187,214,53,62,58,223,214,189,127,211,216,61,83,127,43,62,170,39,77,61,
153,163,26,189,68,223,218,189,246,98,129,62,127,47,131,62,122,60,130,62,118,123,72,189,146,144,67,61,9,68,250,189,
29,131,46,61,45,222,32,62,115,113,54,60,41,133,0,189,49,78,17,62,80,226,171,189,160,243,196,61,73,157,188,186,
210,82,21,60,11,234,34,61,66,4,165,61,9,47,132,62,20,21,79,62,73,158,204,60,152,255,210,188,198,231,82,190,
103,3,22,190,178,231,101,189,103,20,4,190,64,97,58,61,90,219,10,62,62,207,179,60,227,244,85,61,253,210,188,61,
161,109,112,189,75,111,252,61,182,239,105,189,182,209,43,62,124,7,241,61,76,227,248,189,123,9,58,62,139,162,23,190,
47,130,220,189,134,119,32,62,93,224,240,186,238,1,160,60,197,30,161,62,240,241,132,189,179,100,92,61,13,140,29,62,
83,198,30,60,108,81,128,61,196,209,142,61,89,96,35,190,91,123,116,61,133,59,107,62,90,29,1,190,241,112,144,61,
104,9,163,188,238,200,101,190,253,100,80,62,18,144,75,62,69,188,61,62,195,8,254,189,65,212,132,190,60,52,8,61,
160,223,32,190,99,117,90,62,208,209,83,62,181,208,63,62,49,6,117,62,211,87,254,61,139,1,141,188,225,147,255,61,
154,18,81,62,76,212,149,61,159,164,210,61,34,28,143,60,221,166,61,62,225,27,58,61,139,72,136,189,203,71,221,61,
138,141,38,62,114,113,63,60,102,179,221,61,250,29,60,62,201,177,247,61,210,125,3,62,26,119,251,61,101,220,241,189,
182,70,134,62,244,82,67,62,243,38,196,61,192,52,198,61,106,236,183,189,238,166,160,62,147,140,51,62,81,197,25,190,
31,211,20,61,148,63,242,61,24,122,223,61,44,248,120,62,171,202,0,62,226,52,137,61,134,245,185,189,154,27,60,62,
147,163,141,61,3,219,51,62,97,41,141,62,148,49,143,189,14,217,135,62,162,190,194,60,120,91,160,62,119,218,74,61,
29,37,158,62,197,137,103,62,102,169,121,189,166,2,78,189,1,117,185,61,180,206,111,61,172,142,152,189,147,182,48,62,
184,183,83,61,190,238,4,190,205,16,235,62,58,136,181,61,180,232,128,61,146,182,64,61,136,103,161,62,217,19,244,189,
64,94,6,190,187,76,142,189,18,109,189,62,199,215,54,62,155,231,160,62,204,234,250,61,46,234,113,62,206,33,37,62,
59,234,61,61,94,55,5,190,241,253,140,61,160,140,254,188,161,227,230,188,236,23,191,61,184,161,192,61,253,27,170,188,
181,150,209,59,18,183,22,62,217,42,146,62,58,8,140,62,36,194,169,61,193,86,72,62,153,215,93,188,74,247,3,62,
235,169,134,62,178,248,138,189,17,149,9,62,95,55,111,188,26,95,17,62,81,57,8,62,27,212,154,62,247,111,35,62,
217,27,43,60,177,156,151,188,29,116,30,189,3,170,255,61,121,174,1,190,190,34,163,189,56,11,84,62,90,188,88,62,
166,150,0,190,131,118,224,61,70,247,28,189,51,240,153,189,115,206,183,61,128,151,96,61,82,242,40,60,52,125,84,60,
218,190,34,62,42,78,70,60,132,165,164,61,206,32,86,190,48,200,48,62,106,6,186,61,172,193,78,189,71,85,110,61,
148,20,59,187,143,82,225,189,27,201,165,61,29,245,214,62,150,90,232,61,228,65,185,61,62,12,38,189,22,161,205,61,
200,244,108,189,95,143,17,190,80,138,96,62,158,215,79,189,53,34,9,62,50,68,185,62,26,250,3,62,48,145,87,62,
146,101,19,189,220,118,177,62,171,180,43,189,5,249,49,62,251,123,12,189,35,73,32,62,210,183,198,62,73,65,51,62,
28,206,214,62,211,82,132,60,45,229,186,61,92,210,11,62,130,206,138,62,224,211,152,188,56,70,191,62,218,212,190,61,
190,77,39,62,109,159,28,188,57,55,83,190,44,78,132,62,61,2,211,189,39,126,22,63,217,182,154,62,140,239,31,62,
200,200,7,62,169,212,49,62,254,254,217,189,231,19,203,188,14,125,30,63,108,185,21,61,9,110,205,61,165,51,30,62,
108,98,189,189,56,149,154,188,80,210,11,61,54,73,190,61,212,147,5,190,204,221,76,61,171,95,26,190,12,72,30,189,
12,199,39,190,147,229,7,62,158,135,102,189,192,103,151,187,192,76,171,189,24,48,193,188,81,241,24,62,173,115,135,189,
166,102,9,190,112,1,254,188,224,250,151,188,156,203,48,189,222,86,185,61,240,131,82,188,147,16,21,62,96,150,187,60,
220,66,18,190,78,215,165,61,40,247,180,60,122,115,197,61,224,7,203,187,58,34,139,189,63,179,29,190,42,18,235,61,
49,175,21,62,246,203,168,61,143,21,2,62,88,156,246,188,173,181,132,189,235,3,209,189,22,69,225,189,73,163,24,62,
146,181,236,61,165,181,171,189,112,136,54,61,155,170,3,62,188,36,30,189,110,107,206,61,96,51,255,59,48,108,35,189,
139,161,35,62,250,45,230,61,208,175,61,61,57,99,9,62,248,198,133,61,252,215,25,189,68,30,68,189,149,218,22,190,
39,53,1,190,16,11,181,188,192,56,46,59,133,5,18,190,147,236,214,189,220,146,79,61,186,93,184,61,22,156,250,189,
152,55,7,190,8,183,243,188,57,150,31,62,154,238,41,190,100,39,241,189,184,171,165,60,130,227,228,61,133,214,44,190,
127,127,22,62,163,163,14,62,60,161,117,189,137,40,5,62,44,150,77,61,0,15,24,187,200,121,73,189,200,3,246,60,
160,195,148,188,173,39,11,62,132,58,37,61,128,62,117,59,232,79,145,188,109,251,163,189,152,174,65,189,94,44,190,61,
144,55,38,61,29,32,10,62,16,19,198,188,233,115,200,189,232,48,20,190,40,28,250,188,176,143,6,190,128,135,190,187,
147,87,52,190,193,213,49,62,183,154,229,189,198,141,161,61,163,18,13,62,4,159,17,61,192,17,21,61,175,218,49,190,
38,150,236,61,41,22,49,62,238,191,203,189,22,45,158,189,7,29,174,189,10,247,39,190,80,220,20,60,214,110,246,61,
216,210,138,188,96,78,30,190,0,100,70,187,234,10,229,61,72,53,146,61,172,160,23,189,87,21,42,62,122,191,41,190,
144,33,186,189,240,9,87,61,200,52,77,189,39,107,172,189,240,143,234,60,224,170,29,188,170,246,128,61,80,37,190,188,
147,223,35,62,224,126,211,187,182,172,19,190,247,22,189,61,55,83,182,61,147,86,41,62,151,251,174,61,93,218,23,62,
54,188,53,190,35,200,67,189,31,61,29,62,13,137,31,190,183,55,238,188,60,245,151,189,227,143,29,188,136,0,34,190,
47,236,40,189,17,141,34,190,128,5,212,60,53,142,156,61,98,22,178,59,183,213,65,189,22,14,20,62,45,171,73,61,
103,33,165,61,16,185,176,189,130,247,20,190,84,37,123,61,161,22,30,61,129,216,27,61,223,124,211,61,155,134,44,62,
80,194,76,61,66,139,146,189,86,50,205,61,41,182,25,190,45,128,17,190,200,42,139,188,199,25,170,61,43,154,216,61,
196,102,46,189,33,69,216,187,250,62,11,190,88,250,78,189,5,65,87,187,211,151,192,61,72,136,177,61,9,30,214,60,
9,132,47,61,14,102,221,61,245,239,154,189,107,76,16,190,241,233,122,189,255,163,241,61,131,59,85,189,240,31,47,61,
105,125,11,61,49,75,31,61,32,22,172,187,46,114,10,190,23,54,211,61,193,254,41,190,127,240,157,189,143,180,236,61,
202,249,252,61,139,77,25,62,248,239,148,61,3,45,197,61,44,70,42,190,252,27,32,190,19,238,255,61,153,120,183,60,
135,154,40,190,39,189,219,61,42,66,240,61,4,254,48,188,91,115,87,189,127,24,21,190,74,105,112,189,53,233,6,62,
79,181,37,62,242,158,226,60,20,22,86,189,25,174,105,61,35,14,154,61,105,204,195,189,54,18,151,189,95,250,19,62,
173,139,28,62,251,168,184,61,20,209,58,189,250,135,224,59,141,38,15,62,45,127,3,62,249,7,52,61,248,6,21,61,
203,122,185,189,158,75,180,59,55,159,45,62,218,7,1,189,240,218,112,61,149,122,178,61,43,75,35,190,74,38,167,60,
116,75,151,61,161,229,35,190,157,163,253,61,224,48,109,61,56,31,101,61,136,68,20,190,64,217,241,189,159,176,110,60,
42,244,207,189,37,53,63,189,253,226,141,189,82,83,238,61,31,114,103,189,21,51,45,62,101,136,8,62,227,66,28,190,
121,7,234,189,53,148,3,61,53,29,215,189,27,225,251,189,59,146,255,60,68,190,97,188,125,70,13,62,200,239,234,189,
80,55,112,60,80,51,83,188,64,173,9,61,253,152,5,62,9,27,24,62,14,241,3,190,35,164,11,190,242,184,25,190,
176,13,28,190,223,195,21,190,145,37,26,62,160,12,172,59,69,137,168,189,0,168,214,58,32,138,253,189,68,68,39,190,
32,194,144,188,192,227,220,189,230,43,132,189,40,160,82,61,25,94,51,190,214,4,228,189,99,64,46,62,64,118,86,188,
160,21,204,187,10,76,179,61,120,168,45,189,152,66,58,61,0,138,123,59,230,180,242,61,62,1,206,61,26,177,109,189,
149,60,220,189,35,9,7,62,174,42,246,189,22,73,123,189,54,212,213,61,0,48,23,57,100,52,36,189,82,103,84,189,
160,239,139,188,242,201,21,190,144,243,119,188,168,33,250,188,42,13,158,61,40,71,27,190,62,7,216,189,24,166,145,61,
234,196,222,189,88,137,5,190,74,117,195,61,144,142,236,188,152,134,130,189,66,50,220,61,246,150,84,189,22,126,222,61,
120,170,205,60,124,98,10,189,64,251,74,187,224,0,5,189,171,153,37,62,134,244,47,190,134,237,201,61,66,129,141,189,
168,197,117,189,32,76,178,59,70,227,234,61,230,191,209,189,56,142,249,188,174,178,244,189,52,1,192,189,7,24,47,190,
31,21,228,189,140,223,88,189,99,21,50,62,181,4,185,189,55,172,42,190,12,181,18,190,54,136,252,61,166,210,185,61,
157,116,230,189,205,0,188,189,24,34,31,189,224,95,83,188,246,203,244,61,4,168,0,189,50,229,162,61,202,123,171,61,
119,218,29,62,50,52,214,189,242,44,198,189,210,151,128,61,7,173,51,62,175,174,29,62,37,155,223,189,216,133,222,188,
88,243,93,61,79,120,208,189,76,102,16,189,252,251,145,61,136,160,141,60,197,81,34,190,120,98,134,189,120,117,139,60,
83,207,16,62,84,24,109,61,176,138,216,60,57,104,25,190,69,181,146,189,65,246,159,189,96,133,29,61,84,220,47,190,
115,119,216,189,252,205,103,61,103,74,25,62,184,230,12,190,251,114,150,189,140,99,60,61,220,246,18,189,116,127,131,61,
90,203,200,61,167,213,249,189,208,144,173,60,53,61,131,189,48,177,227,188,203,119,193,189,160,123,248,59,29,93,51,62,
236,216,112,60,224,231,93,61,53,95,56,62,219,208,160,61,218,248,1,62,239,150,141,189,244,48,90,187,184,169,121,189,
145,130,150,62,7,94,130,60,101,204,10,189,240,136,88,189,28,142,208,61,76,38,138,60,54,4,122,188,91,138,65,61,
108,7,102,61,44,210,126,61,92,22,19,60,91,136,69,190,140,176,56,61,229,141,130,61,243,175,226,189,89,147,96,188,
116,87,225,189,219,247,244,189,21,38,177,62,165,127,7,190,251,204,85,60,187,55,171,60,231,223,127,61,28,62,166,61,
168,20,69,62,2,67,153,61,214,126,227,61,120,19,80,189,113,189,51,61,22,68,32,62,34,148,27,188,211,253,71,62,
216,29,31,62,32,88,91,189,48,167,183,61,144,77,16,62,182,255,134,61,233,64,108,189,13,32,246,189,13,178,15,190,
187,199,212,61,125,188,26,62,62,127,100,61,218,149,9,62,6,32,91,190,140,11,72,61,235,143,204,59,34,205,252,189,
86,59,206,61,178,69,64,189,40,33,24,190,85,86,132,189,109,72,42,189,226,222,0,60,176,115,143,61,201,227,128,189,
254,242,51,61,100,94,9,189,105,1,87,62,152,216,166,189,36,106,181,62,56,61,23,189,97,203,191,189,45,5,109,61,
220,113,236,189,78,134,59,190,172,164,218,188,2,117,127,61,132,187,31,61,203,21,237,189,79,193,74,62,59,242,234,189,
48,67,111,61,194,25,19,62,2,253,26,189,17,157,83,62,202,99,3,62,232,12,215,189,22,248,177,60,25,107,147,61,
39,103,98,190,4,31,26,190,51,181,223,188,243,35,51,61,225,119,20,189,139,81,33,189,48,213,191,59,237,46,33,190,
144,3,38,189,109,129,89,62,55,218,150,189,70,87,190,61,213,123,143,187,204,120,51,190,69,91,221,189,78,154,158,61,
32,21,149,187,71,96,28,62,252,141,253,61,137,132,200,189,143,65,121,62,107,124,5,190,250,142,203,61,121,156,111,61,
229,64,177,61,233,255,202,189,195,104,212,189,165,186,189,61,121,216,143,189,114,72,242,61,125,121,109,61,1,229,0,61,
206,224,110,186,234,145,163,61,24,96,145,61,249,214,65,62,83,211,131,62,1,252,188,61,38,176,180,188,149,123,32,62,
212,167,189,189,228,185,72,60,31,60,227,61,194,231,34,190,127,244,193,189,155,83,53,190,173,56,241,189,144,196,18,61,
145,230,236,189,31,11,30,190,106,5,37,190,235,191,252,189,165,130,118,61,139,171,174,189,222,244,175,61,65,127,14,189,
166,81,223,189,72,50,180,189,221,25,6,60,227,59,11,190,144,34,100,61,142,11,58,189,124,89,161,59,135,224,247,61,
117,124,43,190,182,182,26,61,80,27,20,62,227,207,190,189,179,97,39,190,36,76,13,190,54,50,61,189,89,243,205,61,
32,195,163,61,226,53,194,189,173,68,59,61,252,245,148,61,157,224,26,62,79,17,189,61,255,247,16,62,110,174,65,190,
161,155,213,61,180,153,47,190,205,85,149,188,38,163,225,61,79,90,205,61,39,35,170,188,134,108,31,189,80,92,56,190,
254,147,130,189,74,91,58,61,225,95,3,190,89,141,167,61,157,38,96,61,185,242,8,190,15,1,167,61,227,172,49,189,
113,50,206,188,227,173,224,188,177,7,171,61,113,155,28,61,50,94,18,62,204,251,7,62,111,151,137,60,4,58,114,189,
179,171,21,62,44,125,38,190,171,226,168,61,107,165,13,62,5,173,156,189,125,58,63,61,131,143,57,190,162,209,64,189,
99,29,17,190,33,199,174,188,26,68,51,190,59,14,194,61,82,168,243,189,11,203,52,190,113,213,42,62,119,25,171,187,
197,85,236,60,120,166,151,189,122,193,228,61,159,26,57,190,13,159,240,61,8,223,35,190,133,13,34,62,214,22,2,62,
32,125,99,60,181,91,40,190,204,29,24,189,135,185,77,186,211,26,175,189,6,6,18,189,80,77,216,187,47,98,71,61,
41,192,207,61,195,235,170,59,183,179,136,188,36,180,25,190,132,177,165,60,216,250,236,189,99,195,87,189,198,37,147,189,
44,24,15,190,91,22,70,61,151,218,205,185,176,63,76,61,2,138,128,189,107,63,202,189,81,116,13,62,206,82,59,189,
42,233,247,61,47,129,32,190,233,71,232,188,233,13,173,61,134,208,4,60,159,96,224,61,39,86,128,61,197,162,233,61,
190,112,175,61,155,198,150,61,110,125,142,187,84,105,191,59,207,249,91,59,246,246,130,188,65,83,101,61,58,35,26,62,
209,113,14,190,78,150,248,189,237,31,26,190,205,80,54,190,204,214,150,189,152,143,150,189,106,112,34,190,230,39,187,189,
16,207,232,187,23,77,65,190,133,203,222,61,115,102,62,190,208,181,136,61,113,61,229,61,16,51,61,190,224,11,44,60,
110,129,29,62,132,68,193,189,39,98,131,189,58,193,142,60,60,234,60,190,97,187,190,189,98,243,27,62,137,164,231,189,
125,178,136,61,181,81,61,190,189,179,57,190,7,128,159,61,73,225,66,190,4,182,34,62,119,151,52,60,112,241,134,60,
129,31,29,190,235,27,136,189,195,58,20,62,227,189,16,190,127,77,203,60,103,200,35,188,77,93,205,188,173,47,186,61,
202,8,217,61,46,219,241,61,46,170,220,61,176,108,79,189,75,191,20,62,206,33,24,190,197,225,52,62,174,52,36,61,
210,101,240,189,184,150,30,61,201,106,229,189,168,66,228,189,13,233,52,190,16,69,179,189,125,211,15,62,110,174,14,190,
80,87,35,190,144,144,250,61,6,106,135,61,71,102,77,60,28,190,246,188,230,231,34,190,174,174,255,188,251,208,200,189,
185,26,175,189,247,247,75,60,84,100,72,61,190,32,22,189,146,121,134,188,79,129,6,59,89,234,196,61,48,31,3,62,
206,12,36,190,63,101,246,61,80,186,178,60,61,227,19,62,167,187,205,189,154,228,167,61,233,90,27,190,204,248,26,189,
1,114,205,61,210,115,12,61,149,15,23,62,77,23,190,189,226,164,162,61,67,214,196,189,206,233,182,189,82,236,2,190,
176,111,145,61,85,75,184,189,167,192,42,62,69,164,171,61,170,212,213,60,238,45,136,188,9,80,219,61,30,62,234,61,
161,139,42,190,143,126,235,61,200,95,229,189,122,120,176,189,192,190,39,188,79,111,127,189,248,195,224,61,52,49,240,188,
191,131,226,188,47,9,30,189,140,54,44,189,86,131,11,62,9,242,146,189,197,1,231,61,179,73,232,61,147,113,139,189,
140,139,116,60,124,226,123,61,6,75,15,62,158,218,49,62,62,50,241,188,7,122,130,59,40,72,31,189,99,126,50,190,
217,215,197,61,167,74,168,58,237,150,169,61,197,230,238,189,64,126,236,189,135,77,178,189,8,23,20,190,26,16,215,188,
168,87,45,190,244,44,188,189,49,102,25,62,234,238,134,61,157,66,34,62,99,179,21,190,231,57,52,62,127,75,49,62,
83,169,12,190,172,17,29,61,180,180,52,190,196,205,152,189,126,70,130,189,149,16,26,190,41,44,9,190,102,92,163,61,
112,180,4,60,9,11,5,62,158,121,100,189,218,20,250,61,204,104,2,190,0,198,142,60,2,117,102,189,47,234,28,62,
64,145,80,188,248,157,17,189,233,93,22,62,249,205,37,190,225,156,44,62,62,235,236,189,139,159,168,189,228,63,68,189,
24,144,152,189,33,170,29,62,78,20,112,189,218,126,212,189,231,65,9,62,112,20,148,61,152,208,40,189,242,105,157,61,
231,109,4,62,29,186,30,62,208,102,125,189,139,3,184,189,186,154,179,61,133,201,43,62,198,47,26,190,64,211,30,59,
64,227,133,187,195,243,33,62,220,126,147,189,32,164,25,60,0,55,211,186,192,168,255,187,210,87,146,189,64,145,14,190,
174,130,198,189,96,50,1,188,64,71,98,189,201,96,206,189,162,21,176,61,224,49,234,59,48,113,250,60,208,211,30,190,
221,142,45,62,218,83,2,190,184,135,176,60,134,121,23,190,47,200,247,189,64,68,87,187,88,235,140,60,33,209,44,62,
192,187,230,59,130,117,245,61,144,108,49,61,239,93,2,62,128,156,253,188,21,8,203,189,16,238,162,189,198,192,190,61,
140,200,24,189,88,129,89,189,31,225,215,189,138,41,121,189,216,162,55,189,82,105,243,189,172,12,44,189,216,64,234,188,
112,241,142,189,128,240,105,187,224,255,134,59,108,18,14,190,88,251,163,60,99,116,189,189,36,59,51,190,167,86,47,190,
1,165,27,62,42,227,172,61,139,117,7,62,79,126,36,62,81,101,21,190,136,139,147,188,4,153,50,190,0,195,78,188,
40,218,168,60,14,34,0,190,184,18,18,189,103,240,36,62,104,195,220,188,158,7,52,190,152,9,222,189,254,240,4,190,
123,145,4,62,31,156,142,189,240,180,53,61,10,173,24,190,30,226,165,61,242,219,188,61,22,172,207,189,195,238,36,62,
18,255,154,61,192,21,201,187,136,152,96,189,160,26,37,188,180,184,83,61,144,167,106,60,160,214,181,59,150,135,249,61,
153,43,231,189,168,118,179,189,219,245,225,61,180,78,62,189,189,89,146,189,30,13,194,189,96,144,26,190,10,21,185,61,
76,12,23,61,99,97,7,189,228,199,125,61,147,238,207,60,233,189,188,189,242,236,16,62,17,4,155,61,204,52,232,61,
12,83,39,189,97,194,216,189,13,195,100,190,81,59,185,61,18,195,240,61,105,177,37,62,77,18,24,62,176,45,163,189,
139,49,212,189,253,68,5,190,58,153,222,61,222,90,171,188,94,46,14,62,231,90,217,60,17,148,214,189,239,77,30,190,
215,48,201,189,253,238,209,189,196,29,151,189,200,120,42,189,35,120,126,61,99,247,228,189,104,91,129,61,25,144,35,189,
104,162,202,188,25,43,105,188,35,170,137,60,223,130,193,61,209,190,241,61,1,58,196,61,230,140,62,190,80,219,6,190,
186,94,41,190,49,106,18,190,198,86,66,190,201,25,60,190,238,230,185,60,178,86,31,188,85,74,82,62,192,164,251,61,
192,182,196,188,1,245,32,190,160,50,248,189,183,94,197,59,77,204,134,189,89,5,153,188,117,198,214,61,62,192,86,189,
194,241,161,188,88,69,253,187,38,171,51,190,90,43,15,62,116,121,148,189,62,41,43,61,100,180,62,188,99,209,15,190,
6,115,214,61,168,81,66,61,52,202,72,189,224,23,184,61,74,13,223,189,16,154,165,189,224,59,163,60,9,94,27,190,
112,115,12,190,220,247,236,60,243,130,59,59,167,62,153,60,237,97,25,62,137,160,29,189,207,241,11,190,152,81,145,189,
38,153,216,61,137,139,118,61,110,153,173,61,105,71,223,188,88,246,191,189,114,52,118,189,81,154,62,189,38,176,6,189,
74,55,145,189,189,146,212,188,63,173,241,61,88,56,203,61,231,116,55,190,232,45,79,189,201,6,168,189,116,17,185,61,
202,140,80,190,76,255,27,190,215,111,245,189,123,121,104,59,0,99,219,187,233,17,106,61,94,235,78,190,153,163,12,190,
181,33,150,188,55,123,42,62,127,134,131,189,119,26,7,62,252,23,130,189,116,104,45,61,184,184,21,190,101,51,84,189,
82,64,15,62,66,48,151,61,48,72,209,189,46,64,61,190,155,243,1,62,129,152,239,189,181,221,191,189,27,208,0,62,
95,52,194,189,193,89,0,62,133,153,20,62,105,182,252,60,154,81,15,62,87,14,142,61,129,102,55,62,37,146,79,189,
178,202,156,62,250,146,8,62,1,105,27,190,152,248,64,61,218,207,215,61,193,212,13,189,10,231,93,60,174,113,40,62,
253,150,109,188,6,65,32,59,1,93,207,61,166,119,37,62,66,228,42,62,129,23,55,61,95,130,12,62,65,180,27,62,
140,109,180,189,180,212,208,189,223,45,76,62,220,161,73,62,171,90,145,62,213,122,101,190,133,25,243,61,61,101,31,189,
140,142,97,61,44,221,152,189,41,36,78,190,225,200,20,190,174,252,194,189,106,203,148,189,113,19,7,190,80,77,188,189,
145,29,9,62,34,244,95,189,50,0,191,62,146,84,137,62,49,254,72,62,47,130,3,190,143,201,175,61,222,53,15,62,
10,249,30,190,27,209,251,61,70,122,216,59,90,207,8,189,171,201,125,60,206,87,44,62,195,244,48,189,159,78,189,186,
236,142,174,189,53,101,3,61,112,95,201,60,73,116,137,188,109,237,24,188,69,231,143,60,8,134,124,187,95,185,177,61,
65,177,251,61,41,7,8,61,39,25,59,189,28,83,187,189,192,130,101,62,2,255,136,189,41,35,89,189,135,17,76,62,
23,38,150,61,242,47,8,190,191,23,57,189,12,84,232,189,251,201,137,187,206,13,151,60,223,179,7,62,23,53,12,59,
173,249,25,61,12,83,232,61,184,250,122,61,203,178,6,62,168,78,101,187,22,125,205,189,10,150,212,61,236,225,85,188,
235,207,243,188,193,248,79,61,113,90,196,61,102,214,137,61,113,2,3,190,215,158,145,62,70,237,64,190,173,212,54,189,
94,106,71,62,8,210,10,62,119,239,235,188,194,137,62,60,242,82,125,189,56,120,200,61,54,227,33,189,53,22,20,62,
225,84,120,61,94,99,55,189,181,6,225,61,157,166,5,189,27,212,147,189,129,199,163,59,30,94,171,62,62,209,195,189,
185,48,78,190,186,21,19,187,148,51,15,62,107,240,0,61,208,161,22,61,26,133,81,62,216,149,162,61,51,216,205,61,
93,245,167,61,84,182,74,190,24,7,54,189,18,210,149,61,133,0,156,62,113,185,31,62,91,171,87,189,181,163,232,189,
205,214,144,189,106,226,106,61,243,213,144,62,27,44,192,61,179,117,209,60,51,88,145,61,125,230,19,62,147,100,20,190,
177,23,154,62,183,3,75,61,68,176,143,189,190,206,22,62,54,208,35,62,105,18,31,189,171,154,74,189,240,1,5,62,
205,90,199,189,244,79,161,188,127,25,221,60,136,218,149,61,115,37,152,185,64,155,121,190,141,249,160,61,160,232,6,61,
101,203,209,189,184,149,207,61,174,33,100,61,62,7,157,60,74,95,150,62,3,240,73,190,127,32,119,62,198,131,250,188,
215,239,149,61,184,67,48,190,219,124,85,190,97,133,20,188,126,96,216,189,217,9,18,190,241,43,57,190,187,246,0,62,
93,114,1,190,130,212,122,188,186,239,109,60,158,116,200,61,131,119,60,62,248,103,139,61,213,225,55,189,74,203,29,62,
14,52,34,189,15,29,37,189,215,0,196,61,199,183,237,61,141,225,16,62,24,140,98,60,174,226,116,62,182,206,12,62,
18,48,222,187,24,67,0,190,17,20,76,189,174,195,219,188,175,120,118,190,71,179,55,61,120,116,236,189,129,103,99,62,
170,211,201,60,220,171,138,189,21,3,43,62,235,183,4,190,223,221,158,62,102,7,218,61,195,93,2,188,45,127,149,188,
244,221,138,189,125,221,180,189,44,231,139,189,93,142,25,62,202,161,173,189,114,246,40,190,186,66,39,190,22,66,233,60,
75,202,193,60,115,227,157,61,80,199,105,188,50,1,122,62,90,24,251,189,195,61,63,62,183,145,196,61,235,109,63,62,
251,159,135,62,70,228,78,190,45,136,174,189,224,74,30,61,148,239,59,62,255,12,30,61,53,74,157,189,167,147,31,62,
94,101,4,190,57,133,114,62,169,106,48,62,78,125,191,60,209,174,234,189,199,93,17,62,72,6,33,62,61,100,149,61,
150,20,143,62,49,160,2,190,83,220,24,188,154,4,67,190,140,242,199,188,167,101,6,59,155,188,155,62,29,212,139,62,
252,147,159,188,238,204,95,61,177,249,214,189,187,183,90,62,136,196,67,61,164,77,187,62,71,76,166,60,52,97,73,189,
15,61,79,61,107,244,163,189,65,152,128,61,4,82,160,189,36,66,166,62,160,187,192,61,16,220,252,189,70,113,172,59,
204,202,212,189,140,153,117,189,78,99,147,189,138,195,185,61,47,175,18,62,252,126,33,61,176,85,132,61,133,71,35,62,
1,201,1,190,104,46,252,60,56,169,234,188,64,124,191,60,201,239,9,62,184,243,5,189,164,157,35,189,160,251,207,60,
190,36,194,61,116,121,17,189,200,66,173,60,128,190,158,59,224,88,4,190,246,192,137,189,224,187,106,188,148,92,126,61,
74,135,229,189,138,38,243,61,111,101,167,189,41,3,160,189,208,175,25,189,192,243,113,188,156,180,179,189,90,70,12,190,
232,6,229,188,254,184,24,190,159,110,23,62,233,23,13,190,168,235,67,189,147,24,46,62,146,105,237,61,72,154,15,190,
32,151,214,188,82,208,162,61,23,9,35,62,145,232,35,62,128,246,195,188,238,31,195,61,128,60,34,187,122,224,157,61,
165,201,234,189,76,26,6,61,32,183,143,60,7,112,220,189,128,78,230,187,225,54,51,62,187,63,231,189,160,153,175,187,
20,171,74,61,61,221,40,190,224,52,46,188,203,6,200,189,92,106,251,189,67,116,7,190,120,226,117,61,224,133,211,187,
13,56,170,189,101,189,202,189,216,154,20,190,192,30,67,60,2,157,16,190,160,29,25,190,172,146,48,190,89,168,2,190,
178,81,15,190,136,21,182,188,224,137,111,60,75,56,36,190,202,170,247,61,161,111,50,190,3,240,41,62,80,86,32,190,
32,111,63,60,203,4,13,62,122,37,252,61,192,198,141,189,2,157,168,61,113,203,8,190,46,36,115,189,168,192,208,60,
190,15,191,61,186,235,39,190,10,116,205,189,232,162,232,60,229,93,44,190,76,173,69,189,255,82,9,62,36,130,38,190,
28,81,19,190,166,188,6,190,255,159,6,62,0,224,206,60,128,90,247,59,214,217,176,189,148,208,70,61,138,120,223,189,
255,240,18,62,187,155,19,62,148,161,35,61,162,128,201,189,80,108,173,188,180,47,15,61,116,20,254,189,139,237,51,190,
62,243,253,189,240,161,53,60,197,145,220,189,0,97,4,190,244,19,4,189,223,97,40,62,102,218,188,61,10,2,229,61,
104,112,143,188,202,184,149,189,0,171,56,187,250,12,210,61,244,140,15,189,76,25,70,189,184,235,47,61,236,155,167,189,
60,145,230,60,0,139,59,190,187,184,148,61,86,98,155,189,77,25,117,62,1,47,164,189,87,238,124,61,252,223,126,61,
91,197,94,62,152,51,91,190,192,202,94,190,138,108,56,190,74,167,36,62,178,241,54,189,96,142,202,189,58,147,139,61,
239,39,88,190,155,198,173,61,192,110,3,62,64,184,145,61,76,181,46,190,53,100,7,190,155,184,240,60,126,142,69,60,
42,170,204,189,174,149,52,190,111,60,14,62,121,153,175,188,201,215,138,62,226,117,130,190,163,127,147,61,8,193,88,61,
47,221,89,61,161,51,5,62,120,145,61,188,240,34,4,189,189,49,77,189,55,147,83,189,236,15,69,61,150,216,51,190,
174,241,58,186,249,85,232,61,184,9,235,61,47,70,149,190,235,231,109,190,81,236,54,190,42,96,192,61,243,242,100,190,
198,49,221,61,62,172,63,62,219,145,2,190,209,137,32,188,89,86,255,60,152,214,94,61,123,35,128,190,129,227,143,61,
230,191,195,188,28,170,50,189,119,43,221,189,5,163,122,189,201,87,5,190,248,35,0,190,78,29,189,60,41,181,34,189,
12,83,46,62,45,35,216,189,53,56,65,60,161,113,232,189,221,155,145,62,206,41,230,187,32,44,1,62,123,236,93,186,
111,24,79,190,60,96,207,188,217,221,4,60,93,61,158,189,102,121,170,61,33,99,12,61,31,193,216,188,141,235,56,60,
213,136,9,189,230,195,141,188,172,199,13,190,141,204,209,61,10,122,63,189,40,229,164,61,238,223,220,61,12,17,140,188,
245,27,21,190,3,77,170,57,255,252,22,189,233,155,124,61,231,170,150,61,21,65,215,189,31,207,234,188,17,24,199,187,
204,155,176,188,0,172,71,62,70,95,6,62,49,229,7,190,128,64,43,187,250,204,97,188,124,224,91,188,144,41,168,60,
104,147,5,62,213,231,135,189,240,112,42,190,237,44,197,61,142,244,221,60,79,197,234,61,197,7,142,62,214,86,35,190,
225,83,144,189,212,201,130,189,5,118,102,61,127,15,38,61,175,104,4,189,178,131,20,189,66,228,65,61,190,47,76,62,
89,2,93,187,94,102,217,189,61,202,195,188,29,222,227,61,201,91,0,61,34,156,74,190,52,161,11,62,197,192,15,190,
97,239,60,189,121,213,77,190,126,129,136,61,90,14,200,61,188,66,56,187,13,206,32,188,177,102,17,62,184,214,174,188,
147,61,212,61,235,0,59,60,130,235,230,189,12,226,183,61,121,130,2,61,97,231,183,189,80,174,184,61,14,1,151,61,
92,127,130,188,132,58,6,61,118,234,20,60,41,162,71,190,125,157,97,190,90,225,169,61,137,120,90,60,10,25,177,61,
36,222,105,61,219,73,7,189,244,62,164,188,117,114,214,61,119,61,134,60,116,56,189,189,49,212,80,190,124,2,225,61,
65,140,29,190,2,104,7,62,73,159,28,190,230,69,247,189,36,173,38,61,76,18,26,190,25,93,55,190,169,211,100,61,
40,50,202,188,189,61,35,62,152,177,111,60,165,151,252,61,88,80,144,189,27,86,134,189,103,211,241,189,88,146,16,61,
9,229,158,61,253,176,22,62,127,95,180,189,117,56,55,190,187,195,24,189,201,60,29,190,103,91,10,62,75,102,250,59,
7,212,204,189,111,15,179,61,206,98,175,61,215,107,16,61,23,138,148,188,129,98,89,190,66,113,14,189,146,98,129,61,
42,191,194,61,83,107,72,59,176,100,68,190,136,112,74,60,234,250,13,190,64,25,229,61,226,152,10,190,220,97,169,61,
165,56,28,189,189,202,251,189,201,246,0,62,163,62,241,189,225,191,32,190,158,174,50,190,0,232,45,185,43,67,236,189,
79,98,244,189,69,126,20,190,159,80,245,189,194,88,25,189,252,186,183,189,235,37,249,189,187,146,142,189,214,202,92,189,
22,164,162,61,97,50,37,190,172,18,167,59,31,251,32,62,170,192,46,190,64,154,255,189,142,104,190,188,148,223,25,190,
48,140,153,189,171,103,238,61,220,158,104,61,37,245,189,189,132,231,1,190,214,214,129,188,116,237,205,61,147,211,22,190,
112,129,157,61,105,243,201,61,59,125,72,189,43,51,100,190,72,45,59,189,105,194,81,61,245,85,164,189,130,235,42,62,
43,11,202,189,228,55,181,189,234,214,4,190,227,160,254,61,86,24,238,189,197,123,55,189,42,164,168,60,15,27,77,190,
245,192,28,61,36,245,42,190,94,122,249,189,206,49,62,190,194,112,79,190,97,255,150,61,77,97,109,189,128,94,105,61,
248,126,250,60,188,91,126,61,121,253,7,190,234,165,212,61,0,136,252,184,248,202,26,189,86,123,216,61,192,180,115,59,
80,219,171,60,145,33,248,189,47,155,22,190,172,143,131,189,91,53,48,190,23,45,40,190,109,65,52,62,124,205,14,190,
234,32,241,61,204,161,103,189,144,130,101,61,32,89,33,188,38,183,142,61,90,183,254,61,128,196,120,188,59,240,17,190,
40,167,43,189,96,17,103,188,223,160,151,189,26,227,13,190,74,24,102,189,208,184,157,189,122,189,27,190,224,96,179,59,
203,126,202,189,92,47,41,190,28,129,96,189,192,171,248,187,12,245,136,61,2,11,143,61,84,23,249,189,37,151,202,189,
66,155,50,190,76,199,248,189,54,34,6,190,90,40,23,190,64,88,103,188,34,117,211,61,131,29,19,190,44,213,94,189,
45,84,5,62,151,151,52,190,228,204,25,61,36,177,119,61,0,76,92,188,108,174,251,189,12,14,76,189,72,82,184,188,
162,247,253,61,136,51,74,61,34,168,144,61,204,58,125,189,180,207,8,190,76,196,71,189,240,3,96,60,230,141,234,61,
104,145,30,61,163,191,49,62,0,0,59,60,67,212,20,190,74,30,161,61,162,49,165,61,8,156,23,190,60,250,72,61,
218,113,175,189,92,79,39,189,172,114,7,190,209,234,42,190,69,146,192,189,66,159,172,61,183,131,19,62,47,111,4,190,
62,95,46,190,229,141,26,62,224,248,219,59,120,39,64,61,60,98,84,189,140,160,225,189,10,147,159,61,120,229,17,190,
198,150,102,189,251,107,42,190,52,230,3,189,33,146,17,62,94,218,194,61,192,159,15,190,210,79,138,61,151,127,248,189,
95,0,224,189,157,80,12,62,231,149,161,189,168,15,152,188,215,253,175,189,35,115,40,190,152,97,151,60,48,12,220,188,
174,250,203,61,49,148,39,190,22,66,183,61,116,14,40,61,123,43,42,62,190,131,244,189,96,206,249,59,38,43,162,61,
219,246,45,190,13,77,160,189,159,138,9,62,4,231,96,61,0,185,245,60,254,50,118,189,33,88,48,62,234,171,211,61,
102,52,246,61,74,240,124,189,110,245,222,61,152,166,120,61,232,97,182,189,62,51,248,61,246,168,214,61,247,52,173,189,
150,22,179,61,198,81,33,190,40,62,40,190,208,24,11,190,221,125,14,190,190,117,15,190,56,247,186,189,158,128,174,61,
217,25,128,61,141,221,88,188,110,130,246,61,26,188,225,61,15,5,48,190,12,209,80,61,152,93,108,61,241,153,253,61,
17,161,42,62,194,89,254,61,72,131,60,61,243,220,40,62,43,191,16,190,214,85,38,190,72,251,21,61,234,28,2,190,
79,165,49,190,61,105,187,189,215,213,59,190,199,48,212,189,123,74,73,190,105,220,191,189,46,58,69,189,176,93,233,60,
85,226,42,190,17,40,163,189,158,98,178,61,48,104,82,60,185,230,3,190,252,40,249,189,206,191,234,61,56,206,82,61,
189,2,45,190,235,248,35,190,197,213,158,189,94,138,164,61,199,20,33,190,227,31,35,190,195,56,169,189,48,195,110,61,
0,209,32,61,152,27,219,60,180,190,103,189,76,69,16,189,208,30,31,60,229,115,43,190,159,108,157,60,250,143,144,61,
150,214,120,189,164,28,19,189,70,90,18,190,54,245,135,189,134,158,177,61,48,40,19,188,224,18,51,189,232,4,238,60,
111,195,39,62,0,229,158,58,48,117,46,60,192,26,70,60,33,31,245,61,156,219,47,190,209,16,29,62,62,248,244,61,
112,36,135,61,171,217,34,190,107,135,37,190,145,106,128,189,212,177,5,61,105,120,16,62,28,81,128,61,95,73,43,62,
83,116,31,62,148,137,82,61,22,32,168,189,23,219,71,190,128,112,77,59,144,119,78,61,18,127,162,61,96,94,194,189,
128,43,13,187,23,123,26,62,143,93,15,62,151,168,51,190,87,4,9,190,78,223,179,189,86,179,242,61,158,24,20,190,
63,41,20,61,109,103,45,189,52,230,245,189,172,205,8,189,50,106,144,189,32,19,96,188,142,238,99,189,53,12,76,190,
97,137,8,62,192,110,131,61,72,83,36,61,209,12,26,62,239,48,30,62,14,85,180,61,109,34,207,189,178,98,7,190,
152,101,27,190,88,198,111,61,112,183,119,60,30,172,201,189,17,27,49,190,19,42,5,190,97,21,17,62,117,107,51,190,
128,231,35,61,46,250,223,61,194,247,90,189,8,212,89,61,3,203,19,189,188,87,174,189,220,101,140,61,68,136,8,190,
110,195,23,190,118,5,253,61,233,239,218,189,196,54,17,61,28,1,159,189,36,189,133,61,182,65,224,189,94,59,191,189,
82,68,9,190,156,75,6,190,26,153,216,189,176,8,48,190,0,31,66,58,168,86,177,188,240,90,24,60,199,28,1,62,
62,243,3,190,64,135,33,188,183,130,34,62,72,131,31,189,16,206,37,190,57,166,30,190,147,134,13,62,24,231,116,189,
58,241,217,61,136,241,36,190,0,197,196,58,231,147,7,62,54,49,164,189,118,147,255,189,105,68,14,62,168,172,79,189,
114,121,223,61,237,78,37,190,127,146,2,62,174,6,164,61,48,29,177,189,88,205,101,61,86,84,198,61,232,224,137,60,
91,11,22,190,116,180,17,189,128,154,43,187,91,219,253,189,237,37,20,190,88,94,71,189,186,190,175,61,64,19,178,60,
224,154,65,189,144,67,246,189,134,187,246,61,112,161,209,188,58,242,231,61,204,184,143,189,216,186,0,190,136,64,20,190,
91,35,156,189,227,3,34,62,67,163,221,189,160,141,219,188,159,80,34,190,166,8,213,61,174,42,157,61,220,74,63,61,
242,19,195,189,55,144,11,62,194,33,174,61,220,26,16,61,86,28,230,189,0,2,212,187,54,242,31,190,104,185,166,189,
89,146,7,190,90,69,133,61,26,89,206,61,119,35,9,62,200,143,10,190,45,64,22,62,104,215,1,61,200,107,53,61,
176,192,162,60,110,103,162,61,224,86,172,187,105,208,26,62,240,181,128,188,32,91,3,190,228,20,26,189,104,251,146,61,
36,44,13,189,80,236,51,61,157,151,176,189,168,153,134,60,196,188,101,189,86,164,252,61,208,21,73,189,34,203,48,190,
188,15,36,190,152,91,223,189,131,231,50,62,96,54,29,60,146,104,133,189,102,68,150,189,239,7,2,62,118,46,132,189,
176,22,140,60,116,33,79,61,243,55,17,62,179,132,30,62,0,97,30,60,111,183,35,62,96,30,193,59,131,132,39,190,
80,136,72,61,32,187,179,59,48,162,100,189,184,86,152,60,148,176,96,61,143,176,29,62,128,95,46,60,17,1,39,190,
114,86,205,61,192,157,247,188,143,157,209,189,159,225,192,189,0,238,75,61,89,220,48,62,240,205,54,188,129,210,247,189,
174,180,163,61,136,170,243,189,144,111,155,62,24,244,250,61,100,81,146,62,185,112,113,188,177,82,55,190,254,194,17,62,
36,222,142,62,219,42,249,188,130,210,212,189,74,153,132,188,81,231,153,61,228,59,2,190,219,212,111,61,56,77,166,189,
250,77,169,61,217,237,169,189,9,231,226,61,81,146,85,190,224,225,102,61,212,200,25,189,138,181,64,188,68,46,20,190,
48,187,203,189,213,106,50,190,248,106,13,62,35,149,238,61,123,146,227,61,208,207,191,61,44,199,43,60,1,187,75,190,
52,81,213,189,212,90,133,189,188,97,243,189,28,50,180,60,146,173,25,62,82,182,135,61,21,11,74,62,198,91,44,190,
148,55,225,189,122,61,46,62,39,74,77,60,180,182,142,60,226,53,162,189,141,216,165,189,224,195,117,188,118,168,241,61,
166,52,109,189,190,47,49,62,10,112,177,61,168,56,194,187,14,126,31,188,67,88,55,62,36,252,75,189,118,2,192,60,
242,152,0,62,230,24,212,61,230,253,33,190,32,31,160,188,196,155,152,61,119,99,31,190,255,121,169,188,238,224,137,61,
40,37,110,189,160,201,164,187,202,149,3,61,124,44,26,62,217,43,122,62,82,239,142,61,234,109,232,61,197,236,98,187,
155,108,31,190,128,59,42,188,234,194,57,60,106,62,186,61,198,20,12,62,169,185,77,62,5,44,238,189,57,137,207,186,
167,202,141,187,156,105,207,189,90,49,116,189,44,105,119,62,229,11,91,186,5,161,193,188,240,130,125,188,4,253,68,189,
228,230,28,190,80,81,82,61,23,118,201,61,194,43,66,190,176,95,135,188,62,42,242,189,20,124,139,189,239,174,7,62,
167,6,65,61,253,44,142,62,174,18,197,61,224,33,99,61,128,58,22,62,19,86,224,189,229,124,30,62,78,56,165,60,
204,241,60,61,250,158,191,189,9,201,48,62,216,6,60,189,137,147,173,61,239,8,63,190,149,185,191,61,220,188,153,189,
233,11,165,189,113,210,142,189,198,145,14,189,192,192,216,61,10,142,1,190,132,92,26,62,68,17,106,188,36,212,54,62,
112,39,14,188,198,21,120,61,30,203,95,189,157,127,187,189,50,180,143,61,26,58,196,60,181,61,166,61,169,210,193,61,
22,78,238,61,0,62,186,60,56,156,153,189,80,208,149,60,146,53,252,61,184,238,246,60,31,26,17,62,87,51,234,189,
115,203,4,190,128,129,13,190,201,59,34,190,160,144,141,188,137,118,39,190,184,134,25,190,227,193,45,62,128,233,149,58,
239,238,181,189,228,252,17,61,82,83,219,61,178,139,131,61,206,217,136,189,208,93,42,60,92,215,210,189,30,112,190,189,
249,116,225,189,238,51,244,61,255,125,32,190,176,46,38,189,48,3,30,61,144,47,14,61,144,93,20,60,96,107,29,190,
192,240,87,188,210,26,250,61,48,97,107,188,77,220,6,62,224,31,50,60,252,251,89,189,192,211,53,188,232,16,197,189,
79,96,183,189,216,181,167,188,78,129,232,61,22,243,228,189,0,251,106,187,160,25,136,61,237,97,254,189,202,102,154,61,
201,196,154,189,25,151,148,189,230,249,243,189,235,240,14,62,218,208,253,61,14,144,198,61,165,194,25,190,224,243,221,189,
240,22,60,60,16,183,146,61,141,157,215,189,194,197,187,61,8,0,213,189,105,89,18,62,56,246,191,189,106,61,201,189,
134,90,238,61,24,174,241,189,217,61,32,62,103,119,17,62,132,169,68,61,123,30,3,190,168,197,54,61,26,24,216,189,
168,14,220,60,224,119,46,188,146,207,133,61,238,203,144,189,201,55,187,189,192,85,117,189,140,184,233,189,72,156,145,188,
167,181,44,190,47,183,131,189,218,195,225,61,194,132,174,61,224,116,198,59,0,249,7,186,96,96,190,60,0,217,17,61,
144,16,22,60,176,178,8,188,39,240,4,62,66,72,224,61,184,36,66,189,0,56,218,188,120,141,239,189,76,70,84,61,
207,76,194,189,168,129,139,188,187,43,160,189,24,66,204,60,136,202,131,60,64,58,220,60,152,157,230,188,223,71,183,189,
192,238,60,59,84,8,70,189,81,189,38,62,127,152,46,62,74,143,225,61,244,204,10,189,89,108,33,190,120,134,102,61,
64,143,44,60,181,190,40,62,23,57,12,62,37,49,51,62,67,104,24,62,224,173,255,188,102,189,247,189,62,213,155,61,
19,73,3,62,196,251,10,190,96,25,1,61,170,133,11,190,229,248,4,190,112,147,33,60,52,176,61,189,21,79,45,190,
60,5,78,189,0,19,107,59,102,78,250,61,192,138,202,59,136,240,248,188,159,157,151,189,15,113,183,189,58,1,132,61,
43,220,44,190,30,157,191,61,90,211,237,189,21,170,19,190,235,39,34,62,134,77,189,61,70,253,194,189,232,231,201,188,
27,73,18,62,32,61,157,187,196,170,100,189,10,35,203,189,110,233,173,61,100,183,133,189,0,46,136,61,130,129,169,61,
137,32,10,62,249,32,197,189,96,17,27,61,24,241,28,189,192,53,232,59,19,25,39,190,67,3,40,190,188,168,139,61,
217,103,40,62,202,212,236,61,236,145,81,189,206,72,211,189,31,196,19,62,145,118,182,189,38,222,171,189,80,234,139,60,
146,237,243,61,223,26,49,62,100,16,76,61,136,81,215,60,104,142,54,61,237,153,5,190,221,24,4,190,14,72,214,61,
209,56,16,190,134,62,204,61,21,67,203,189,118,212,32,190,170,127,158,189,26,5,185,61,161,28,145,189,150,56,237,189,
83,107,5,190,217,214,34,62,181,249,158,189,76,124,28,61,174,85,141,189,5,203,23,62,80,163,20,61,100,122,88,61,
76,236,113,61,176,118,214,188,243,209,201,189,210,4,181,61,216,91,43,190,86,146,172,61,8,97,159,189,158,174,142,61,
183,11,42,62,181,243,198,189,105,172,22,190,242,96,170,61,0,156,3,189,142,30,18,190,32,79,41,189,130,6,204,61,
195,185,23,190,208,180,146,60,23,159,31,62,176,247,148,60,70,253,253,189,230,186,189,61,93,233,49,62,24,237,160,188,
190,77,251,61,220,47,121,189,146,210,225,61,164,32,49,61,228,91,141,189,11,74,26,62,174,15,225,189,230,130,252,61,
222,104,199,61,144,125,253,188,253,157,12,62,8,109,184,189,92,61,67,61,164,67,210,189,176,171,83,188,232,34,50,190,
231,21,172,189,148,97,100,189,123,39,14,190,242,208,186,189,28,73,35,61,45,126,34,62,144,2,139,61,88,214,19,61,
173,154,194,189,144,199,10,61,166,150,192,61,224,109,109,61,252,76,1,190,32,5,112,60,126,216,255,61,197,241,12,62,
113,85,8,62,66,227,137,189,232,149,3,61,100,210,222,189,184,174,172,60,192,172,74,187,194,111,2,190,111,182,15,190,
226,18,203,61,247,1,156,61,182,207,245,62,247,114,255,189,204,165,166,61,157,58,159,189,15,181,43,62,230,149,138,189,
215,207,18,62,178,9,15,62,64,182,199,61,190,51,33,62,201,24,76,62,162,54,213,61,200,27,132,59,255,107,18,61,
118,196,180,187,123,129,4,190,131,98,147,62,78,6,2,189,58,244,31,189,15,35,198,60,165,108,17,62,35,121,31,190,
2,166,220,61,126,11,187,61,26,63,252,62,6,57,67,61,5,75,153,62,129,125,171,189,17,25,131,62,247,169,124,61,
159,156,181,189,6,216,134,61,60,24,99,189,208,64,221,61,61,55,150,61,194,149,29,190,251,184,202,189,172,234,157,188,
176,223,161,61,77,131,237,61,132,90,189,62,191,136,122,62,22,94,61,190,230,52,206,61,181,247,102,61,48,27,67,62,
98,1,90,189,197,101,179,189,75,236,11,59,225,17,20,190,37,114,182,61,187,226,24,190,5,26,141,61,162,58,26,62,
56,101,112,189,69,100,167,61,32,246,201,61,15,23,225,187,161,227,31,189,113,216,145,61,43,69,137,61,32,169,49,189,
110,72,1,190,149,54,207,61,127,142,167,189,129,179,35,190,255,74,178,62,31,112,144,61,113,180,223,188,26,49,164,60,
69,148,143,62,48,130,69,61,106,146,3,190,36,18,170,61,139,179,51,190,147,152,166,61,80,191,195,189,90,197,230,189,
178,111,201,189,236,27,255,61,96,67,51,190,226,218,59,62,251,59,212,188,212,47,165,189,95,78,104,61,109,152,141,61,
10,152,114,62,125,97,236,187,61,97,216,189,150,185,53,62,224,162,46,62,117,16,157,62,78,16,134,61,165,150,130,62,
46,237,67,60,107,61,32,62,85,67,9,62,210,215,7,190,239,231,33,189,89,123,72,189,71,37,4,188,226,26,214,189,
230,175,189,62,168,105,80,62,73,193,44,190,21,250,140,61,71,82,216,189,19,96,158,189,76,165,134,62,104,144,87,62,
121,196,133,61,129,254,183,60,83,81,225,188,248,0,88,62,109,95,215,60,6,156,142,62,94,158,249,61,168,137,58,190,
159,69,205,189,24,198,223,188,186,207,64,190,126,245,50,62,168,237,150,62,147,253,134,61,203,184,8,189,194,49,245,189,
231,122,245,189,209,41,39,61,180,135,214,61,250,243,36,190,159,62,127,62,54,109,55,189,86,90,27,60,35,180,182,61,
212,27,35,62,107,181,128,190,217,34,186,189,87,76,229,60,10,20,26,62,178,12,198,61,206,251,143,61,172,191,12,62,
69,116,13,190,76,200,17,62,20,17,195,189,84,109,186,61,68,219,234,61,191,69,159,188,211,119,112,190,85,232,206,61,
248,177,37,190,173,193,54,190,72,59,244,62,86,196,74,62,11,9,2,61,57,223,80,189,122,20,30,62,94,80,147,186,
198,23,20,62,144,125,177,61,141,235,106,189,201,94,113,61,110,244,42,190,116,38,34,190,3,97,244,186,228,254,254,60,
216,180,134,61,196,163,38,190,165,181,150,62,145,95,59,190,80,44,6,190,247,86,108,60,132,56,245,189,23,253,177,189,
115,175,14,190,152,183,92,62,83,5,52,61,138,250,124,61,22,93,107,190,127,148,73,189,237,74,224,188,239,83,28,190,
196,225,187,189,130,52,62,189,201,45,217,61,105,93,57,189,84,56,246,61,136,48,200,61,28,7,140,190,101,60,12,62,
156,146,218,189,42,83,59,189,135,38,45,190,150,107,173,189,168,2,148,62,204,223,78,190,70,234,182,189,51,40,134,188,
72,249,69,190,82,4,68,189,214,55,179,188,132,196,43,190,218,254,245,61,35,73,135,61,64,12,224,61,44,208,23,190,
64,132,130,61,68,105,116,189,131,168,125,189,33,190,95,61,133,227,205,61,67,147,14,62,7,112,191,61,87,117,42,190,
170,52,88,190,86,100,74,62,236,118,234,61,51,8,30,62,236,50,137,190,243,20,169,188,175,118,23,190,236,200,129,61,
21,104,15,188,214,159,63,62,94,103,139,188,246,139,189,60,192,62,224,189,199,59,57,190,24,123,130,189,199,1,79,189,
3,173,143,189,163,148,54,60,203,240,144,188,226,252,96,189,171,201,80,59,25,101,210,61,120,36,253,188,202,113,115,190,
52,44,128,190,47,125,63,62,4,35,102,61,136,31,219,188,146,216,220,61,183,50,113,62,132,131,81,190,255,33,132,188,
206,243,168,189,59,206,195,60,99,103,175,189,91,161,36,62,92,216,70,61,241,41,47,61,251,25,124,189,231,97,10,62,
65,65,80,190,255,161,82,190,68,0,1,60,128,143,0,59,208,55,250,189,148,111,97,189,193,249,179,189,192,53,38,189,
221,58,79,61,26,21,163,189,145,47,68,190,76,158,6,190,55,212,91,190,130,254,213,61,101,31,181,61,64,154,33,61,
78,246,157,61,84,187,10,189,166,108,0,190,52,238,35,190,219,202,62,190,186,151,129,189,30,81,81,60,74,147,224,61,
245,253,76,189,138,238,193,61,120,10,142,187,214,113,22,60,99,40,134,189,231,47,207,188,118,79,157,61,160,102,129,188,
186,15,192,189,78,194,164,61,102,172,166,61,76,114,22,61,113,23,3,190,66,34,22,190,5,90,196,189,14,60,172,189,
170,222,212,189,122,255,90,61,182,128,223,189,16,187,95,190,210,158,238,61,215,87,136,189,234,203,134,61,119,137,103,60,
9,23,179,189,231,44,21,62,231,104,171,61,94,146,241,189,58,229,116,188,160,254,240,188,214,167,139,60,41,19,185,189,
107,188,123,59,32,8,54,189,0,174,76,188,232,178,164,188,40,91,102,61,0,226,173,189,62,12,146,61,87,140,10,62,
147,219,20,62,59,128,114,59,151,67,8,62,88,157,12,189,231,48,25,61,8,94,157,189,235,22,228,187,251,38,50,62,
159,77,145,60,190,189,3,189,202,84,196,61,243,192,5,62,46,94,160,61,112,245,15,189,136,142,28,61,145,179,163,189,
208,202,40,190,240,212,203,188,41,214,209,61,114,46,247,61,64,41,169,60,64,10,133,60,128,185,151,58,195,81,21,190,
140,222,41,190,171,232,94,59,52,251,162,189,192,140,142,59,73,224,26,60,214,25,16,190,242,194,209,61,190,16,25,190,
16,85,129,190,153,161,249,188,240,30,99,188,222,56,230,61,6,200,111,189,228,179,104,189,218,63,53,60,152,65,253,189,
98,83,169,189,8,105,214,189,62,140,232,61,0,191,6,186,128,205,143,186,189,159,216,61,82,97,54,190,4,228,25,189,
50,22,15,190,157,81,171,61,65,210,164,189,142,219,109,61,224,110,0,189,215,43,77,190,158,157,209,189,128,158,3,190,
50,202,185,61,1,133,51,189,232,118,241,61,91,207,75,190,51,96,73,190,31,30,116,190,215,27,187,60,225,26,158,189,
115,171,22,61,69,185,246,61,183,221,240,189,55,20,100,189,131,97,190,61,36,208,14,190,76,121,142,60,56,97,252,60,
110,75,84,190,7,109,217,188,80,215,156,189,31,128,44,190,127,36,63,61,196,96,252,189,253,60,183,189,224,116,135,189,
38,40,250,189,176,40,173,189,207,141,253,189,137,137,35,190,117,114,81,189,231,194,232,188,196,248,58,61,184,247,131,60,
214,195,8,190,187,198,18,188,74,42,34,62,33,67,82,60,60,125,14,62,18,52,147,60,93,203,10,60,252,138,74,189,
144,181,20,61,224,204,32,190,64,36,66,188,221,164,219,189,21,6,9,190,188,61,157,189,164,237,40,190,130,9,9,61,
62,195,230,61,177,84,205,189,109,222,229,189,120,29,39,189,213,198,211,189,250,92,85,61,30,244,146,61,86,91,27,190,
126,223,139,189,251,106,9,62,88,4,169,189,210,124,205,60,70,103,131,61,70,55,164,189,207,93,242,60,185,239,194,189,
251,162,49,190,142,138,54,190,181,110,32,190,188,56,23,62,72,151,11,62,252,181,206,61,231,56,43,190,239,10,10,190,
254,29,222,61,72,252,89,190,80,164,180,60,108,170,217,61,122,106,168,189,101,59,49,190,214,60,26,62,34,191,201,59,
58,254,130,61,154,10,115,189,7,101,143,189,68,9,166,61,79,165,248,189,135,80,1,61,122,238,252,188,144,70,154,61,
230,217,234,61,100,106,185,189,11,195,23,190,69,222,53,190,9,250,44,190,56,82,29,190,14,145,214,61,163,17,37,62,
197,120,51,62,229,4,146,60,243,180,194,189,149,48,203,188,150,101,7,62,157,221,40,62,87,204,97,61,66,66,138,61,
248,116,137,189,157,184,181,188,74,218,241,61,87,146,207,61,120,29,148,189,227,255,0,190,88,8,236,189,248,76,172,60,
83,105,203,60,31,180,127,61,186,176,36,190,146,198,238,189,133,232,208,189,108,27,7,62,221,181,243,189,50,168,69,188,
184,206,137,189,147,92,175,189,142,174,219,189,192,251,187,188,141,14,67,190,73,75,39,61,246,69,255,61,10,122,11,190,
55,0,162,61,119,12,58,190,171,99,150,61,14,177,18,62,142,172,72,190,191,228,192,61,177,253,65,190,73,6,249,189,
155,221,135,189,86,127,157,189,31,51,7,62,98,227,109,61,104,126,87,190,141,141,241,61,141,190,18,62,136,63,216,61,
12,235,93,189,49,167,177,189,138,218,248,61,2,240,60,61,147,113,27,187,181,13,242,60,93,106,228,189,155,41,101,60,
133,16,39,61,134,129,186,189,21,211,51,61,133,140,169,188,28,150,40,61,224,32,58,190,18,174,50,61,229,156,33,62,
184,105,27,190,188,110,152,60,77,118,74,190,3,112,54,190,125,183,48,189,147,36,189,188,212,102,172,61,134,131,175,61,
155,17,165,61,74,118,60,190,247,43,195,189,107,199,99,61,150,130,172,187,88,50,68,189,52,52,243,59,186,127,28,190,
138,81,203,61,232,162,80,61,155,249,159,61,3,227,43,62,102,127,46,62,203,133,19,190,204,113,47,190,200,218,130,188,
117,170,46,190,0,240,212,189,94,181,191,188,66,191,171,189,226,130,95,61,41,25,48,62,252,35,196,189,51,107,20,190,
150,52,150,61,37,253,115,189,35,131,27,62,103,29,181,61,66,124,159,189,159,241,16,190,47,216,166,189,171,154,20,62,
100,188,42,190,40,201,255,189,239,63,171,189,12,237,76,190,47,151,183,60,63,62,118,190,235,208,16,190,137,213,71,190,
171,123,143,61,249,48,81,61,103,199,20,62,75,74,189,189,16,38,159,60,60,134,72,61,237,237,247,188,87,25,151,61,
228,204,184,60,116,109,42,189,122,213,191,61,208,165,34,190,152,25,144,60,210,193,53,190,96,159,94,188,80,147,20,190,
0,73,220,60,122,242,12,190,64,60,176,188,222,103,178,61,70,223,236,61,94,44,201,189,150,123,156,189,216,150,18,62,
251,93,107,190,113,193,76,190,247,7,32,62,99,149,151,187,185,62,140,61,236,6,89,189,27,40,189,188,208,164,143,61,
229,217,65,190,110,226,24,190,101,145,238,61,45,129,175,189,13,170,42,190,190,110,49,190,110,215,7,62,53,209,216,189,
106,129,10,190,0,220,250,61,184,2,168,189,234,220,29,190,216,120,193,60,83,250,116,189,118,15,27,62,134,228,107,189,
220,127,205,188,57,172,226,59,217,74,70,190,64,244,238,60,46,123,67,61,207,232,220,61,116,20,20,190,219,204,199,189,
136,175,201,188,77,113,5,62,192,227,127,187,12,131,46,189,172,166,44,190,64,3,52,189,128,231,226,60,248,215,138,188,
168,210,120,189,240,10,21,60,0,61,56,189,209,199,12,62,248,45,74,189,118,204,45,190,69,111,166,189,200,56,26,189,
15,175,7,62,60,202,27,189,0,146,22,188,160,175,190,189,118,26,36,190,198,254,173,61,148,243,5,61,166,17,194,61,
180,81,17,190,140,7,30,190,243,57,11,62,100,141,93,189,206,132,224,61,82,216,242,61,81,103,225,189,144,171,62,60,
176,26,255,60,180,249,93,61,194,42,168,189,20,29,30,190,226,194,41,190,76,129,89,61,241,46,22,190,0,157,39,188,
253,134,9,190,94,74,141,61,208,123,38,190,54,7,137,61,232,50,168,188,98,187,185,189,69,79,8,62,0,156,180,187,
217,166,254,189,233,245,220,189,48,41,71,189,100,26,46,189,191,88,48,62,176,236,3,60,34,252,225,61,32,221,13,190,
215,188,37,62,121,175,227,189,192,181,151,189,211,211,17,190,58,181,229,61,217,10,45,62,214,179,242,61,56,152,148,60,
240,215,146,61,142,146,255,189,218,119,131,61,50,189,34,190,236,133,241,189,193,89,10,62,96,159,206,188,148,169,218,189,
184,179,238,188,133,188,47,62,30,139,52,190,88,253,44,190,64,246,165,60,43,202,31,62,10,1,232,61,181,139,45,62,
234,54,189,189,203,215,161,189,32,231,24,189,38,228,203,61,85,139,221,189,86,176,171,61,240,187,39,189,168,149,167,188,
92,198,17,61,64,152,162,59,210,153,130,189,148,123,20,61,27,20,49,190,81,238,34,62,172,29,96,61,90,207,4,190,
147,5,197,189,177,71,33,62,17,18,17,62,32,138,102,60,92,211,96,61,95,8,215,189,1,56,145,189,237,83,0,62,
112,240,83,189,78,119,23,190,143,98,39,190,170,147,222,61,158,207,97,189,94,194,160,61,59,133,51,62,92,208,65,61,
145,57,12,62,168,4,189,60,90,36,251,61,91,14,46,62,107,178,209,189,200,57,159,60,52,20,80,189,228,214,96,61,
119,30,1,62,39,199,212,189,34,126,4,190,230,255,136,61,248,19,241,189,138,72,190,61,16,140,21,190,136,195,182,189,
184,246,131,189,23,124,168,61,208,199,100,62,226,112,74,189,233,91,157,61,21,79,199,189,57,207,157,190,154,78,88,189,
98,113,149,62,249,26,191,190,168,62,10,190,69,228,182,189,50,76,135,61,130,250,108,189,63,95,149,189,127,229,65,188,
125,41,24,190,79,171,23,60,128,184,148,190,150,161,190,189,142,106,240,61,13,182,13,61,35,82,56,190,231,77,75,61,
188,239,212,61,153,239,203,189,155,241,249,189,17,252,59,189,99,83,99,62,16,121,141,190,12,121,115,62,226,191,43,190,
108,142,16,190,173,154,18,190,232,183,149,61,215,208,59,60,106,212,218,61,236,138,165,60,13,74,248,188,135,48,35,62,
209,114,0,62,23,204,147,61,45,54,183,62,31,227,11,190,128,16,158,60,134,199,21,62,54,102,19,189,14,66,13,189,
224,89,134,59,233,36,22,189,130,4,128,61,36,118,239,61,106,159,47,190,134,8,90,189,149,82,82,190,155,82,119,60,
207,91,134,61,80,30,223,189,46,67,175,60,42,116,161,60,60,26,12,62,46,241,139,60,254,96,224,59,124,58,140,61,
38,68,238,61,47,75,49,190,17,47,56,190,123,161,63,190,11,159,44,62,55,116,27,190,101,47,136,61,100,133,138,188,
35,221,135,190,66,227,129,60,142,29,169,61,55,160,1,62,229,119,241,189,198,205,138,189,162,221,128,188,233,124,189,189,
110,106,137,188,235,67,142,189,209,1,175,189,248,156,151,61,61,83,161,61,24,83,12,60,212,66,180,189,207,160,230,189,
93,76,239,188,155,42,193,61,75,195,182,190,51,52,52,190,244,156,21,190,243,230,205,190,8,128,27,190,234,175,170,190,
236,47,16,62,247,23,151,62,94,177,76,190,249,255,3,62,138,58,62,190,92,152,15,62,252,148,10,62,165,35,59,60,
184,194,53,190,104,221,106,61,146,243,150,61,170,94,196,61,142,54,254,189,178,184,99,61,150,43,2,190,141,133,173,189,
80,42,73,190,61,6,20,190,43,3,19,190,170,11,160,188,243,221,9,190,237,113,45,62,194,192,165,190,119,86,167,187,
49,228,208,61,70,130,115,190,156,124,20,190,71,250,191,61,254,159,234,61,147,234,35,61,10,168,173,189,123,91,115,60,
78,155,35,189,77,36,153,188,191,179,193,62,32,51,13,61,43,54,95,62,159,211,16,62,176,138,64,187,63,202,166,60,
189,130,23,62,145,188,75,62,27,237,36,62,86,104,151,60,27,143,8,62,233,125,204,189,219,105,189,61,225,176,85,62,
16,125,160,61,1,194,84,190,20,73,192,60,208,205,96,190,10,250,238,61,76,129,7,62,123,116,17,60,150,6,44,61,
196,52,206,60,171,76,237,188,149,140,20,62,208,130,54,189,138,197,18,62,96,13,176,60,120,87,84,62,253,95,185,189,
28,127,24,61,227,181,42,189,131,82,254,61,38,31,151,61,71,186,232,60,219,208,210,61,94,210,183,60,46,181,60,61,
225,19,242,61,199,189,185,188,79,44,165,61,22,60,85,62,192,123,64,62,61,210,3,62,136,35,198,189,178,116,157,60,
117,202,116,189,49,144,131,61,11,190,72,188,57,146,101,61,49,195,142,59,216,249,227,188,180,41,39,62,27,2,34,190,
199,147,252,189,204,50,135,189,154,210,251,189,80,110,6,190,142,9,101,189,109,143,56,61,126,196,11,189,1,194,24,190,
60,109,104,189,69,133,188,61,72,81,138,62,33,116,116,62,119,252,157,62,97,107,142,61,26,40,20,189,92,3,188,188,
234,61,186,189,179,160,18,62,92,100,119,61,48,123,42,190,168,148,244,60,117,132,231,189,42,141,137,189,13,237,34,188,
188,215,102,188,145,211,141,189,222,208,28,190,150,106,76,62,241,168,129,189,149,220,240,61,74,166,8,61,131,249,204,61,
58,139,135,61,210,194,251,61,27,61,8,189,208,4,22,190,20,57,100,189,200,49,110,62,155,136,226,60,29,241,135,61,
19,27,96,61,86,154,128,62,150,13,206,189,2,240,240,189,154,63,212,61,223,48,27,189,117,80,21,62,151,41,58,62,
109,3,73,62,91,107,13,62,127,38,21,60,140,211,175,61,163,17,176,189,107,107,88,61,222,24,191,62,74,108,90,62,
56,198,29,61,65,189,227,60,110,164,143,61,244,131,112,62,16,22,50,188,147,21,235,62,152,217,236,189,248,179,173,61,
27,223,184,189,95,255,17,60,226,155,19,62,183,151,3,190,219,186,37,62,229,17,128,189,204,106,44,189,253,211,179,189,
7,213,161,61,189,122,168,189,95,3,213,61,225,157,128,189,164,245,211,61,105,94,29,61,153,67,30,190,64,79,12,188,
36,69,186,189,183,235,232,188,133,66,7,62,162,234,17,190,166,172,193,61,188,211,48,61,85,17,52,189,154,176,56,190,
6,200,185,61,47,66,220,61,193,162,94,189,77,149,51,190,224,89,52,190,18,195,152,59,175,46,0,60,36,72,63,190,
1,231,1,60,239,143,185,189,182,140,212,61,116,66,238,61,142,24,231,188,120,195,112,61,223,187,21,62,218,114,147,61,
49,221,159,59,187,81,239,61,207,178,145,189,94,245,38,62,79,232,252,61,46,102,152,61,179,53,17,62,176,247,169,61,
140,80,19,190,18,36,69,61,223,11,202,61,112,52,116,189,159,216,77,59,116,122,24,62,102,181,167,61,176,79,218,189,
21,7,7,190,84,202,142,61,82,163,58,190,122,123,197,189,214,216,129,189,28,76,28,60,70,193,156,189,134,66,73,61,
122,7,48,190,18,165,19,190,62,83,151,61,175,180,35,61,146,173,230,61,62,104,9,190,1,33,18,62,249,154,55,190,
16,228,251,61,179,126,12,190,31,156,85,189,170,39,49,189,58,252,61,190,178,233,227,189,106,102,203,189,71,233,12,62,
214,30,99,189,117,147,250,189,119,225,7,190,221,15,159,188,217,174,39,62,26,89,4,189,169,149,13,62,208,203,217,61,
75,227,120,61,125,107,35,190,68,147,134,189,172,182,147,189,102,61,137,61,52,120,172,61,165,159,118,189,34,82,21,62,
160,254,153,187,103,246,228,61,68,149,22,190,188,2,69,189,215,200,168,61,170,82,162,188,11,153,194,189,75,234,43,190,
20,95,95,61,38,229,153,60,248,68,224,61,237,30,59,190,130,148,120,189,147,228,220,189,98,122,0,62,131,186,239,61,
161,62,192,189,189,170,190,60,204,229,26,189,87,20,197,61,166,157,218,61,126,180,87,60,219,151,210,188,56,99,44,61,
251,134,17,190,211,27,249,189,50,65,51,61,147,199,173,189,38,112,89,189,218,232,18,190,242,178,170,189,142,215,214,189,
255,1,7,62,209,123,209,189,74,250,13,190,154,210,15,61,61,112,93,189,32,188,96,189,31,138,246,61,53,75,124,61,
33,101,185,59,132,30,255,61,89,254,37,62,2,109,202,60,246,12,10,62,68,213,216,189,204,57,106,189,93,222,181,189,
244,246,245,189,61,44,133,61,200,21,139,61,8,244,213,60,63,87,59,190,213,209,214,61,75,159,188,61,238,115,41,190,
15,118,105,189,60,113,133,189,121,114,225,61,41,40,0,62,85,32,9,62,37,109,89,61,248,127,240,188,59,183,164,61,
5,205,254,189,86,69,13,62,24,198,51,61,247,19,6,62,49,140,198,61,255,55,23,189,189,179,41,61,199,6,244,61,
109,253,66,189,131,209,156,61,210,209,243,61,205,7,49,189,62,170,76,61,102,187,81,188,120,217,232,61,77,143,151,189,
102,220,60,188,68,99,22,62,18,121,211,188,28,1,100,59,214,9,213,61,113,157,8,190,251,203,4,190,63,104,23,190,
225,163,15,190,253,13,34,190,59,252,36,59,125,66,15,190,30,168,118,188,193,167,163,189,221,89,29,62,248,16,164,61,
202,189,188,61,221,146,40,190,167,228,58,189,32,255,194,188,68,210,169,61,112,232,117,61,36,245,29,62,221,148,253,61,
242,255,52,190,227,72,178,189,200,242,13,190,242,186,6,190,48,164,128,189,88,153,33,62,223,46,230,189,68,227,24,190,
94,219,20,189,215,3,28,190,14,110,141,189,152,76,192,60,245,75,45,189,206,21,2,190,241,224,2,189,75,248,166,59,
2,67,248,189,91,169,159,60,158,125,58,188,211,36,11,62,34,150,37,190,2,89,41,190,126,61,235,189,98,61,118,60,
46,239,228,61,225,75,172,59,109,205,248,189,103,95,77,61,189,98,185,189,171,107,31,189,111,40,147,61,6,83,245,189,
205,176,207,189,250,38,165,61,225,48,153,188,6,116,4,188,69,119,7,190,85,123,197,61,130,168,164,60,87,76,247,60,
154,149,221,61,178,112,84,189,42,189,1,62,20,19,29,190,90,154,206,189,232,171,21,61,113,4,182,189,115,252,16,190,
100,171,150,61,0,103,197,61,74,182,168,60,138,147,216,189,56,31,251,61,11,160,22,62,31,78,8,62,39,120,190,59,
225,156,50,190,200,214,12,62,213,205,179,189,78,215,205,61,11,44,218,188,162,29,146,60,10,230,34,189,216,58,156,61,
0,85,80,60,241,223,13,190,32,233,147,60,76,16,60,189,178,106,101,189,39,54,6,190,44,1,131,61,24,240,145,61,
15,60,5,190,89,53,155,189,1,192,46,190,104,187,10,189,231,193,206,189,144,201,110,60,143,97,3,62,254,79,171,61,
48,43,103,61,193,198,21,62,47,202,51,62,219,194,50,62,92,135,81,189,228,39,23,61,62,209,102,189,56,191,241,60,
130,194,255,189,144,71,38,190,207,141,27,62,70,15,27,190,224,63,1,61,18,90,179,61,54,248,220,189,245,81,51,62,
204,132,24,189,16,13,156,188,96,126,91,61,0,184,135,61,40,234,251,60,100,82,14,61,220,6,122,189,76,107,132,61,
32,8,44,190,112,241,254,60,164,80,39,190,79,187,149,189,24,29,145,188,128,206,163,186,64,26,121,60,207,30,12,62,
215,21,13,62,115,52,149,189,163,126,21,62,254,91,152,61,30,142,254,61,72,16,12,61,7,179,20,62,40,20,51,189,
6,238,100,189,248,249,242,188,180,119,73,189,36,231,16,190,168,60,164,189,45,180,30,62,176,169,55,61,253,54,27,62,
240,251,164,188,0,16,166,185,72,146,87,61,16,186,239,60,232,236,170,188,125,236,201,189,111,146,32,62,184,41,216,60,
12,101,4,61,68,206,46,189,40,38,140,188,202,133,15,190,143,115,187,189,150,85,243,61,74,39,189,189,50,123,50,190,
161,141,24,62,58,150,199,61,232,30,22,61,16,134,125,61,72,134,197,60,152,112,159,188,243,42,27,190,228,205,76,61,
37,184,154,189,249,117,20,190,0,119,110,189,200,18,199,60,226,102,195,61,114,190,200,61,208,222,81,189,139,122,153,189,
244,38,169,189,111,247,128,189,140,136,45,190,8,183,185,189,48,57,115,60,95,139,134,189,223,171,36,190,134,246,212,61,
100,61,167,189,66,163,138,189,181,108,22,62,236,54,63,189,28,207,44,190,136,169,217,188,165,97,173,189,144,156,205,189,
119,134,16,62,125,179,1,62,182,43,130,189,146,188,224,61,112,220,43,190,54,247,26,190,96,125,225,187,45,179,47,62,
56,145,24,190,40,218,242,60,246,44,182,61,48,160,52,189,26,255,44,190,115,114,20,190,228,102,9,189,247,195,50,62,
244,214,157,189,20,66,112,61,72,255,133,62,122,183,125,60,44,243,121,62,39,164,213,61,66,203,13,61,196,40,168,60,
147,111,56,62,250,253,5,62,61,179,15,61,222,196,58,60,96,125,131,189,54,176,127,189,7,248,241,186,138,90,28,189,
224,184,102,61,90,128,9,61,157,239,152,189,251,161,14,189,52,130,75,190,212,168,174,61,167,150,144,61,59,24,246,189,
96,91,131,60,67,30,211,61,205,73,72,61,32,160,0,189,73,55,117,62,253,130,210,188,111,1,135,62,235,96,8,190,
50,167,11,190,184,88,97,189,186,140,216,188,249,203,161,61,79,39,55,188,196,199,156,61,133,253,84,189,181,29,184,57,
153,73,252,189,92,20,162,189,128,102,44,60,254,99,241,188,28,206,216,188,239,86,36,61,221,31,83,61,164,4,69,189,
169,197,129,188,185,188,78,61,174,83,221,189,12,67,23,190,69,205,225,189,234,34,143,60,45,234,154,60,53,74,155,189,
142,111,18,62,38,38,248,61,57,52,94,189,29,245,255,61,219,171,33,61,224,219,16,190,60,56,43,190,72,135,148,189,
235,86,247,189,142,197,31,190,169,239,75,61,109,168,233,59,5,173,99,62,58,120,204,189,163,56,134,61,162,200,232,188,
212,157,117,62,253,122,178,61,96,115,74,62,31,111,135,61,78,58,38,188,208,221,128,189,177,55,40,190,166,150,213,61,
91,120,18,190,114,86,20,62,128,16,67,189,158,220,99,61,99,111,190,189,215,172,255,189,105,195,46,190,12,9,209,189,
243,84,211,60,175,235,95,61,202,172,11,190,56,46,93,61,250,217,2,61,47,202,254,61,130,121,212,189,102,112,45,61,
85,122,233,61,203,44,29,62,210,221,250,60,193,240,134,189,26,119,176,61,174,147,186,189,5,123,29,62,46,17,236,61,
235,133,22,62,180,206,61,60,244,108,32,189,168,192,153,189,94,193,11,61,160,109,188,189,130,206,229,61,190,31,162,189,
79,155,150,59,59,255,24,190,250,127,71,61,72,77,85,61,6,239,198,189,51,236,109,61,247,28,129,61,48,99,23,190,
178,188,24,62,71,30,207,60,24,31,201,60,206,238,18,62,152,138,131,62,235,180,63,189,79,201,177,61,45,141,173,189,
62,68,140,60,218,192,18,62,28,148,3,63,21,243,147,60,195,85,164,62,32,167,19,190,182,218,33,61,22,126,249,189,
122,180,128,62,132,246,128,61,21,93,147,61,151,182,223,186,113,218,33,60,200,1,120,189,160,66,203,189,123,83,115,61,
233,87,79,190,4,89,27,61,127,75,176,62,5,118,13,188,44,11,23,190,25,85,45,62,11,113,182,61,11,171,0,190,
58,81,84,61,226,213,31,62,97,87,155,60,209,101,148,62,93,31,118,62,44,212,130,188,211,142,147,62,245,166,60,62,
106,107,17,61,250,93,212,61,169,130,53,62,224,1,249,61,205,22,245,61,250,116,217,61,249,97,9,62,70,96,166,60,
29,234,161,60,86,94,129,189,198,247,126,62,35,105,239,61,121,26,220,61,61,54,41,62,250,161,183,189,181,209,93,62,
91,246,191,189,5,22,186,61,7,164,60,62,199,40,149,61,149,37,200,62,0,212,12,61,152,172,67,62,143,211,133,189,
252,113,139,189,49,201,21,186,30,56,19,188,14,94,108,61,70,182,221,61,6,80,45,189,81,176,251,189,236,82,3,190,
241,111,154,189,165,132,168,189,100,84,46,189,64,37,54,59,95,216,28,62,98,250,134,189,152,84,67,60,226,40,76,62,
221,117,110,62,128,251,92,189,138,183,46,190,68,109,200,60,222,171,227,61,77,168,167,61,165,2,64,61,134,155,100,62,
191,127,150,59,143,132,51,190,136,0,5,62,211,55,67,63,238,212,97,62,220,112,50,190,204,252,86,62,21,95,225,61,
50,109,245,61,90,202,37,62,188,89,131,189,111,137,195,61,145,14,135,62,243,133,117,62,57,201,221,61,104,3,188,61,
137,41,15,62,93,146,87,62,23,210,10,62,158,151,215,188,246,231,12,189,78,123,203,54,125,68,113,62,40,74,78,189,
27,81,70,62,67,87,189,60,213,160,242,60,145,187,228,61,242,69,51,62,231,244,97,61,150,220,60,62,234,12,115,189,
77,112,53,189,108,205,155,188,197,139,120,61,79,107,182,62,250,58,90,189,124,24,36,62,8,59,16,62,154,191,54,60,
49,43,86,189,139,254,36,190,92,82,209,61,46,65,196,61,213,93,130,62,74,64,0,190,225,46,187,60,113,240,202,61,
168,151,108,189,25,208,3,190,186,147,146,62,41,221,168,189,250,73,113,62,134,87,230,61,236,101,193,61,182,27,208,61,
122,132,136,62,105,11,137,189,137,197,234,189,167,135,189,59,231,40,171,61,143,170,178,60,123,5,48,61,79,196,144,189,
138,122,74,190,77,87,137,189,152,105,254,61,109,95,164,61,232,138,202,188,146,35,21,62,126,230,141,189,252,92,204,61,
165,106,112,189,244,75,155,61,168,89,206,62,135,137,46,62,23,65,156,61,87,138,168,189,16,233,73,62,5,32,159,189,
194,219,228,61,167,215,77,190,95,82,54,61,144,216,169,61,77,151,34,190,111,44,102,188,141,159,219,61,146,95,53,62,
160,90,29,188,20,131,217,189,137,170,179,62,236,213,74,189,220,186,98,189,255,6,245,188,38,201,145,188,163,134,51,190,
144,194,215,188,169,97,8,188,117,56,4,190,185,11,64,62,180,179,156,189,226,58,158,61,147,65,136,59,81,236,148,61,
50,71,165,61,110,174,140,188,241,195,141,186,22,82,15,190,140,103,68,62,17,80,19,62,135,178,128,190,246,99,225,189,
179,150,12,62,138,151,242,61,53,163,62,61,146,81,26,190,85,119,131,62,18,57,35,190,58,253,153,61,10,68,96,62,
176,124,180,59,197,118,111,189,116,247,33,190,234,0,53,190,136,196,249,189,106,191,195,187,191,182,231,189,176,226,40,61,
94,118,233,61,23,239,197,189,253,58,221,61,221,41,237,61,87,194,254,188,95,125,226,60,98,244,85,188,162,222,17,60,
2,102,48,62,170,207,6,189,94,149,71,62,89,37,233,61,76,109,24,61,236,86,59,189,140,249,206,189,211,59,81,62,
30,176,70,62,247,152,138,62,44,137,255,189,126,105,20,189,32,47,171,61,166,16,48,61,162,163,101,62,238,223,112,61,
41,40,133,62,113,11,103,61,139,137,249,60,162,40,245,189,191,56,73,189,135,8,129,189,143,156,25,61,200,37,139,189,
81,248,0,190,161,95,149,189,162,192,229,59,253,188,127,62,217,192,74,61,242,66,193,62,249,221,30,190,107,92,139,189,
6,93,55,62,78,187,162,189,241,20,54,62,33,200,11,189,220,13,245,62,177,49,62,61,86,207,229,61,253,195,153,60,
118,153,247,61,107,112,135,61,238,14,166,62,222,59,22,190,239,182,158,61,148,136,129,190,194,229,144,61,0,74,211,186,
91,45,185,62,183,116,61,62,58,228,225,60,30,213,134,60,75,207,254,61,110,28,15,190,230,72,223,61,212,181,16,189,
12,90,95,62,198,168,142,189,143,126,61,62,91,135,38,61,172,170,182,189,218,91,201,189,181,53,242,189,32,104,62,62,
139,209,40,190,65,245,214,188,229,141,215,62,68,204,106,62,169,202,162,62,132,192,15,61,114,36,7,62,127,151,215,189,
222,120,9,62,33,152,32,190,191,83,183,189,123,50,96,62,178,162,6,62,197,192,252,60,106,22,149,189,151,36,30,62,
155,181,14,190,152,161,95,189,220,101,196,62,247,221,59,62,65,87,75,190,3,130,102,60,119,231,81,189,48,39,48,62,
239,61,236,188,145,123,74,189,72,91,216,189,134,150,128,186,182,100,88,190,91,35,207,61,157,17,159,61,74,108,9,190,
186,207,85,189,7,166,42,61,241,198,152,61,248,195,162,61,138,245,19,189,221,187,137,61,195,44,76,61,243,58,165,61,
210,115,253,60,2,55,19,189,249,122,182,189,81,255,37,61,49,56,56,62,253,145,4,61,214,232,213,189,89,9,86,61,
218,177,136,61,52,115,27,189,254,79,149,189,174,104,87,190,1,206,115,189,7,228,53,189,241,250,203,61,123,170,136,189,
195,132,228,61,113,17,231,61,249,222,130,60,121,21,73,62,244,145,31,61,120,133,25,189,151,45,199,189,180,132,60,62,
160,224,159,60,32,32,1,190,65,106,10,61,129,53,181,60,119,59,14,190,245,88,75,189,248,68,54,189,106,135,206,189,
239,188,63,62,129,119,147,62,161,141,158,189,102,167,8,62,76,23,223,188,241,251,18,61,36,94,141,189,46,91,2,62,
28,138,217,61,62,105,239,189,14,245,125,61,246,206,253,61,227,191,220,189,27,42,223,61,153,93,138,62,37,63,106,188,
