#pragma once
#include <stdint.h>
#include <stddef.h>
alignas(16) const unsigned char g_model[] = {28,0,0,0,84,70,76,51,20,0,32,0,28,0,24,0,20,0,16,0,12,0,0,0,8,0,4,0,20,0,0,0,28,0,0,0,128,0,0,0,216,0,0,0,156,72,0,0,172,72,0,0,220,95,0,0,3,0,0,0,1,0,0,0,4,0,0,0,34,181,255,255,12,0,0,0,28,0,0,0,56,0,0,0,15,0,0,0,115,101,114,118,105,110,103,95,100,101,102,97,117,108,116,0,1,0,0,0,4,0,0,0,156,255,255,255,31,0,0,0,4,0,0,0,7,0,0,0,100,101,110,115,101,95,49,0,1,0,0,0,4,0,0,0,98,184,255,255,4,0,0,0,7,0,0,0,105,110,112,117,116,95,49,0,2,0,0,0,52,0,0,0,4,0,0,0,220,255,255,255,34,0,0,0,4,0,0,0,19,0,0,0,67,79,78,86,69,82,83,73,79,78,95,77,69,84,65,68,65,84,65,0,8,0,12,0,8,0,4,0,8,0,0,0,33,0,0,0,4,0,0,0,19,0,0,0,109,105,110,95,114,117,110,116,105,109,101,95,118,101,114,115,105,111,110,0,35,0,0,0,192,71,0,0,184,71,0,0,40,71,0,0,144,70,0,0,116,70,0,0,228,68,0,0,212,20,0,0,68,20,0,0,180,19,0,0,36,19,0,0,148,18,0,0,4,18,0,0,240,17,0,0,220,17,0,0,200,17,0,0,160,17,0,0,144,1,0,0,0,1,0,0,248,0,0,0,240,0,0,0,232,0,0,0,224,0,0,0,216,0,0,0,208,0,0,0,200,0,0,0,192,0,0,0,184,0,0,0,176,0,0,0,168,0,0,0,160,0,0,0,152,0,0,0,144,0,0,0,136,0,0,0,104,0,0,0,4,0,0,0,98,185,255,255,4,0,0,0,84,0,0,0,12,0,0,0,8,0,14,0,8,0,4,0,8,0,0,0,16,0,0,0,36,0,0,0,0,0,6,0,8,0,4,0,6,0,0,0,4,0,0,0,0,0,0,0,0,0,10,0,16,0,12,0,8,0,4,0,10,0,0,0,2,0,0,0,2,0,0,0,4,0,0,0,6,0,0,0,50,46,49,48,46,49,0,0,194,185,255,255,4,0,0,0,16,0,0,0,49,46,49,48,46,48,0,0,0,0,0,0,0,0,0,0,180,161,255,255,184,161,255,255,188,161,255,255,192,161,255,255,196,161,255,255,200,161,255,255,204,161,255,255,208,161,255,255,212,161,255,255,216,161,255,255,220,161,255,255,224,161,255,255,228,161,255,255,232,161,255,255,236,161,255,255,26,186,255,255,4,0,0,0,128,0,0,0,108,110,149,63,163,103,129,63,134,253,72,190,71,45,52,190,36,45,132,63,118,224,177,60,18,235,130,188,44,15,188,190,66,177,97,189,239,196,151,63,194,105,152,63,135,0,144,190,184,55,132,190,163,6,63,190,8,117,136,190,49,141,38,189,90,116,147,63,22,88,22,189,225,145,141,63,31,8,188,190,2,16,46,190,223,215,72,190,72,48,159,63,129,94,128,189,209,100,141,63,101,200,144,63,148,204,153,63,233,223,150,63,164,232,150,63,46,52,154,63,146,137,123,63,152,64,49,190,166,186,255,255,4,0,0,0,0,16,0,0,222,40,11,191,76,3,127,63,186,217,112,191,210,252,250,190,255,252,129,63,245,123,116,63,182,71,51,191,1,130,52,63,61,9,121,191,119,145,127,63,163,145,100,63,0,233,71,191,174,41,76,63,142,154,118,63,1,156,100,63,124,142,36,63,156,160,42,63,254,114,115,191,27,73,74,191,133,97,28,191,84,98,68,63,83,201,43,63,144,97,89,191,237,196,56,191,57,18,16,191,172,46,96,63,165,8,75,63,185,135,2,191,175,43,121,191,75,45,116,63,154,28,55,191,201,80,13,63,199,110,26,191,192,70,143,63,206,52,15,191,203,197,115,191,129,218,76,63,177,98,143,63,29,176,29,191,244,230,78,63,81,220,93,191,200,183,79,63,99,183,145,63,49,153,91,191,211,238,146,63,175,71,67,63,236,228,26,63,159,50,76,63,99,177,69,63,162,163,128,191,125,49,125,191,167,161,13,191,74,210,150,63,194,44,155,63,162,123,62,191,183,122,42,191,79,100,76,191,84,190,135,63,252,125,78,63,225,35,40,191,106,153,90,191,179,234,169,63,43,94,66,191,251,149,106,63,179,80,77,189,158,156,96,62,20,93,107,61,5,84,122,62,80,213,130,62,59,138,57,62,211,34,65,190,179,176,181,59,81,46,188,61,77,127,53,62,113,60,146,190,109,188,235,61,31,199,22,190,84,42,108,190,120,9,132,190,51,220,2,189,3,201,102,189,183,161,38,62,52,49,88,61,217,51,20,62,254,184,75,61,82,208,212,187,98,10,12,62,58,55,60,188,24,55,170,189,75,91,87,62,79,61,104,189,214,213,243,186,244,16,80,190,105,195,132,190,17,138,71,189,177,115,25,62,252,250,97,61,213,76,139,60,170,195,97,190,185,88,36,190,76,119,99,190,99,104,92,190,115,168,21,62,39,9,245,61,196,208,75,62,145,202,161,190,102,114,222,189,128,148,78,190,213,68,117,189,146,143,126,190,153,46,140,62,130,182,67,190,72,180,12,190,31,183,161,61,177,117,77,62,60,250,8,61,187,99,36,190,193,7,157,187,207,29,252,61,46,252,253,189,155,67,146,62,219,90,127,190,55,75,37,61,75,220,29,190,228,255,47,62,92,12,154,60,37,73,111,62,163,187,55,190,135,110,110,191,253,204,138,63,201,223,243,190,64,50,4,191,157,75,135,63,20,2,140,63,139,113,26,191,37,163,85,63,102,115,37,191,142,73,15,63,207,66,128,63,129,179,118,191,105,38,30,63,161,181,89,63,23,173,137,63,65,175,123,63,167,167,91,63,38,40,58,191,115,70,39,191,212,162,116,191,204,179,143,63,220,68,73,63,163,144,223,190,106,111,122,191,55,96,60,191,199,22,90,63,236,231,68,63,24,137,109,191,74,41,122,191,172,214,86,63,236,240,129,191,225,55,95,63,212,77,78,190,167,217,47,190,191,40,105,62,198,246,128,62,119,247,176,189,24,166,63,190,25,186,129,62,151,81,127,190,68,151,106,62,33,215,207,189,241,193,168,189,161,242,130,190,224,121,146,189,15,3,49,62,87,248,34,190,153,106,75,62,247,194,90,60,169,164,139,190,59,66,53,190,116,11,143,190,151,0,29,62,108,211,36,62,169,149,84,62,106,100,157,62,131,60,44,190,107,234,56,62,2,52,5,190,54,99,133,62,216,134,70,190,183,90,23,189,108,116,187,61,96,201,80,62,235,205,150,190,78,30,79,61,237,81,112,190,80,207,99,61,26,193,80,190,40,107,39,62,166,148,84,190,34,42,149,189,154,164,254,61,174,6,104,190,117,86,41,190,102,67,116,190,169,255,246,189,63,244,40,190,112,193,60,62,35,73,37,190,136,18,225,189,36,108,230,61,247,144,8,190,37,143,229,189,184,206,147,188,53,177,32,190,31,66,119,62,248,216,69,186,105,222,106,62,143,188,106,62,219,49,25,189,139,67,247,61,104,247,181,189,183,75,103,62,148,73,73,62,188,232,234,189,214,69,21,62,89,234,146,62,49,211,94,62,35,121,140,62,188,33,133,189,40,118,234,189,154,10,156,190,72,76,217,61,230,140,225,61,169,30,166,61,160,129,112,190,114,129,112,61,186,130,159,189,225,2,6,61,218,45,10,190,49,161,180,189,140,38,81,61,49,79,94,190,76,155,73,62,11,11,71,62,60,99,85,190,214,183,148,190,174,41,48,190,68,133,66,190,115,254,247,189,39,46,43,62,192,71,157,190,171,158,120,62,165,137,35,189,41,189,144,189,105,182,114,62,6,86,90,62,103,94,151,189,20,38,80,190,81,101,130,62,213,143,48,62,97,129,84,189,154,216,1,189,22,254,149,62,38,68,233,189,155,5,212,189,78,3,108,61,154,190,73,189,119,186,199,188,152,173,26,61,100,203,122,62,253,240,11,62,10,62,237,189,143,48,29,62,98,165,136,62,157,22,54,190,78,45,109,62,32,86,236,59,0,12,42,61,126,228,244,61,115,189,197,189,208,197,56,190,224,161,125,62,118,124,155,190,161,13,174,62,33,235,76,190,46,205,0,62,33,70,14,62,151,237,157,190,22,114,185,190,148,35,29,63,19,23,56,191,28,218,102,191,93,236,228,62,73,69,104,63,102,41,42,191,146,162,49,63,198,232,52,191,234,201,140,63,153,28,64,63,40,39,209,190,170,3,77,63,249,201,26,63,226,123,39,63,221,135,250,62,46,100,96,63,206,24,254,190,159,191,15,191,130,14,190,190,158,190,128,63,52,35,115,63,87,136,44,191,102,156,88,191,214,170,224,190,79,118,78,63,151,196,99,63,223,196,84,191,188,171,10,191,229,187,63,63,115,206,112,191,110,37,89,63,61,118,72,191,120,130,129,63,63,202,223,190,101,29,109,191,89,133,131,63,201,71,55,63,11,94,244,190,138,209,85,63,110,193,97,191,242,232,126,63,171,21,138,63,143,26,32,191,59,227,18,63,115,42,149,63,51,162,32,63,225,69,39,63,207,127,76,63,84,91,33,191,104,4,66,191,29,153,47,191,73,55,100,63,185,98,81,63,187,116,85,191,249,136,60,191,80,141,217,190,144,93,68,63,243,129,103,63,156,176,132,191,61,250,92,191,220,35,97,63,70,208,248,190,9,98,147,63,36,50,169,61,250,16,193,61,34,121,109,190,117,67,247,189,32,132,178,190,1,126,10,62,150,9,14,62,81,55,237,61,208,17,139,61,84,180,36,188,182,38,74,190,210,81,239,189,27,237,74,190,221,93,24,57,175,117,235,189,31,37,141,60,215,42,7,62,192,2,85,62,211,15,193,60,253,70,64,189,14,117,140,62,108,26,103,60,6,221,43,61,143,66,67,62,58,253,46,61,227,223,240,61,148,106,10,59,145,75,152,62,172,25,34,62,106,38,106,188,175,33,179,61,234,187,25,190,42,241,180,61,149,200,230,189,72,210,63,62,163,73,138,62,12,125,134,61,180,96,45,190,126,23,107,190,127,51,25,190,225,113,196,61,147,116,88,190,149,100,152,190,101,109,144,62,170,112,30,190,103,130,127,62,108,171,31,62,116,66,47,62,136,54,219,61,70,181,136,62,248,185,82,62,22,164,137,190,38,171,103,62,115,238,249,61,187,7,169,61,94,83,128,190,6,90,63,62,98,107,134,189,11,198,24,190,69,96,79,61,20,157,173,188,180,88,144,189,21,102,173,189,222,223,26,62,125,186,209,189,181,245,23,188,130,19,12,62,143,229,64,62,71,202,67,62,37,41,172,190,30,69,106,62,115,136,107,62,31,21,7,189,86,9,217,61,3,238,12,190,14,101,44,190,10,243,103,62,233,58,132,189,220,220,0,190,122,72,167,190,146,70,159,188,12,18,108,190,210,124,54,190,192,151,75,62,5,74,110,62,195,247,93,190,167,177,95,62,53,43,188,57,71,100,107,190,230,203,77,190,255,61,130,190,92,152,86,62,9,220,32,190,58,105,196,61,193,238,82,190,21,14,80,189,89,229,130,61,201,141,50,190,219,23,28,190,83,125,109,62,214,61,163,61,249,134,156,61,247,134,138,62,6,228,50,62,130,150,107,62,187,243,241,186,64,139,136,190,169,91,150,189,188,101,66,190,75,155,213,59,158,244,164,189,110,55,92,62,45,211,14,62,77,220,36,62,79,201,93,62,108,238,20,62,101,28,163,190,43,43,241,61,207,233,20,62,91,127,177,61,202,53,66,189,2,160,97,62,77,1,29,62,172,93,14,62,174,217,93,61,208,79,71,190,108,150,5,190,255,85,55,61,113,241,28,62,218,128,52,59,3,180,4,190,30,81,83,61,42,61,162,61,106,3,65,190,52,44,61,62,190,50,111,189,135,74,136,190,31,14,93,189,197,117,136,62,205,93,58,190,75,113,48,190,141,174,27,61,207,169,44,190,188,40,67,190,129,211,0,62,249,77,15,190,4,64,123,62,190,52,216,189,163,225,122,60,171,174,130,190,164,88,60,190,54,119,179,60,171,60,11,190,156,34,139,190,48,9,35,62,1,41,133,189,60,202,6,62,50,140,31,62,143,132,141,62,146,33,24,190,222,138,124,191,185,174,139,63,246,1,32,191,183,197,15,191,9,208,245,62,29,217,143,63,125,101,252,190,224,152,92,63,122,181,0,191,5,9,27,63,249,2,137,63,10,35,5,191,242,9,37,63,66,143,133,63,140,53,38,63,254,34,89,63,231,160,22,63,28,152,110,191,235,120,208,190,33,153,99,191,254,191,34,63,242,37,127,63,117,23,98,191,193,103,107,191,31,91,10,191,37,151,138,63,22,229,144,63,139,85,128,191,22,99,26,191,144,35,34,63,240,208,17,191,119,58,78,63,242,15,134,62,140,191,130,62,0,220,148,190,245,194,124,189,21,137,72,190,229,194,147,189,82,147,104,189,94,150,35,190,71,175,43,62,247,173,219,61,43,198,47,190,67,241,28,190,45,226,188,189,107,106,82,190,201,201,198,189,4,3,122,62,183,173,53,62,217,45,233,189,156,24,170,62,229,52,71,62,39,231,92,62,219,221,135,190,75,26,130,62,28,231,91,190,69,222,226,61,178,241,9,62,219,163,114,62,237,130,138,62,164,196,10,190,101,114,242,61,153,108,7,190,71,176,56,189,100,207,48,191,230,118,120,63,62,185,71,191,66,239,89,191,57,78,137,63,166,206,42,63,65,228,122,191,150,74,131,63,174,244,88,191,153,183,134,63,63,144,9,63,45,213,55,191,70,68,109,63,38,184,81,63,115,59,92,63,210,24,93,63,2,172,123,63,196,218,100,191,183,2,52,191,168,23,14,191,87,131,67,63,144,250,52,63,85,121,125,191,129,20,6,191,18,84,92,191,69,186,119,63,134,122,7,63,115,246,5,191,4,220,17,191,96,165,54,63,55,214,98,191,97,221,133,63,175,52,107,189,115,43,204,189,160,76,4,190,139,198,99,188,192,42,153,62,231,127,37,62,232,253,186,189,92,139,174,189,166,158,75,190,36,207,74,62,26,240,148,58,119,18,10,189,188,244,134,62,117,123,128,189,169,193,142,189,113,238,254,189,34,253,129,188,242,247,174,189,207,45,242,61,122,24,29,62,94,99,138,190,52,27,95,190,195,50,11,62,53,193,128,189,20,92,9,61,233,249,31,190,105,86,128,189,74,232,136,62,3,120,175,189,114,129,184,189,40,58,40,62,41,235,59,190,250,149,74,62,60,100,201,189,173,157,8,62,59,30,3,62,125,98,120,62,13,218,178,61,232,65,31,62,0,143,38,62,118,169,199,189,224,253,34,62,52,120,89,59,13,59,110,62,231,183,33,190,191,58,6,62,31,8,231,61,225,189,105,60,100,0,249,189,12,68,51,62,226,254,100,62,48,22,128,190,19,218,121,190,13,174,77,190,80,60,125,189,125,250,42,62,222,9,53,189,174,239,48,62,239,61,5,62,216,245,153,62,25,131,227,57,112,225,22,61,30,76,112,190,98,254,158,190,57,173,138,189,3,241,127,188,138,127,22,190,254,12,84,190,73,27,159,190,232,222,135,189,70,161,38,188,76,178,30,62,36,208,106,189,90,209,249,59,200,129,174,60,174,225,4,190,114,247,4,190,10,176,154,190,98,55,131,189,157,234,205,188,86,213,66,62,120,222,29,60,144,47,98,62,233,103,105,62,57,179,98,189,41,109,48,61,74,70,23,190,69,209,183,189,113,227,92,190,100,61,82,188,240,167,67,190,74,200,152,62,210,35,122,62,218,250,40,57,82,104,22,60,80,158,143,190,185,237,96,190,39,173,42,63,110,193,21,191,231,143,115,191,166,212,15,63,11,46,112,63,165,111,65,191,212,254,19,63,243,9,157,190,127,167,45,63,210,51,48,63,28,177,83,191,214,57,82,63,156,78,242,62,75,9,56,63,90,8,52,63,245,111,133,63,142,183,93,191,65,100,72,191,196,140,82,191,207,69,118,63,46,90,138,63,37,34,129,191,39,84,244,190,100,220,27,191,240,9,61,63,0,135,61,63,203,115,97,191,134,70,128,191,150,11,83,63,239,233,50,191,81,255,8,63,23,123,103,62,209,47,101,190,247,45,111,190,5,92,12,62,115,124,102,189,30,98,42,62,72,40,195,61,150,19,206,189,37,206,139,190,255,80,28,61,120,200,118,190,246,63,80,189,73,252,115,62,183,12,3,62,17,130,218,61,221,30,142,62,214,96,66,61,71,123,151,61,200,156,27,62,134,127,166,61,49,23,40,62,247,96,129,62,246,188,131,62,254,191,67,62,1,63,172,62,187,66,149,190,146,129,27,189,206,195,117,62,56,225,143,189,98,129,106,190,204,165,64,190,147,54,193,188,78,202,16,191,195,58,118,63,42,78,83,191,125,62,81,191,154,152,134,63,191,77,68,63,97,55,106,191,33,114,1,63,226,122,112,191,36,203,85,63,210,155,78,63,182,4,73,191,95,184,62,63,202,80,72,63,216,104,81,63,156,144,144,63,181,217,118,63,128,106,34,191,88,97,94,191,47,43,87,191,75,172,100,63,17,251,138,63,236,146,51,191,139,3,219,190,35,7,30,191,146,158,21,63,40,118,141,63,205,134,77,191,116,154,42,191,35,182,111,63,180,234,246,190,84,255,116,63,231,125,15,191,131,220,82,63,37,11,91,191,31,48,17,191,142,104,42,63,76,72,84,63,165,4,32,191,162,131,119,63,149,205,38,191,232,197,133,63,35,248,111,63,32,54,42,191,200,108,141,63,168,137,46,63,25,43,2,63,155,248,94,63,37,43,235,62,80,158,26,191,199,21,1,191,8,100,190,190,120,249,83,63,83,241,142,63,88,180,93,191,131,213,89,191,226,3,65,191,177,113,91,63,67,10,122,63,187,170,208,190,212,230,22,191,160,10,129,63,122,48,49,191,121,137,143,63,119,235,33,191,113,12,95,63,164,161,19,191,17,35,47,191,201,135,91,63,13,12,15,63,44,161,92,191,251,251,131,63,126,172,42,191,144,15,98,63,67,113,101,63,244,123,14,191,151,232,83,63,178,5,113,63,7,249,7,63,28,196,127,63,22,14,17,63,171,56,31,191,217,231,111,191,167,151,23,191,228,94,104,63,93,172,112,63,10,122,112,191,79,198,246,190,12,243,110,191,31,56,86,63,178,3,62,63,143,196,54,191,164,188,75,191,10,150,129,63,248,148,3,191,149,198,32,63,35,163,13,191,46,130,68,63,249,212,20,191,54,127,61,191,17,182,128,63,31,166,85,63,246,55,73,191,101,54,198,62,2,237,254,190,55,128,51,63,164,119,50,63,46,131,104,191,63,105,33,63,255,113,100,63,72,215,28,63,66,199,27,63,247,233,104,63,150,117,22,191,218,26,124,191,168,237,83,191,144,152,4,63,91,166,23,63,143,176,114,191,50,236,234,190,161,217,118,191,235,38,106,63,202,80,18,63,37,157,116,191,185,115,96,191,215,4,14,63,29,17,16,191,115,149,132,63,18,134,51,191,48,51,97,63,92,207,164,190,179,246,163,190,215,189,70,63,109,98,119,63,115,117,88,191,187,20,102,63,13,68,89,191,50,135,51,63,151,113,136,63,20,26,57,191,23,111,126,63,48,254,115,63,28,101,11,63,83,207,133,63,237,103,29,63,104,242,52,191,250,34,224,190,191,131,95,191,191,139,103,63,79,243,140,63,161,94,23,191,114,242,92,191,149,244,55,191,220,103,129,63,53,63,135,63,183,126,188,190,137,82,177,190,245,202,137,63,136,26,101,191,11,26,44,63,166,142,154,190,140,134,227,62,150,239,97,191,147,97,101,191,44,185,249,62,94,32,63,63,43,122,40,191,201,5,31,63,131,220,143,190,154,80,130,63,29,108,69,63,84,153,62,191,164,188,134,63,98,229,76,63,27,248,134,63,212,148,92,63,66,74,132,63,183,255,200,190,71,134,62,191,173,76,76,191,11,135,94,63,41,19,39,63,172,61,75,191,129,30,55,191,211,237,84,191,99,119,242,62,190,88,211,62,103,130,21,191,141,239,63,191,165,1,22,63,178,28,120,191,70,217,98,63,225,108,87,191,63,108,123,63,43,253,127,191,105,181,19,191,48,239,141,63,198,195,92,63,70,216,67,191,201,85,128,63,113,106,69,191,220,23,134,63,118,180,46,63,93,128,135,191,227,152,146,63,148,193,142,63,90,11,147,63,5,49,143,63,134,162,138,63,101,249,13,191,125,139,137,191,87,19,51,191,137,109,143,63,219,232,63,63,125,133,68,191,184,132,127,191,112,188,142,191,7,69,126,63,37,123,123,63,128,254,83,191,82,217,120,191,189,118,70,63,82,177,73,191,70,139,97,63,0,42,84,62,77,252,30,188,89,156,126,62,88,159,20,190,38,108,205,61,134,132,227,189,85,64,140,190,153,23,0,59,69,85,10,189,180,75,119,190,165,5,118,62,108,221,23,190,93,72,221,61,95,57,11,62,101,69,132,190,49,131,72,190,134,203,118,190,30,212,44,62,181,40,85,62,41,228,49,62,1,111,173,189,63,200,1,62,201,77,212,189,74,98,131,62,80,183,39,62,208,162,140,189,63,0,36,190,51,253,229,61,0,160,206,189,119,100,244,60,1,181,148,188,22,41,94,62,178,202,255,255,4,0,0,0,24,0,0,0,0,0,0,0,0,0,0,0,2,0,0,0,0,0,0,0,0,0,0,0,0,0,0,0,214,202,255,255,4,0,0,0,4,0,0,0,253,255,255,255,230,202,255,255,4,0,0,0,4,0,0,0,1,0,0,0,246,202,255,255,4,0,0,0,4,0,0,0,104,137,148,64,6,203,255,255,4,0,0,0,128,0,0,0,78,130,8,63,185,197,86,63,148,21,44,189,4,45,69,188,148,90,15,63,246,176,166,188,137,179,236,188,50,238,41,188,228,104,148,189,155,17,4,63,39,236,24,63,206,47,72,189,31,130,7,189,17,197,1,189,215,135,230,188,129,229,101,189,94,134,29,63,252,70,76,189,39,73,9,63,130,182,236,188,201,106,54,189,218,147,89,189,234,156,18,63,41,72,1,189,95,229,7,63,80,10,10,63,139,232,237,62,172,226,3,63,22,78,3,63,218,90,0,63,241,194,46,63,142,82,204,188,146,203,255,255,4,0,0,0,128,0,0,0,250,220,154,62,214,211,46,64,74,225,232,62,77,59,228,62,200,116,45,64,157,168,244,63,128,76,235,62,77,188,30,64,178,101,216,62,37,102,23,64,84,234,44,64,162,18,137,62,138,224,17,64,40,158,25,64,172,98,21,64,189,1,254,63,38,94,16,64,30,110,198,62,186,57,237,62,140,175,208,62,5,165,33,64,104,65,52,64,37,10,214,62,31,247,241,62,54,117,136,62,37,70,70,64,173,44,149,64,11,18,206,62,27,80,166,62,230,200,68,64,3,114,170,62,55,72,43,64,30,204,255,255,4,0,0,0,128,0,0,0,0,165,145,192,8,106,173,61,4,228,144,192,231,22,143,192,8,251,79,62,96,215,228,189,100,55,145,192,80,179,165,61,44,8,142,192,48,51,101,189,148,196,71,62,195,229,136,192,224,205,142,188,80,117,165,61,192,222,23,188,160,28,238,189,96,96,143,188,70,179,135,192,53,54,118,192,2,47,135,192,120,240,137,61,12,107,36,62,173,99,125,192,210,17,143,192,168,27,114,192,0,89,115,61,169,184,222,62,69,252,130,192,134,137,138,192,88,131,160,61,20,3,142,192,52,226,34,62,170,204,255,255,4,0,0,0,128,0,0,0,250,65,3,59,39,220,62,59,234,193,173,59,240,248,108,59,186,75,27,59,173,224,151,59,20,232,178,60,52,31,129,61,112,185,212,59,146,67,35,62,192,27,221,59,115,157,138,60,74,105,172,59,13,200,18,60,215,158,201,59,36,11,114,61,118,211,147,61,55,185,12,60,59,14,44,60,227,179,36,59,239,51,115,59,242,10,92,59,147,250,163,58,12,60,84,61,120,113,80,61,34,39,135,61,120,172,184,60,32,226,13,61,65,118,47,61,234,119,121,59,17,24,8,62,79,167,168,62,54,205,255,255,4,0,0,0,128,0,0,0,100,206,123,190,101,111,248,190,180,24,122,191,58,85,184,189,202,198,88,191,225,76,72,191,216,176,116,191,221,216,142,191,8,208,73,191,132,48,98,191,215,83,66,191,216,42,217,190,81,115,50,191,136,48,174,62,248,52,189,190,60,41,102,191,232,125,59,191,168,135,187,190,72,11,216,190,44,135,164,190,60,190,34,191,154,183,79,191,177,136,151,61,127,55,34,191,106,249,254,190,146,103,170,191,243,111,35,191,176,210,225,188,146,157,26,191,121,48,52,191,42,139,98,191,236,105,113,191,194,205,255,255,4,0,0,0,0,48,0,0,175,117,89,190,250,54,176,61,95,141,48,191,204,65,100,60,72,182,181,190,132,135,10,191,182,165,44,191,131,82,40,191,160,255,238,190,10,248,58,190,206,34,194,190,238,147,25,63,208,235,40,191,146,124,4,189,144,36,0,191,45,76,133,190,152,140,172,189,247,105,6,190,171,213,112,191,115,182,59,62,211,163,13,191,197,98,230,190,45,143,26,62,227,122,11,190,48,5,67,190,201,222,71,191,50,231,108,190,118,82,82,62,139,216,171,190,99,216,224,190,197,153,92,61,37,122,47,191,59,54,61,190,221,11,105,190,187,230,250,190,2,63,134,59,251,75,200,190,97,167,129,190,41,23,196,188,201,51,22,190,193,0,11,190,79,23,189,189,158,44,3,190,90,44,226,61,197,44,216,190,226,233,158,62,207,98,243,190,79,46,31,62,8,47,24,190,175,90,104,190,153,31,15,62,163,255,233,189,178,12,166,190,157,196,200,190,27,2,156,189,17,20,58,61,116,83,20,190,89,23,75,190,118,180,164,62,9,134,239,61,250,34,55,61,186,184,87,190,206,196,174,189,251,43,86,191,23,29,136,188,102,241,181,190,158,66,121,191,23,200,132,61,145,80,240,190,106,112,197,190,222,220,113,62,135,111,219,190,54,199,207,190,72,41,181,189,54,39,224,190,3,117,201,61,10,246,188,189,17,134,54,63,103,53,187,61,59,203,20,61,174,161,221,61,242,127,54,61,12,14,104,188,207,74,129,190,231,115,47,189,123,238,39,190,107,179,148,62,157,185,87,62,253,54,247,62,99,212,44,191,163,255,35,191,229,65,4,63,88,233,138,189,125,250,202,190,223,203,185,60,160,21,109,62,187,37,199,189,47,74,144,190,49,174,38,190,208,87,167,190,194,194,91,190,238,176,222,60,55,191,14,191,35,174,55,188,160,184,234,61,162,167,57,190,197,189,159,61,202,94,125,190,6,2,249,189,70,152,49,191,54,109,183,61,152,59,6,191,240,176,119,62,197,135,191,61,10,16,211,190,118,97,234,189,120,221,32,190,198,124,190,189,235,197,157,188,71,207,5,191,21,45,63,62,121,88,179,62,121,26,131,189,76,123,19,191,29,101,8,191,43,127,172,60,59,3,45,190,161,195,245,61,114,185,107,61,143,253,251,61,77,87,22,62,53,225,218,61,84,219,210,61,27,0,1,62,229,20,131,190,10,82,147,62,97,150,252,61,254,229,23,189,198,177,93,62,100,230,105,189,185,92,196,189,136,153,217,190,221,44,70,62,113,255,8,191,139,94,59,62,203,5,137,190,174,11,140,190,118,82,127,62,172,178,41,61,28,228,31,189,63,55,242,60,208,68,5,191,194,244,12,62,16,127,239,62,176,185,228,62,129,179,208,190,234,21,255,190,86,170,192,61,237,234,7,62,118,217,231,189,237,152,8,62,55,242,173,62,69,6,237,62,74,121,147,62,156,202,251,62,111,16,197,62,219,135,139,62,58,137,150,62,61,66,187,62,62,44,164,62,243,254,182,62,241,146,229,190,135,73,26,62,221,150,178,61,7,248,31,61,182,75,240,60,86,206,63,62,71,183,93,61,39,102,132,62,15,21,190,62,25,26,83,62,227,182,168,62,125,231,26,188,101,48,91,61,91,34,9,188,75,2,199,62,137,137,220,62,52,158,235,189,180,179,175,61,234,154,135,62,112,179,228,62,155,226,223,189,96,171,15,63,121,95,52,62,153,197,33,189,70,215,218,62,43,188,5,188,158,78,92,190,183,223,136,190,161,78,229,190,216,133,229,190,7,125,244,190,39,14,176,190,7,107,148,62,33,71,168,61,248,41,149,62,232,175,96,189,160,169,29,61,172,150,44,190,218,253,251,60,82,106,135,190,218,156,154,188,203,52,167,62,172,46,27,62,176,234,65,61,123,32,211,61,85,41,254,190,25,78,61,191,42,39,22,191,128,162,134,62,219,37,147,61,239,251,60,190,135,184,138,61,150,239,242,191,213,27,123,61,222,40,46,190,72,11,39,190,4,243,153,189,101,16,117,188,240,209,180,190,21,34,28,190,31,83,199,190,200,68,173,190,14,53,189,190,8,115,198,190,70,233,69,62,235,194,162,190,201,237,203,62,128,20,134,61,66,212,82,190,245,47,134,190,8,67,0,62,162,88,225,61,118,223,44,190,140,74,233,188,11,100,71,190,68,108,140,189,192,82,131,188,34,29,86,190,164,158,243,190,184,185,138,190,90,176,149,62,8,141,8,60,197,27,36,190,128,147,173,60,234,125,167,191,111,181,93,61,146,104,232,187,250,136,247,188,65,81,242,189,150,146,137,189,233,59,101,190,40,3,97,62,135,133,2,191,250,156,109,190,156,226,136,190,194,147,149,190,249,153,146,62,125,57,81,190,249,230,148,61,218,47,120,62,120,42,190,188,247,228,27,62,227,255,105,189,194,31,154,62,151,185,205,189,66,224,63,190,145,16,102,190,12,241,36,189,175,149,201,185,91,106,99,62,113,159,93,191,158,140,3,191,59,91,145,62,32,145,125,61,220,23,225,189,253,234,48,62,234,111,233,61,26,108,147,62,198,120,30,62,48,108,39,190,201,70,114,62,183,208,23,62,88,163,12,191,204,116,160,190,209,255,232,190,213,158,100,191,249,52,123,190,201,88,10,191,72,198,25,63,142,5,136,189,248,184,183,61,101,199,241,189,181,3,65,190,113,39,62,190,12,145,253,189,97,222,179,190,214,78,0,62,44,220,23,62,229,160,159,62,169,61,0,61,180,90,229,189,219,172,162,190,189,13,50,191,96,212,116,189,60,211,159,62,250,201,161,190,95,254,196,190,197,199,193,189,60,100,251,191,56,79,209,59,188,46,71,189,126,0,128,190,118,154,31,62,69,10,214,189,193,236,98,189,45,203,253,188,228,172,110,190,212,130,81,190,232,222,20,190,62,29,145,189,148,99,23,62,103,114,125,190,126,105,243,61,132,193,74,190,14,47,6,190,81,215,191,190,228,91,56,61,206,16,37,60,35,164,47,190,35,41,118,190,63,81,172,190,220,208,247,188,58,141,9,189,113,184,109,190,230,183,1,191,177,143,128,190,163,211,37,62,78,158,100,61,35,50,214,61,2,153,2,190,16,213,154,191,51,241,28,189,20,140,108,190,79,73,126,190,196,13,141,189,186,20,176,189,232,170,82,190,24,242,81,62,10,249,234,190,118,109,159,190,96,1,77,189,30,4,199,190,121,185,44,61,184,140,245,188,27,118,183,62,102,39,143,62,73,7,11,189,34,239,76,189,162,238,76,61,224,39,131,62,223,19,36,190,103,15,128,61,166,179,148,190,242,102,254,188,252,31,237,61,59,120,60,62,43,230,54,191,33,137,189,190,246,119,0,63,82,160,169,61,148,191,132,60,39,226,36,62,145,173,166,62,205,32,167,190,250,235,98,190,147,58,102,190,255,181,146,190,34,235,66,190,176,64,101,62,79,214,105,189,133,229,225,62,148,102,188,62,37,93,198,189,0,208,31,62,150,92,33,189,76,73,234,189,40,195,219,190,243,97,36,190,195,88,37,191,208,7,228,62,139,162,108,190,121,95,12,62,28,220,148,189,54,184,84,190,242,9,211,189,104,32,22,190,97,88,46,191,139,228,120,189,139,190,51,63,22,212,147,188,152,192,26,191,54,127,41,191,159,245,8,62,49,0,74,62,230,7,162,190,196,138,226,62,82,56,150,62,74,102,0,63,12,21,148,62,2,99,214,62,205,16,200,61,71,6,62,187,113,36,82,62,128,193,136,61,86,187,159,62,119,14,234,61,102,92,141,189,27,114,117,62,228,81,195,189,211,40,173,61,55,116,140,62,242,211,61,62,33,93,8,62,53,97,244,189,66,174,136,62,78,228,190,62,242,183,180,62,83,2,225,61,56,176,150,62,128,98,154,188,72,108,100,62,117,149,194,62,180,236,145,61,156,197,46,62,132,16,180,61,138,190,228,62,183,20,14,191,145,85,27,190,82,245,205,188,232,147,41,190,84,87,58,190,157,249,217,189,125,181,201,62,35,80,222,62,78,42,238,61,72,189,194,62,242,103,48,62,149,13,36,62,187,103,31,191,118,201,9,61,59,235,176,61,69,35,85,61,126,106,237,62,125,172,214,62,168,135,24,62,26,179,2,63,223,182,90,190,160,107,221,189,81,255,171,61,106,240,66,190,89,47,126,62,31,124,53,62,48,91,129,62,75,80,189,190,232,112,20,188,168,26,166,62,208,255,143,62,151,78,66,62,147,62,87,190,234,35,239,189,232,10,164,61,232,26,67,189,245,220,43,61,173,127,6,60,25,107,127,62,87,235,56,62,43,24,35,190,42,245,167,62,96,247,25,190,104,230,52,62,176,226,111,191,102,39,206,61,183,135,144,61,174,222,213,189,36,193,220,190,30,176,52,190,233,38,205,190,81,199,138,62,98,247,163,61,204,107,30,190,37,53,202,61,250,123,133,190,177,44,211,190,220,0,148,61,241,131,38,62,27,44,19,62,20,108,0,191,219,65,203,190,165,244,173,62,255,84,116,190,255,36,234,189,192,4,102,62,4,149,242,60,123,71,133,61,210,23,101,62,118,17,163,60,35,35,30,62,50,210,133,189,102,61,134,61,236,114,44,62,93,139,88,190,189,94,94,62,89,14,78,191,177,122,53,62,61,238,211,189,225,112,40,62,27,24,180,190,252,217,53,190,123,220,108,62,145,150,141,189,175,252,200,61,41,15,123,62,31,155,84,62,131,206,7,61,58,49,143,190,114,2,231,189,251,255,182,62,128,159,162,62,236,80,149,190,235,159,170,190,176,181,81,61,46,232,118,190,202,227,209,190,231,222,35,62,21,0,195,62,120,23,175,62,108,163,180,62,226,102,170,62,187,22,141,62,4,189,149,62,90,119,246,61,189,142,170,62,118,115,166,60,239,20,151,62,122,179,32,191,251,13,185,62,139,54,49,61,121,122,7,62,39,227,32,190,212,33,110,189,66,119,29,62,241,59,73,62,95,180,227,62,82,127,136,62,120,144,155,62,132,247,69,187,183,70,224,189,23,179,180,189,1,236,193,62,89,24,19,63,30,79,217,190,212,79,251,189,250,165,95,62,47,146,138,62,122,99,103,188,241,239,210,61,102,32,6,62,34,150,151,188,151,165,217,61,161,174,164,61,97,197,182,190,88,73,131,190,15,232,16,191,203,36,87,191,40,198,239,190,22,74,253,190,156,235,249,62,249,253,33,190,94,166,66,62,91,169,53,190,61,120,26,190,177,79,56,190,166,57,135,188,251,198,227,190,213,193,154,61,231,183,58,61,186,93,83,61,30,60,103,189,152,3,150,189,149,209,165,190,103,34,70,191,142,237,157,189,108,67,134,62,211,248,75,190,151,54,151,190,98,173,25,61,12,37,248,191,150,230,226,189,63,128,73,190,158,91,160,190,95,51,142,188,2,207,115,189,148,63,55,190,58,204,140,189,126,11,204,190,4,240,102,61,58,83,32,190,168,59,246,188,34,130,92,62,160,118,27,191,95,99,132,62,102,78,225,189,230,208,147,189,183,5,109,188,228,105,95,62,21,1,219,60,117,222,90,190,188,56,41,190,84,193,93,190,165,63,102,190,44,3,196,189,165,75,230,188,193,213,237,190,141,11,135,190,220,219,43,62,23,155,163,61,92,98,133,60,49,224,90,189,152,236,140,191,107,88,244,61,213,47,125,189,65,41,153,190,227,191,191,60,160,207,84,190,81,92,70,190,3,75,187,62,223,27,235,190,83,114,184,190,193,230,15,190,250,32,140,190,79,65,177,61,152,234,122,61,119,38,148,62,221,56,154,62,109,59,47,62,14,157,35,62,121,149,41,190,117,132,156,62,156,128,139,190,124,88,14,61,178,172,8,190,29,31,88,62,232,223,1,59,2,128,160,62,232,213,65,191,184,191,195,190,66,16,248,62,107,238,44,188,251,62,142,189,3,185,203,61,163,52,119,62,19,86,79,190,32,215,85,187,83,124,31,190,135,98,14,190,224,249,13,189,127,225,24,62,116,94,253,190,233,183,20,190,38,160,136,61,79,70,48,190,243,179,89,62,155,150,66,191,61,192,97,190,93,222,90,191,121,99,12,190,255,115,196,190,98,222,182,189,7,136,13,191,7,111,163,190,150,253,50,62,162,112,17,190,145,97,50,190,8,144,129,190,16,35,196,190,10,134,22,61,228,169,139,62,113,28,72,59,200,196,48,191,234,141,158,190,118,4,187,60,211,19,120,190,194,55,214,61,223,69,40,189,47,250,121,61,173,4,203,61,74,46,33,62,213,38,142,61,84,161,214,61,119,147,182,60,196,145,25,62,210,51,165,61,56,104,14,190,165,193,250,61,234,244,92,191,134,32,41,62,228,204,178,189,254,84,165,186,137,40,186,190,170,255,78,58,214,126,31,190,186,40,36,61,67,143,235,61,159,240,211,61,148,76,161,61,9,251,126,185,157,184,178,190,77,196,130,189,252,52,0,63,196,218,203,62,203,111,186,190,146,68,162,190,80,63,61,62,98,86,146,189,121,135,222,190,87,45,94,62,196,145,155,62,127,205,190,62,154,234,98,62,229,96,179,62,120,232,164,62,163,246,189,62,219,103,135,62,216,107,205,62,177,120,14,62,190,2,193,62,31,173,249,190,230,2,49,62,198,152,146,61,109,202,75,61,242,88,24,61,69,111,38,61,187,73,164,62,227,150,198,62,254,115,154,62,18,63,160,62,229,16,129,62,156,211,194,61,208,72,178,189,129,145,160,61,198,206,6,63,212,230,12,63,214,186,137,190,141,226,254,61,254,65,145,62,215,8,24,62,103,112,135,189,204,16,98,61,19,165,186,62,173,38,23,190,38,193,116,62,197,59,184,61,140,176,251,190,51,187,230,190,210,154,31,191,49,223,33,191,204,203,156,190,48,41,244,190,179,91,216,62,140,33,137,190,206,195,10,61,180,116,152,190,66,58,74,190,204,247,97,190,18,208,176,190,24,12,178,190,169,164,160,62,179,165,233,188,133,91,207,188,224,126,208,61,255,114,109,189,143,183,181,190,27,23,73,191,63,168,105,190,192,202,111,62,26,245,170,189,111,251,186,190,125,46,179,189,22,135,2,192,67,46,36,190,1,164,86,190,195,61,184,190,182,225,159,61,28,47,137,190,200,108,79,189,169,173,52,190,194,241,134,190,122,43,211,61,120,39,57,190,211,229,21,60,138,67,93,62,155,119,167,190,21,170,59,62,226,49,228,188,132,176,167,189,56,108,132,190,99,14,173,61,103,242,88,61,27,55,92,190,210,75,63,190,120,174,178,190,179,18,223,59,160,15,31,188,140,28,1,190,30,91,152,190,83,36,46,190,253,37,36,62,117,130,14,190,204,111,168,61,43,203,42,190,104,234,123,191,61,99,226,61,185,113,152,190,252,91,133,189,85,58,9,62,35,6,145,190,143,208,145,190,51,211,162,62,46,30,218,190,173,240,146,190,28,152,128,189,35,87,155,190,72,70,201,60,74,183,27,62,11,28,8,63,184,177,220,62,140,84,8,62,225,120,33,62,21,209,124,189,10,193,55,62,241,129,103,190,195,232,154,189,20,24,39,189,145,2,241,61,211,224,198,61,116,234,137,62,213,42,70,191,75,15,233,190,62,90,224,62,135,138,157,61,125,82,108,190,140,236,76,62,139,148,242,61,194,115,88,190,210,199,29,189,236,68,105,189,169,255,227,188,36,249,129,57,32,141,165,61,16,123,215,190,203,158,0,190,132,236,46,62,144,85,138,190,79,60,90,62,75,182,90,191,96,186,62,190,98,210,45,191,210,225,136,189,217,255,194,190,141,244,21,190,133,30,5,191,37,189,120,190,247,82,222,61,127,148,35,190,28,225,163,57,14,118,117,190,158,27,200,190,57,186,69,62,213,5,69,62,55,118,22,62,55,255,21,191,128,66,195,190,83,3,204,61,65,18,151,190,215,206,11,61,140,243,181,188,230,180,242,61,132,135,190,61,95,123,166,61,56,161,191,61,12,103,98,62,207,21,149,61,12,0,237,61,58,91,98,62,81,254,14,190,83,61,26,62,117,192,106,191,218,254,70,62,90,70,51,187,156,61,124,189,194,177,180,190,216,173,236,189,37,55,119,189,219,58,51,187,110,119,231,61,88,181,0,62,67,248,135,62,128,119,168,188,11,167,193,190,133,203,34,190,212,248,223,62,171,229,178,62,29,111,183,190,206,11,163,190,134,137,200,61,249,252,140,189,83,85,199,190,27,140,99,62,40,113,198,62,204,19,179,62,142,148,149,62,245,166,155,62,148,118,170,62,251,223,166,62,130,165,70,62,189,24,151,62,94,147,216,60,40,15,146,62,229,193,224,190,137,139,158,62,60,215,203,61,9,40,237,61,104,46,209,61,125,95,157,189,121,65,131,62,178,138,149,62,72,54,162,62,30,31,162,62,35,62,184,62,206,96,193,61,241,48,175,188,25,214,8,61,23,58,246,62,225,92,254,62,220,231,103,190,27,65,67,61,179,173,42,62,132,5,64,62,230,108,75,190,213,106,99,190,247,50,133,190,117,119,3,190,65,126,187,190,149,214,162,190,105,211,245,61,145,102,62,61,239,78,248,62,92,185,218,61,5,167,160,189,118,205,132,61,47,186,181,189,15,121,45,62,128,14,40,190,238,102,27,60,168,225,68,191,79,130,216,62,157,58,230,189,165,59,79,62,103,19,69,190,12,223,130,190,89,17,205,189,217,249,105,189,5,143,50,191,233,71,110,189,10,220,43,63,250,41,162,59,38,143,2,191,253,66,88,191,254,58,246,61,104,218,155,62,93,69,164,190,31,28,226,62,33,20,181,62,237,222,14,63,16,244,104,62,87,8,1,63,124,84,93,62,137,24,55,189,130,43,111,62,175,26,36,60,145,53,137,62,39,70,82,62,165,53,190,189,254,42,233,61,230,91,62,190,173,96,109,62,154,60,76,62,172,119,137,62,172,231,1,62,35,83,112,190,232,244,162,62,186,109,191,62,143,250,187,62,103,165,36,60,127,95,61,62,15,50,216,61,28,26,51,62,227,237,198,62,44,198,164,60,201,49,92,62,245,110,32,61,250,132,226,62,201,97,155,190,154,109,104,190,84,104,187,189,71,132,37,190,218,143,142,190,198,188,240,187,93,215,184,62,53,78,187,62,251,187,249,61,163,222,230,62,59,214,23,62,97,180,71,62,103,6,27,191,245,59,4,61,181,39,154,61,184,42,151,61,247,235,106,62,27,159,234,62,153,208,28,187,126,117,245,62,125,209,102,190,206,37,7,190,97,235,33,62,227,88,28,190,100,135,226,61,170,144,7,62,46,118,61,62,245,241,158,190,95,185,201,189,125,244,137,62,86,180,149,62,76,65,139,62,35,7,13,189,164,67,212,60,96,11,164,60,95,174,23,190,232,94,192,62,155,170,61,190,66,58,51,191,216,79,4,191,29,184,28,191,180,1,84,191,158,8,129,190,129,222,197,190,186,3,232,62,51,23,108,191,203,202,218,59,86,19,216,189,241,145,131,190,170,88,100,189,21,100,146,61,55,107,28,191,117,80,145,61,197,158,62,189,137,198,165,190,231,46,39,62,5,163,210,189,233,217,150,61,39,159,68,191,86,204,231,190,227,176,12,189,20,131,117,190,13,97,250,190,83,29,13,189,83,218,194,190,29,118,3,191,235,103,222,190,18,145,125,191,25,133,89,190,20,71,10,191,241,26,213,190,75,103,246,61,102,69,147,60,126,192,158,190,227,77,80,190,57,238,192,190,195,191,247,61,180,134,175,189,122,11,139,62,120,59,187,190,114,189,163,189,239,221,81,189,251,22,207,190,147,137,223,61,182,244,87,190,20,45,23,191,139,75,241,190,44,218,159,189,100,112,253,189,119,23,237,189,130,60,43,190,164,234,37,62,5,79,27,62,31,24,225,189,7,237,169,190,174,227,40,61,139,242,147,191,229,187,146,61,227,138,54,191,140,181,57,190,23,240,151,188,221,85,42,191,21,19,237,190,159,54,28,62,145,122,190,190,121,131,85,191,213,214,221,60,77,76,8,191,150,189,200,189,45,196,169,190,236,214,222,62,58,141,142,61,35,204,122,61,86,227,153,62,145,135,4,62,137,204,171,190,91,6,200,190,42,210,93,190,178,177,253,190,232,18,56,62,255,249,18,61,24,253,249,62,56,39,225,190,172,63,0,191,63,247,204,62,137,122,46,62,48,255,10,191,144,108,108,62,48,195,192,62,82,65,60,190,68,219,13,61,191,94,191,189,225,154,147,189,250,20,100,57,114,77,190,61,202,251,20,191,242,58,62,190,149,235,10,62,174,160,153,190,97,63,99,62,105,109,79,191,33,19,149,190,130,158,42,191,172,107,173,188,194,147,205,190,135,150,3,62,237,152,206,190,4,217,210,190,89,69,31,62,232,247,104,189,176,138,18,189,189,220,125,190,105,133,205,190,186,107,100,62,102,53,56,62,8,90,69,62,228,108,75,191,228,27,206,190,241,215,199,61,126,235,177,190,196,213,184,62,126,149,134,187,234,100,218,61,204,246,5,62,223,167,24,62,99,143,160,61,43,3,136,62,140,10,232,60,3,204,235,61,64,100,246,61,173,58,5,189,43,90,58,62,140,249,49,191,118,232,233,61,67,247,109,189,221,65,166,188,128,68,201,190,66,134,143,188,79,170,138,190,26,133,48,189,251,26,41,62,129,188,142,61,230,216,115,62,167,34,4,62,91,205,192,190,167,89,5,61,152,44,235,62,195,37,207,62,162,0,122,190,225,169,170,190,153,248,181,61,11,236,222,60,160,238,249,190,187,122,143,62,190,142,144,62,218,155,188,62,139,86,142,62,76,186,148,62,164,107,205,62,6,203,135,62,168,195,112,62,86,156,202,62,246,7,7,60,229,62,174,62,249,146,11,191,1,82,72,62,14,16,236,61,43,101,121,60,235,128,123,189,28,140,140,189,237,53,43,62,157,51,151,62,50,152,161,62,10,177,159,62,111,244,182,62,237,110,33,62,84,68,32,60,179,129,86,189,191,16,6,63,203,242,220,62,143,78,163,190,90,183,26,62,215,28,42,62,138,185,62,62,81,94,78,190,132,68,16,190,231,110,131,189,24,31,88,190,52,82,248,189,90,176,239,189,171,8,55,188,53,58,17,191,163,104,137,62,225,138,97,61,67,152,49,61,234,116,226,61,236,161,160,61,68,110,133,190,227,39,23,191,105,65,162,61,92,101,11,191,162,135,158,62,42,202,76,60,230,27,183,190,131,60,163,188,12,46,166,189,114,31,3,190,224,34,6,56,169,203,18,191,71,228,152,62,168,174,2,63,36,134,128,188,77,7,227,190,118,7,24,191,131,213,86,61,136,27,14,190,174,104,150,61,225,35,133,189,240,87,197,61,170,114,23,62,175,104,168,61,9,219,181,61,190,23,33,61,57,200,51,190,248,141,171,62,208,227,142,61,145,15,75,61,185,146,45,62,145,175,2,190,41,186,94,189,17,207,133,190,19,152,175,189,208,170,2,191,53,117,3,62,249,116,95,190,12,16,179,189,123,50,116,62,69,227,169,187,161,26,36,61,121,100,82,61,110,66,11,191,26,190,221,60,115,57,234,62,4,156,180,62,153,70,180,190,1,125,5,191,237,102,141,61,244,116,95,62,71,178,144,190,55,233,105,62,28,4,206,62,8,171,15,63,233,228,162,62,12,224,0,63,1,187,172,62,45,34,130,62,198,104,129,62,64,150,182,62,136,200,101,62,163,78,191,62,70,135,228,190,129,167,137,61,3,206,49,62,213,171,156,188,16,220,42,62,71,172,17,62,226,44,34,189,227,211,82,62,85,220,178,62,9,47,126,62,173,218,164,62,42,47,100,61,78,168,30,62,188,90,166,61,227,13,185,62,20,88,251,62,52,92,185,189,246,84,73,62,145,197,139,62,210,98,117,62,100,107,104,189,194,218,98,190,99,143,213,186,135,187,81,189,104,57,38,61,137,210,42,188,164,52,58,62,121,71,229,190,41,253,206,189,82,29,17,62,186,239,125,190,225,227,241,61,241,54,91,191,243,207,69,190,158,190,73,191,239,254,150,189,203,104,196,190,237,187,79,190,104,34,223,190,61,29,147,190,168,237,221,61,217,57,136,189,70,71,165,189,50,91,174,190,26,129,183,190,35,58,49,189,132,21,87,62,46,247,94,62,22,132,19,191,58,229,178,190,73,204,210,61,36,247,142,190,133,70,119,60,217,90,240,59,184,129,237,61,221,203,1,62,57,80,154,60,118,137,189,61,226,105,65,62,54,187,168,61,125,88,142,61,154,38,47,62,37,229,244,189,190,172,188,61,48,254,97,191,175,156,68,62,36,75,171,189,78,52,26,60,166,82,149,190,117,51,11,190,37,235,51,190,51,252,10,188,124,82,213,61,156,167,171,61,8,37,128,62,37,140,167,189,230,228,166,190,27,5,172,189,65,122,182,62,49,79,171,62,18,181,139,190,20,65,184,190,98,167,27,62,228,86,78,190,124,189,203,190,104,59,84,62,162,58,162,62,174,94,209,62,222,160,164,62,113,97,185,62,173,54,158,62,102,37,220,62,102,125,98,62,103,255,179,62,182,175,37,61,174,53,132,62,120,232,246,190,30,123,83,62,213,173,86,61,233,152,184,61,215,55,175,187,217,71,167,189,16,203,72,62,126,7,130,62,166,70,159,62,174,200,149,62,246,255,131,62,221,146,103,61,68,42,61,189,221,86,181,189,199,46,1,63,234,120,4,63,40,57,155,190,124,3,1,190,131,201,123,62,190,63,97,62,150,13,218,189,165,231,228,189,1,140,159,61,229,149,204,189,112,53,43,189,49,20,140,61,106,41,174,62,117,208,220,61,74,197,19,190,224,90,151,62,123,190,132,190,96,107,121,62,171,53,123,191,1,6,185,189,239,59,134,60,239,54,109,190,25,47,206,190,125,24,3,189,218,4,8,191,218,179,61,62,212,31,162,61,8,115,53,190,248,23,159,188,5,224,90,190,240,53,224,190,126,187,105,61,92,99,137,61,170,50,1,62,80,244,242,190,148,159,235,190,99,155,167,62,182,20,131,190,146,217,250,187,246,166,41,62,181,25,177,61,132,31,218,59,26,139,50,62,147,39,44,61,41,97,29,62,181,108,27,188,90,53,8,62,101,56,85,62,203,102,107,190,161,123,90,62,198,161,88,191,135,96,54,62,221,254,178,189,173,190,209,60,3,249,160,190,60,176,4,190,221,200,140,62,58,200,153,188,170,240,2,62,191,110,172,62,185,124,129,62,236,69,159,61,179,48,171,190,185,55,234,189,81,242,192,62,33,253,166,62,91,121,209,190,89,167,164,190,238,163,93,62,46,115,54,190,253,212,173,190,183,2,99,62,48,188,162,62,223,142,188,62,20,229,179,62,174,162,186,62,189,182,164,62,32,57,133,62,60,188,0,62,193,235,146,62,33,63,255,188,231,64,153,62,159,14,21,191,129,27,115,62,21,222,57,61,83,12,48,61,133,68,106,60,250,104,7,190,221,86,175,61,250,217,73,62,107,49,196,62,100,227,155,62,4,92,121,62,94,168,222,61,8,219,237,189,42,224,166,58,31,165,226,62,243,235,25,63,134,106,210,190,57,228,158,189,219,179,86,62,245,71,25,62,230,198,100,61,0,83,105,190,194,62,14,61,215,230,2,190,232,168,146,188,153,104,23,188,226,73,129,62,164,176,24,191,27,141,44,190,228,25,203,61,97,12,172,190,174,250,131,62,95,10,104,191,165,74,127,190,200,218,44,191,5,49,49,189,233,207,204,190,164,194,81,61,102,36,217,190,183,112,225,190,91,114,33,62,0,88,60,190,227,196,12,189,250,129,110,190,94,174,217,190,49,204,55,62,220,167,86,62,52,210,86,62,53,36,57,191,135,106,201,190,50,133,68,62,131,94,183,190,35,197,199,62,144,120,99,189,241,73,204,61,46,67,203,61,157,49,210,61,126,117,0,62,13,202,113,62,29,47,206,188,198,137,189,61,12,214,101,62,42,85,46,188,43,129,3,62,39,91,40,191,127,153,27,61,180,161,114,187,199,37,117,59,218,192,194,190,126,49,206,187,50,193,141,190,25,188,34,189,122,75,47,62,46,105,40,62,144,212,94,62,171,166,195,60,178,36,190,190,233,92,82,189,159,51,4,63,160,193,186,62,255,151,162,190,61,119,160,190,93,179,125,61,29,20,167,60,110,241,1,191,238,52,92,62,202,41,184,62,35,163,178,62,184,90,98,62,118,125,155,62,29,46,171,62,34,12,134,62,50,116,132,62,101,20,209,62,9,131,70,188,6,145,148,62,45,5,5,191,200,227,99,62,30,16,171,61,74,17,248,59,206,195,17,61,156,196,75,190,96,89,84,62,29,222,127,62,84,151,156,62,16,170,170,62,15,66,181,62,81,177,119,61,129,166,82,189,7,100,174,189,51,100,11,63,244,25,216,62,118,221,128,190,3,107,74,60,57,226,106,62,126,210,53,62,106,192,74,190,138,149,206,189,168,97,222,61,144,106,175,61,225,192,62,61,95,4,11,190,118,174,117,190,195,62,220,190,44,42,217,190,150,132,222,190,179,83,245,189,250,160,232,190,38,34,68,62,113,235,55,191,197,198,11,190,194,94,247,190,47,4,96,190,204,160,56,61,121,196,140,190,218,41,247,190,72,254,102,62,60,2,235,189,145,8,68,190,154,75,21,190,17,214,98,190,84,154,181,190,43,186,52,191,219,144,221,190,32,125,173,61,54,238,145,190,61,93,154,190,71,83,203,61,168,121,131,191,153,15,152,190,91,127,216,190,191,220,49,191,82,162,125,190,39,41,120,190,93,162,46,190,78,51,160,190,232,227,131,190,221,145,125,189,139,171,252,188,206,240,185,190,13,91,34,62,173,238,51,189,140,108,174,62,204,64,158,189,116,64,134,188,254,148,61,60,182,214,193,190,227,84,5,61,145,56,182,190,65,10,145,190,123,226,141,190,46,169,252,188,124,166,27,189,13,59,232,189,223,225,2,191,73,192,157,190,10,34,173,62,198,183,243,189,45,8,91,190,210,0,49,62,90,73,59,191,7,0,79,59,241,187,219,190,237,108,105,190,110,34,35,189,146,178,157,190,116,87,219,190,211,130,230,62,129,199,111,190,206,186,19,191,60,5,208,186,139,218,163,190,195,182,33,189,161,134,207,62,191,182,115,62,222,35,180,62,122,75,171,187,103,17,52,62,79,161,234,61,87,241,58,187,123,101,51,190,65,24,220,189,221,227,61,190,188,120,44,62,161,182,140,61,177,194,205,62,5,247,237,190,185,251,154,190,70,29,213,62,2,232,110,60,202,169,168,190,191,153,33,62,207,24,172,62,188,27,114,62,4,198,232,61,129,1,167,190,83,212,66,62,71,114,69,62,18,219,118,190,135,74,243,190,2,63,201,190,109,44,234,190,20,8,166,190,95,125,145,190,252,191,1,63,147,62,93,60,102,106,7,61,174,4,243,189,101,195,18,190,189,238,137,190,16,180,166,61,114,6,49,190,71,231,128,187,251,220,51,62,132,26,1,62,97,241,210,60,22,255,150,190,214,168,143,190,87,131,73,191,211,100,14,191,72,36,30,61,133,204,140,190,62,32,64,190,84,175,198,61,242,1,235,191,126,21,230,189,92,125,193,189,190,238,46,190,55,166,88,190,183,223,29,189,236,138,81,190,148,104,215,61,183,149,204,190,150,3,100,190,24,240,103,190,241,105,201,190,125,234,157,61,70,213,10,60,125,193,84,62,187,71,145,62,200,66,31,190,70,56,113,61,59,138,60,190,19,181,148,62,91,25,145,190,198,137,173,190,230,73,91,190,199,199,76,189,226,227,30,60,53,194,52,61,28,48,181,190,142,245,181,189,26,2,121,62,159,5,48,190,104,156,140,190,228,129,151,188,0,247,156,191,4,32,154,188,179,141,146,190,60,225,10,62,23,44,38,188,4,166,10,190,157,85,159,190,202,155,31,63,28,93,178,190,176,133,188,190,136,45,23,62,218,189,110,190,170,180,243,187,249,120,147,59,22,166,17,63,19,77,189,62,167,23,25,62,162,209,64,62,192,43,102,62,98,163,18,63,110,164,224,189,116,99,147,190,181,230,165,189,72,93,234,188,48,244,22,187,209,28,54,62,111,34,33,191,41,184,169,190,136,27,162,62,142,204,89,62,100,182,180,190,114,78,26,62,221,251,121,62,135,193,49,62,198,254,234,61,67,45,65,190,88,23,137,62,253,72,88,61,39,99,10,191,183,59,161,190,12,78,172,190,180,91,1,191,202,156,251,190,68,116,232,190,233,217,160,62,249,193,91,190,209,161,47,60,93,76,173,190,116,163,171,190,93,25,220,189,34,56,113,190,110,187,162,190,10,31,186,60,107,163,78,62,66,180,47,57,115,193,7,62,84,123,42,190,9,211,13,191,95,15,26,191,152,54,22,188,131,255,55,62,36,30,12,190,232,151,162,190,237,136,46,61,165,133,2,192,237,29,129,189,22,218,122,190,240,183,176,190,147,59,89,188,143,75,62,190,76,50,227,189,193,69,72,190,253,107,193,190,253,106,64,61,194,125,25,190,50,49,151,189,177,199,149,62,201,181,253,190,120,200,123,62,103,231,138,189,212,164,58,190,39,74,65,190,45,3,35,190,32,2,208,56,162,105,97,190,44,254,72,190,196,107,151,190,162,225,110,190,158,204,144,189,208,102,45,190,224,59,227,190,36,223,156,190,97,136,188,62,184,201,40,61,223,79,104,189,205,170,168,189,135,223,162,191,152,193,203,61,190,127,138,190,125,133,18,190,105,104,63,190,72,254,165,190,95,143,109,190,57,245,199,62,49,25,181,190,235,167,53,190,209,85,161,189,56,192,1,190,78,176,44,190,9,217,95,62,89,119,29,63,21,56,187,62,43,177,241,61,137,226,132,62,242,156,232,61,13,14,147,62,100,243,136,190,244,43,253,189,3,86,82,190,251,75,218,188,45,95,22,188,13,161,163,62,230,78,7,191,216,153,189,190,231,126,2,63,197,116,234,61,82,32,138,190,206,241,242,61,220,129,248,61,246,101,93,189,12,232,9,190,47,174,94,190,112,4,45,190,9,61,16,190,161,196,86,61,12,130,32,191,85,14,171,60,245,3,7,62,134,171,71,190,211,127,193,61,47,14,82,190,183,52,146,190,14,46,26,191,254,137,216,61,202,132,0,191,80,88,50,62,217,50,9,61,140,220,236,190,184,67,73,190,24,73,2,190,90,168,238,60,166,170,142,189,97,43,240,190,123,225,94,62,170,108,82,62,109,214,77,190,112,96,28,191,245,178,238,190,243,251,0,189,119,31,149,190,131,36,63,62,190,86,135,60,223,42,254,61,180,226,35,62,20,182,10,62,32,253,251,61,7,3,231,61,87,151,123,190,124,126,152,62,218,199,18,62,37,74,1,61,195,117,133,62,132,203,210,189,2,129,55,189,102,39,197,190,217,146,195,61,3,4,0,191,93,162,15,62,141,107,76,190,106,156,178,190,53,114,135,62,161,243,243,60,105,44,22,60,98,190,22,62,3,52,233,190,105,235,242,61,102,125,174,62,146,29,205,62,25,170,187,190,58,120,244,190,160,154,4,59,95,122,8,62,43,30,30,190,131,131,186,61,109,207,207,62,117,9,25,63,180,197,82,62,185,206,244,62,80,59,225,62,172,206,186,62,137,185,151,62,171,147,170,62,53,180,88,62,52,15,163,62,176,56,234,190,161,122,253,61,75,203,35,62,181,111,87,61,155,182,1,62,221,105,8,62,30,82,152,189,115,123,141,62,96,161,169,62,41,104,85,62,139,80,138,62,94,180,212,59,90,188,53,61,92,101,171,189,60,62,221,62,37,190,8,63,172,155,21,189,225,248,46,186,234,137,152,62,17,65,210,62,193,74,242,189,140,97,135,190,190,60,158,190,197,251,18,190,152,168,184,190,242,3,130,190,34,11,235,61,150,3,53,61,192,168,255,62,12,174,245,61,73,129,69,189,85,110,93,61,26,113,139,189,199,250,17,62,119,85,19,190,1,108,78,189,178,129,59,191,246,204,202,62,61,34,85,190,192,232,24,62,99,125,0,190,202,125,148,190,113,189,168,189,114,229,44,189,57,54,71,191,116,7,219,189,26,237,57,63,190,23,49,188,242,43,254,190,247,64,69,191,75,159,163,61,31,234,132,62,253,153,207,190,69,45,157,62,146,83,134,62,170,21,2,63,117,27,103,62,239,26,244,62,101,27,36,62,43,168,47,188,182,90,49,62,202,157,10,62,127,73,162,62,197,52,87,62,68,8,179,60,48,236,16,62,153,215,17,190,114,10,98,62,125,113,36,62,171,22,96,62,113,4,65,62,162,192,95,190,73,216,154,62,83,35,199,62,62,104,141,62,195,103,213,60,178,83,56,62,99,13,122,61,126,175,53,62,180,225,185,62,171,120,186,61,188,91,79,62,156,8,252,61,86,56,5,63,120,122,198,190,236,181,78,190,148,243,253,189,244,177,45,190,25,203,98,190,245,247,205,189,84,13,189,62,39,29,241,62,74,218,46,62,139,159,223,62,61,222,58,62,178,85,121,62,249,167,23,191,78,34,221,61,46,31,253,60,90,144,3,62,168,134,135,62,228,57,28,63,225,27,130,187,18,194,218,62,177,109,59,190,156,231,50,190,12,167,21,62,133,4,41,190,16,111,49,62,63,221,9,62,65,233,73,62,249,136,183,190,177,44,243,189,53,234,103,62,78,95,153,62,55,47,133,62,47,213,93,189,67,232,146,62,49,52,76,62,51,194,172,187,142,84,164,62,95,209,179,61,53,198,243,190,38,13,207,190,118,198,208,190,82,216,15,191,215,30,162,190,211,128,0,191,100,203,68,63,135,77,12,190,98,40,3,189,47,247,30,190,91,137,133,190,226,213,248,189,162,12,98,61,175,69,194,190,171,21,255,188,0,213,143,62,114,230,237,61,229,100,143,61,120,83,127,190,21,104,129,190,56,88,13,191,24,27,138,190,35,95,0,62,127,157,89,190,19,238,157,190,170,89,12,61,88,24,245,191,234,126,165,190,115,11,225,188,153,139,162,190,90,36,80,61,225,187,107,190,135,52,200,189,248,0,67,190,170,18,218,190,166,128,13,189,75,136,142,190,176,129,171,189,79,174,155,61,224,118,225,189,6,37,45,62,172,137,101,190,119,75,98,190,61,125,144,190,10,210,227,189,61,189,206,188,56,81,63,59,146,171,145,190,104,242,165,190,159,38,110,189,50,58,110,59,201,155,74,190,90,4,207,190,74,253,232,189,239,255,135,62,24,9,229,60,94,250,31,190,184,52,218,189,48,9,131,191,204,95,235,61,235,53,140,190,67,4,25,189,142,180,181,61,114,129,37,190,11,5,174,189,87,110,76,62,55,159,214,190,180,170,184,190,159,181,40,60,159,253,48,190,11,2,165,61,223,106,89,189,250,70,234,62,63,242,167,62,13,97,15,59,179,38,175,61,119,35,43,61,216,4,81,62,22,231,165,190,44,94,75,60,85,162,45,190,207,134,174,186,53,198,40,62,59,155,219,62,2,17,75,191,6,159,236,190,96,89,200,62,107,39,46,62,71,171,64,189,197,162,253,61,15,18,208,62,51,246,197,61,192,9,192,62,79,97,64,189,67,38,5,62,98,209,210,61,166,251,245,190,117,226,140,190,20,37,5,191,27,2,39,191,135,111,227,190,70,122,12,191,120,12,11,63,243,76,46,190,20,246,1,62,211,88,239,190,61,83,166,190,248,5,133,190,235,180,176,190,243,126,161,190,21,97,162,62,2,97,167,189,251,65,194,60,187,228,63,62,234,85,110,190,2,91,144,190,88,182,55,191,114,209,194,189,125,21,97,62,207,94,131,190,208,171,160,190,153,168,137,189,22,133,205,191,200,1,161,189,134,251,8,61,141,9,201,190,16,224,55,61,126,183,199,189,196,84,230,60,38,11,229,189,83,207,212,190,198,80,102,188,182,152,226,59,122,96,157,189,114,206,250,60,157,235,173,190,103,205,43,62,115,165,180,189,78,229,195,61,25,16,161,189,73,10,186,61,174,221,72,60,238,60,68,190,185,138,131,190,237,223,163,190,129,60,36,190,153,156,42,189,194,161,77,60,53,65,204,190,31,169,230,189,58,186,5,62,223,6,228,61,213,43,217,60,2,193,217,189,19,172,144,191,241,9,36,62,154,86,133,190,202,147,42,190,122,136,52,190,72,204,192,189,135,242,89,190,146,84,151,62,73,243,166,190,221,234,213,190,224,177,228,189,131,209,130,190,27,76,237,187,66,45,48,62,14,13,36,63,125,186,178,62,65,3,8,189,0,23,217,61,216,48,24,190,77,73,174,62,0,213,46,190,37,132,26,61,252,124,162,189,25,192,109,61,181,29,153,61,137,159,140,62,179,39,49,191,178,42,176,190,134,49,57,63,115,211,40,62,177,164,87,190,239,242,4,62,106,111,132,62,46,37,153,61,34,227,124,188,142,17,146,190,250,26,160,62,84,138,20,190,161,207,205,190,251,206,36,191,4,239,15,191,148,38,252,190,231,202,197,190,215,136,204,190,66,249,229,62,41,4,211,190,103,186,74,189,240,79,127,190,145,221,48,190,96,229,220,189,128,140,249,190,184,241,113,191,199,218,25,61,48,125,38,61,134,175,88,190,237,0,49,62,41,167,174,190,79,101,197,190,126,188,94,191,11,118,4,191,156,36,30,62,113,136,126,190,218,254,71,190,64,122,75,59,17,194,242,190,102,139,169,190,50,47,184,190,177,17,41,191,98,161,175,190,76,20,5,191,132,208,242,190,179,52,248,61,211,253,42,189,154,215,141,190,48,35,80,61,134,73,153,190,52,119,207,61,74,140,75,190,12,94,165,62,194,86,33,190,107,100,208,189,141,196,154,189,184,159,13,190,50,12,179,62,28,112,141,190,0,139,227,190,210,181,68,190,213,239,92,189,30,0,243,189,35,108,48,190,182,53,122,190,98,184,161,190,16,6,215,61,127,229,130,61,151,122,161,190,133,224,237,61,48,102,135,191,188,243,25,190,246,203,240,190,240,200,49,190,217,92,148,189,105,37,207,190,186,235,25,191,34,249,179,62,40,90,218,190,225,195,29,191,136,79,92,60,218,90,234,190,115,25,190,189,0,114,9,190,247,62,182,62,207,225,144,62,15,135,72,62,146,93,123,62,196,194,6,62,19,223,155,60,190,115,151,190,165,191,35,190,72,233,208,190,6,13,46,62,28,105,98,62,136,100,169,62,96,145,20,191,105,135,246,190,106,209,210,62,176,228,195,60,207,110,25,191,26,60,67,62,73,149,72,62,119,211,113,190,240,234,217,188,34,207,44,190,227,216,167,190,218,227,224,189,156,248,196,61,240,128,57,191,77,198,118,190,32,109,154,60,29,65,128,190,61,127,29,62,250,175,249,190,237,96,126,190,236,119,87,191,192,77,207,188,234,168,178,190,76,136,92,189,96,213,115,190,77,106,36,191,202,115,232,188,159,123,3,190,31,148,159,189,190,18,137,190,4,244,167,190,226,0,6,58,122,98,214,188,234,89,202,189,128,45,42,191,205,28,194,190,10,242,184,189,188,44,141,190,194,83,64,188,79,85,11,190,208,154,4,62,106,16,200,61,147,28,164,61,62,193,217,61,127,251,27,62,211,204,168,190,234,30,191,61,245,83,5,62,40,156,33,190,135,50,60,62,22,233,24,191,151,182,127,189,234,208,13,191,49,144,200,61,82,151,169,190,253,239,162,62,138,90,152,190,254,178,84,190,221,231,148,62,193,20,140,188,15,22,174,61,32,236,160,189,13,40,154,190,228,170,99,62,95,111,207,62,85,238,173,62,92,177,224,190,40,0,161,190,38,201,177,61,223,102,206,189,133,243,106,189,46,119,140,62,142,157,161,62,86,63,208,62,180,135,136,62,190,89,161,62,64,180,131,62,160,101,222,62,22,149,174,62,76,254,163,62,231,101,82,62,237,0,169,62,82,173,190,190,173,210,146,62,207,45,235,61,116,168,42,188,91,77,214,188,246,103,91,62,218,210,72,61,20,21,183,62,154,247,140,62,46,228,40,62,163,61,196,62,121,155,241,61,32,47,216,188,24,16,184,61,20,255,1,63,29,1,242,62,123,137,196,190,120,26,233,188,131,180,137,62,18,90,177,62,187,116,46,188,233,9,238,61,237,17,173,189,8,45,213,62,254,139,153,190,113,78,97,62,27,139,188,62,136,216,51,61,205,106,66,62,114,91,107,62,214,12,5,63,134,156,17,61,113,108,72,190,39,71,59,63,37,18,139,190,176,113,20,63,202,51,244,61,177,192,140,63,93,87,64,189,237,2,54,62,149,26,149,189,219,181,68,61,53,212,72,62,124,142,10,191,68,125,12,189,44,32,254,189,186,108,164,61,98,146,229,188,40,194,73,190,215,92,101,60,226,233,58,62,159,246,3,63,134,216,139,190,235,118,81,62,57,207,158,189,0,88,77,63,208,11,107,190,3,203,225,62,232,248,122,62,233,106,0,60,5,241,5,62,7,53,38,61,202,242,189,62,36,41,95,189,4,12,85,190,59,99,4,63,90,206,162,190,154,178,58,63,63,162,83,62,253,10,44,63,194,58,165,61,155,143,16,189,114,73,176,189,90,24,132,62,116,196,149,62,174,197,5,191,172,79,234,61,43,89,49,62,235,159,235,61,5,133,141,61,69,57,29,190,137,141,17,62,119,127,225,60,146,51,193,62,72,124,18,190,9,135,122,189,213,155,173,190,148,212,1,63,6,103,253,190,48,15,19,61,57,170,107,62,61,63,188,61,53,240,52,62,181,87,6,62,207,75,227,62,1,5,171,189,175,18,210,189,130,106,162,62,192,127,160,190,159,16,69,63,198,69,165,62,227,186,173,63,199,58,222,188,89,154,109,62,17,239,167,190,57,150,243,189,147,9,247,61,44,126,24,191,45,171,19,62,137,167,119,62,224,177,223,61,120,100,87,190,39,117,198,189,173,175,10,62,251,57,193,188,242,118,189,62,60,9,170,189,153,88,204,61,254,15,177,61,28,50,25,62,239,55,243,61,245,189,207,189,144,12,86,190,2,132,185,190,248,200,19,191,183,143,225,190,106,112,246,190,216,113,19,191,173,165,203,62,16,78,98,190,71,254,234,61,248,11,25,191,59,123,228,189,244,34,145,190,172,203,52,190,116,206,171,190,156,136,28,62,226,158,205,189,31,169,25,190,103,243,20,188,204,89,140,190,42,90,48,191,59,79,73,191,10,59,7,191,174,175,180,61,53,99,130,190,102,147,70,190,67,178,139,189,14,152,182,191,226,77,95,188,88,126,93,190,86,162,141,190,110,172,163,189,250,92,36,190,190,157,49,189,218,25,0,189,90,252,60,190,232,18,251,189,93,52,122,189,158,146,17,190,15,231,53,62,246,135,219,190,89,17,44,61,98,79,211,189,138,233,146,189,26,204,181,189,34,85,145,61,207,28,255,59,184,49,80,190,105,241,123,190,130,181,43,189,108,60,49,190,117,41,18,189,152,240,64,62,114,108,159,190,46,95,216,189,55,238,104,62,125,167,125,188,171,218,52,190,129,36,56,188,240,113,155,191,29,234,210,189,199,70,24,190,25,153,110,190,199,108,42,190,116,66,47,190,245,47,235,189,197,201,205,62,62,49,209,190,177,92,220,190,195,155,125,190,33,132,170,190,6,221,14,62,77,164,193,62,29,103,35,63,150,24,11,62,243,190,151,60,179,26,70,189,43,132,146,189,104,192,150,62,246,161,24,190,128,133,164,189,28,41,103,190,2,247,11,62,247,34,27,62,13,111,52,62,16,55,39,191,96,103,222,190,17,167,38,63,82,6,18,62,223,217,233,189,36,20,225,61,208,26,169,58,245,117,3,191,254,78,171,189,226,53,12,61,13,228,80,190,176,226,73,189,134,255,142,190,106,84,216,190,222,206,27,191,129,104,250,190,209,135,3,191,147,33,177,190,157,128,2,62,128,137,149,191,35,206,226,189,147,206,22,191,201,44,142,190,153,50,182,189,135,192,38,190,143,25,33,191,172,119,158,61,112,6,242,190,7,248,242,190,41,112,198,189,220,210,133,190,218,145,13,191,96,128,69,191,16,205,146,190,152,71,70,61,233,113,251,189,228,6,197,190,202,27,25,62,12,207,83,191,121,197,158,190,76,131,98,190,0,78,50,191,61,92,127,190,195,143,231,190,230,52,172,190,197,90,146,188,193,90,162,190,106,234,110,190,32,189,210,61,160,49,165,190,239,127,89,62,81,244,217,188,213,241,169,62,52,133,4,190,152,0,150,61,100,219,197,188,142,58,187,190,104,158,36,62,113,136,149,190,130,77,204,190,92,171,115,190,48,89,23,190,55,236,135,188,140,199,157,60,128,251,218,190,190,199,15,189,35,0,160,62,10,138,155,188,175,230,151,189,135,142,0,187,188,104,17,191,129,193,230,60,84,140,198,190,243,37,183,190,108,155,143,190,237,68,205,190,57,219,188,190,30,249,138,62,53,240,163,190,102,105,43,191,29,46,51,189,38,71,223,190,85,9,107,61,203,241,115,62,44,61,239,61,252,79,82,62,194,233,248,61,72,106,172,61,175,31,130,62,188,144,107,190,230,190,186,190,170,100,164,190,145,149,141,190,48,25,205,189,57,106,7,62,185,231,222,62,100,45,172,190,183,128,249,190,239,156,190,62,224,151,163,61,85,27,2,191,46,36,96,61,148,225,140,62,37,120,36,190,96,193,175,189,144,12,222,189,71,29,31,191,7,105,181,189,164,42,23,62,139,192,190,190,219,209,175,190,92,2,42,62,231,164,70,190,89,196,138,61,161,220,71,191,98,157,20,190,5,85,50,191,127,216,167,59,8,165,152,190,235,241,33,189,188,234,212,190,184,249,98,190,152,131,22,190,229,190,28,190,110,168,168,188,213,114,200,190,213,30,187,190,146,84,189,61,200,201,248,189,3,15,166,189,98,53,5,191,33,150,162,190,101,49,255,61,216,203,141,190,66,87,145,189,224,48,176,60,186,197,211,61,67,131,206,61,65,120,102,61,80,88,123,61,171,166,219,61,241,89,132,190,121,186,185,61,141,100,223,61,213,2,3,190,19,167,30,62,52,198,40,191,121,138,205,60,62,198,18,191,66,104,13,62,182,64,132,190,53,0,53,189,250,144,236,189,244,94,155,190,109,60,71,62,153,196,219,61,156,24,74,62,177,115,51,190,248,222,136,190,14,203,183,189,250,129,165,62,18,209,156,62,181,211,214,190,158,102,91,190,84,134,20,62,59,57,184,60,114,13,230,190,242,138,20,62,177,245,194,62,166,207,206,62,196,227,126,62,215,141,204,62,22,53,147,62,114,29,13,63,46,148,137,62,82,47,113,62,105,86,246,61,137,153,101,62,236,141,5,191,250,234,169,62,86,100,9,62,14,149,244,61,44,138,137,61,247,183,143,61,238,134,233,60,230,237,142,62,100,17,191,62,26,238,147,62,176,115,141,62,255,213,172,60,11,52,127,61,65,55,54,60,202,9,242,62,212,188,11,63,154,12,152,190,237,246,201,61,80,101,113,62,231,162,97,62,175,110,201,189,104,189,191,190,103,126,120,61,85,134,131,190,162,4,26,190,129,17,86,190,69,102,148,190,203,199,76,190,36,155,19,191,4,37,23,191,161,40,153,190,61,149,215,190,92,183,200,62,61,15,247,190,146,138,20,60,126,50,21,191,30,46,69,190,5,126,173,189,179,68,55,190,221,99,44,191,151,35,75,189,49,109,251,190,36,25,179,190,222,251,128,62,115,142,82,190,199,170,255,190,212,50,116,191,101,139,134,190,229,216,73,62,78,44,18,190,253,83,207,190,168,229,139,61,200,123,120,191,190,75,158,190,11,8,195,189,72,142,252,190,37,19,121,189,115,82,165,190,126,135,233,189,184,178,215,61,110,158,37,190,96,47,130,189,147,107,164,189,116,131,98,190,184,116,20,62,127,233,31,191,56,209,160,62,59,148,140,190,39,112,253,189,173,197,245,189,32,29,171,189,13,57,237,59,190,101,166,189,223,168,72,190,3,241,155,190,236,181,32,190,33,20,111,189,207,111,206,189,203,155,121,190,112,225,234,60,186,81,131,62,118,102,204,189,129,125,71,190,161,4,139,189,58,210,125,191,10,123,131,190,42,126,139,190,193,81,8,191,2,32,144,189,107,232,166,190,2,213,220,190,191,72,161,62,205,217,196,190,131,223,245,190,17,222,43,190,40,195,182,190,187,142,141,61,134,117,206,60,79,231,80,63,37,225,23,60,87,156,201,61,168,54,16,62,171,149,244,61,161,120,60,62,168,63,142,190,149,49,52,190,107,176,6,190,121,209,177,62,218,185,149,61,157,81,158,62,135,50,11,191,19,42,0,191,126,47,238,62,42,230,0,61,0,199,19,190,230,78,5,62,174,243,192,61,60,195,67,190,153,218,109,190,234,143,59,190,86,106,196,190,222,164,59,190,89,25,214,61,76,104,96,61,163,104,214,62,31,197,18,62,195,97,228,189,96,230,80,61,109,152,12,188,101,75,126,61,181,9,23,190,115,254,27,190,92,25,48,191,80,186,245,62,251,80,117,190,99,127,165,61,171,111,18,190,103,46,191,190,106,142,83,189,3,246,38,189,49,244,45,191,90,238,23,190,45,46,54,63,210,225,134,61,23,135,15,191,121,12,68,191,220,4,130,61,109,70,117,62,172,31,210,190,46,109,175,62,241,76,183,62,73,222,15,63,26,111,150,62,111,178,234,62,55,149,130,62,29,8,200,188,51,122,88,62,235,156,84,62,75,197,201,62,89,48,73,62,145,102,142,58,226,61,73,62,24,219,53,190,87,48,133,188,121,123,85,62,96,214,153,62,98,209,34,62,40,193,23,190,86,210,172,62,139,212,196,62,37,26,176,62,171,56,217,61,47,184,128,62,229,52,241,61,134,17,43,62,167,45,160,62,207,133,222,60,195,78,78,62,141,76,0,62,219,16,211,62,51,183,229,190,235,219,54,190,126,63,174,189,101,106,84,190,55,174,122,190,233,74,153,189,41,83,178,62,85,122,211,62,253,187,11,62,252,23,219,62,159,80,89,62,67,219,88,62,10,238,30,191,130,195,2,62,81,48,51,61,137,157,225,60,225,110,180,62,104,177,21,63,255,62,253,60,184,143,189,62,104,199,90,190,124,108,211,189,54,89,20,62,195,140,222,189,192,75,116,62,182,124,94,62,249,50,52,62,253,230,167,190,64,23,64,61,97,21,151,62,8,209,154,62,244,148,43,62,242,25,0,189,206,253,255,255,4,0,0,0,128,1,0,0,62,174,244,62,183,112,6,190,162,90,138,62,200,100,81,62,181,214,177,61,89,68,27,63,109,35,87,190,239,87,108,190,70,101,232,62,159,127,156,62,205,162,180,189,184,79,3,63,24,40,82,62,120,31,136,61,99,161,89,63,50,52,52,190,71,23,189,62,201,203,138,62,106,112,119,189,44,102,154,62,238,96,233,190,208,192,61,191,110,175,68,190,188,36,112,187,227,11,89,190,85,17,227,62,220,112,68,62,147,244,126,190,5,120,119,190,216,51,14,190,23,35,42,190,187,192,175,62,253,245,152,62,128,25,6,192,141,230,19,188,173,0,192,61,247,225,81,62,253,101,117,62,227,41,254,190,50,107,12,190,46,213,205,62,128,226,165,190,182,164,147,61,85,119,225,190,249,35,144,190,163,249,246,188,48,33,45,190,90,99,58,191,96,184,55,190,152,65,68,191,121,72,149,190,176,176,170,62,54,221,61,191,18,153,103,60,67,234,5,190,227,105,129,62,237,133,160,190,174,124,167,190,187,234,155,59,184,236,115,63,82,195,198,62,225,31,108,61,11,37,208,62,156,248,124,62,4,102,128,62,235,71,203,62,150,90,67,191,44,81,115,61,68,98,115,190,121,88,219,188,130,206,104,190,22,47,97,191,158,252,99,61,249,15,219,190,119,187,161,190,79,177,96,191,18,145,228,189,116,207,149,61,201,80,3,191,26,252,234,189,154,119,38,62,56,75,18,190,143,192,37,62,128,123,25,191,36,159,229,188,64,192,95,190,211,181,108,191,6,74,63,189,218,192,221,62,77,129,167,62,178,46,47,190,211,98,242,190,78,35,61,189,253,111,101,61,49,159,182,190,115,66,218,190,90,255,255,255,4,0,0,0,12,0,0,0,255,255,255,255,224,44,2,0,32,0,0,0,114,255,255,255,4,0,0,0,128,0,0,0,167,235,139,63,24,57,159,190,72,161,87,63,127,44,48,63,40,52,140,190,228,223,132,61,57,123,59,63,200,45,25,188,208,63,76,63,104,205,200,188,177,89,184,190,123,237,158,63,164,132,159,60,41,172,140,190,14,157,89,190,60,250,202,61,120,187,29,190,172,149,57,63,155,169,250,62,220,147,67,63,202,217,187,190,189,128,187,190,20,105,27,63,191,207,14,63,14,183,114,63,112,95,90,190,107,186,151,191,57,5,253,62,194,230,107,63,220,11,59,190,153,124,100,63,102,13,189,190,0,0,6,0,8,0,4,0,6,0,0,0,4,0,0,0,128,0,0,0,166,92,2,63,247,112,122,63,249,6,128,63,121,87,44,63,88,107,140,63,82,112,250,62,28,240,102,63,49,227,183,63,89,158,53,63,144,210,189,63,164,1,53,63,2,110,241,190,36,212,151,60,119,16,184,63,80,123,45,190,138,152,79,63,51,169,48,63,118,66,77,63,21,151,53,63,71,86,49,63,71,127,137,63,123,92,24,63,248,232,155,190,224,238,192,62,54,15,134,62,202,155,138,63,12,96,208,63,166,132,10,63,244,235,254,62,152,172,213,62,72,15,236,60,230,6,4,64,104,232,255,255,108,232,255,255,15,0,0,0,77,76,73,82,32,67,111,110,118,101,114,116,101,100,46,0,1,0,0,0,20,0,0,0,0,0,14,0,24,0,20,0,16,0,12,0,8,0,4,0,14,0,0,0,20,0,0,0,28,0,0,0,124,3,0,0,128,3,0,0,132,3,0,0,4,0,0,0,109,97,105,110,0,0,0,0,15,0,0,0,52,3,0,0,240,2,0,0,140,2,0,0,88,2,0,0,36,2,0,0,252,1,0,0,192,1,0,0,140,1,0,0,68,1,0,0,16,1,0,0,220,0,0,0,180,0,0,0,128,0,0,0,60,0,0,0,4,0,0,0,86,253,255,255,20,0,0,0,0,0,0,8,16,0,0,0,20,0,0,0,7,0,0,0,24,233,255,255,1,0,0,0,31,0,0,0,3,0,0,0,30,0,0,0,16,0,0,0,11,0,0,0,138,253,255,255,28,0,0,0,0,0,0,8,28,0,0,0,32,0,0,0,7,0,0,0,0,0,6,0,8,0,7,0,6,0,0,0,0,0,0,1,1,0,0,0,30,0,0,0,3,0,0,0,29,0,0,0,15,0,0,0,10,0,0,0,202,253,255,255,20,0,0,0,0,0,0,27,16,0,0,0,20,0,0,0,6,0,0,0,140,233,255,255,1,0,0,0,29,0,0,0,2,0,0,0,28,0,0,0,12,0,0,0,218,254,255,255,12,0,0,0,16,0,0,0,5,0,0,0,1,0,0,0,28,0,0,0,2,0,0,0,27,0,0,0,3,0,0,0,30,254,255,255,20,0,0,0,0,0,0,11,16,0,0,0,20,0,0,0,4,0,0,0,224,233,255,255,1,0,0,0,27,0,0,0,2,0,0,0,26,0,0,0,8,0,0,0,78,254,255,255,20,0,0,0,0,0,0,21,16,0,0,0,20,0,0,0,3,0,0,0,16,234,255,255,1,0,0,0,26,0,0,0,2,0,0,0,25,0,0,0,9,0,0,0,126,254,255,255,20,0,0,0,0,0,0,1,32,0,0,0,36,0,0,0,2,0,0,0,208,254,255,255,0,0,0,1,1,0,0,0,1,0,0,0,0,0,0,1,1,0,0,0,25,0,0,0,3,0,0,0,24,0,0,0,5,0,0,0,2,0,0,0,194,254,255,255,20,0,0,0,0,0,0,52,16,0,0,0,20,0,0,0,1,0,0,0,132,234,255,255,1,0,0,0,24,0,0,0,2,0,0,0,23,0,0,0,13,0,0,0,178,254,255,255,16,0,0,0,0,0,0,22,12,0,0,0,16,0,0,0,176,234,255,255,1,0,0,0,23,0,0,0,2,0,0,0,22,0,0,0,14,0,0,0,0,0,10,0,16,0,12,0,8,0,4,0,10,0,0,0,12,0,0,0,16,0,0,0,5,0,0,0,1,0,0,0,22,0,0,0,2,0,0,0,21,0,0,0,3,0,0,0,78,255,255,255,20,0,0,0,0,0,0,11,16,0,0,0,20,0,0,0,4,0,0,0,16,235,255,255,1,0,0,0,21,0,0,0,2,0,0,0,20,0,0,0,6,0,0,0,126,255,255,255,20,0,0,0,0,0,0,21,16,0,0,0,20,0,0,0,3,0,0,0,64,235,255,255,1,0,0,0,20,0,0,0,2,0,0,0,19,0,0,0,7,0,0,0,174,255,255,255,32,0,0,0,0,0,0,1,44,0,0,0,48,0,0,0,2,0,0,0,12,0,20,0,19,0,12,0,8,0,7,0,12,0,0,0,0,0,0,1,1,0,0,0,1,0,0,0,0,0,0,1,1,0,0,0,19,0,0,0,3,0,0,0,18,0,0,0,4,0,0,0,1,0,0,0,0,0,14,0,24,0,20,0,16,0,12,0,11,0,4,0,14,0,0,0,20,0,0,0,0,0,0,52,16,0,0,0,20,0,0,0,1,0,0,0,208,235,255,255,1,0,0,0,18,0,0,0,2,0,0,0,17,0,0,0,13,0,0,0,0,0,14,0,20,0,0,0,16,0,12,0,11,0,4,0,14,0,0,0,16,0,0,0,0,0,0,22,12,0,0,0,16,0,0,0,12,236,255,255,1,0,0,0,17,0,0,0,2,0,0,0,0,0,0,0,14,0,0,0,1,0,0,0,31,0,0,0,1,0,0,0,0,0,0,0,32,0,0,0,32,19,0,0,176,18,0,0,64,18,0,0,236,17,0,0,128,17,0,0,44,17,0,0,208,16,0,0,116,16,0,0,24,16,0,0,188,15,0,0,104,15,0,0,16,15,0,0,168,14,0,0,84,14,0,0,0,14,0,0,184,13,0,0,108,13,0,0,12,13,0,0,152,12,0,0,152,11,0,0,112,10,0,0,236,8,0,0,112,7,0,0,16,7,0,0,152,6,0,0,168,5,0,0,116,4,0,0,224,2,0,0,84,1,0,0,232,0,0,0,96,0,0,0,4,0,0,0,118,237,255,255,0,0,0,1,20,0,0,0,28,0,0,0,28,0,0,0,32,0,0,0,52,0,0,0,2,0,0,0,255,255,255,255,1,0,0,0,224,236,255,255,25,0,0,0,83,116,97,116,101,102,117,108,80,97,114,116,105,116,105,111,110,101,100,67,97,108,108,58,48,0,0,0,2,0,0,0,1,0,0,0,1,0,0,0,206,237,255,255,0,0,0,1,20,0,0,0,28,0,0,0,28,0,0,0,31,0,0,0,96,0,0,0,2,0,0,0,255,255,255,255,32,0,0,0,56,237,255,255,70,0,0,0,115,101,113,117,101,110,116,105,97,108,47,100,101,110,115,101,47,77,97,116,77,117,108,59,115,101,113,117,101,110,116,105,97,108,47,100,101,110,115,101,47,82,101,108,117,59,115,101,113,117,101,110,116,105,97,108,47,100,101,110,115,101,47,66,105,97,115,65,100,100,0,0,2,0,0,0,1,0,0,0,32,0,0,0,82,238,255,255,0,0,0,1,20,0,0,0,28,0,0,0,28,0,0,0,30,0,0,0,68,0,0,0,2,0,0,0,255,255,255,255,32,0,0,0,188,237,255,255,40,0,0,0,115,101,113,117,101,110,116,105,97,108,47,103,108,111,98,97,108,95,97,118,101,114,97,103,101,95,112,111,111,108,105,110,103,49,100,47,77,101,97,110,0,0,0,0,2,0,0,0,1,0,0,0,32,0,0,0,186,238,255,255,0,0,0,1,20,0,0,0,32,0,0,0,32,0,0,0,29,0,0,0,96,1,0,0,3,0,0,0,255,255,255,255,224,44,2,0,32,0,0,0,40,238,255,255,67,1,0,0,115,101,113,117,101,110,116,105,97,108,47,98,97,116,99,104,95,110,111,114,109,97,108,105,122,97,116,105,111,110,95,49,47,98,97,116,99,104,110,111,114,109,47,97,100,100,95,49,59,115,101,113,117,101,110,116,105,97,108,47,99,111,110,118,49,100,95,49,47,67,111,110,118,49,68,47,83,113,117,101,101,122,101,59,115,101,113,117,101,110,116,105,97,108,47,98,97,116,99,104,95,110,111,114,109,97,108,105,122,97,116,105,111,110,95,49,47,98,97,116,99,104,110,111,114,109,47,109,117,108,95,49,59,115,101,113,117,101,110,116,105,97,108,47,99,111,110,118,49,100,95,49,47,82,101,108,117,59,115,101,113,117,101,110,116,105,97,108,47,99,111,110,118,49,100,95,49,47,66,105,97,115,65,100,100,59,115,101,113,117,101,110,116,105,97,108,47,99,111,110,118,49,100,95,49,47,66,105,97,115,65,100,100,47,82,101,97,100,86,97,114,105,97,98,108,101,79,112,59,115,101,113,117,101,110,116,105,97,108,47,98,97,116,99,104,95,110,111,114,109,97,108,105,122,97,116,105,111,110,95,49,47,98,97,116,99,104,110,111,114,109,47,109,117,108,59,115,101,113,117,101,110,116,105,97,108,47,98,97,116,99,104,95,110,111,114,109,97,108,105,122,97,116,105,111,110,95,49,47,98,97,116,99,104,110,111,114,109,47,115,117,98,49,0,3,0,0,0,1,0,0,0,224,44,2,0,32,0,0,0,66,240,255,255,0,0,0,1,20,0,0,0,36,0,0,0,36,0,0,0,28,0,0,0,100,1,0,0,4,0,0,0,255,255,255,255,1,0,0,0,224,44,2,0,32,0,0,0,180,239,255,255,66,1,0,0,115,101,113,117,101,110,116,105,97,108,47,98,97,116,99,104,95,110,111,114,109,97,108,105,122,97,116,105,111,110,95,49,47,98,97,116,99,104,110,111,114,109,47,97,100,100,95,49,59,115,101,113,117,101,110,116,105,97,108,47,99,111,110,118,49,100,95,49,47,67,111,110,118,49,68,47,83,113,117,101,101,122,101,59,115,101,113,117,101,110,116,105,97,108,47,98,97,116,99,104,95,110,111,114,109,97,108,105,122,97,116,105,111,110,95,49,47,98,97,116,99,104,110,111,114,109,47,109,117,108,95,49,59,115,101,113,117,101,110,116,105,97,108,47,99,111,110,118,49,100,95,49,47,82,101,108,117,59,115,101,113,117,101,110,116,105,97,108,47,99,111,110,118,49,100,95,49,47,66,105,97,115,65,100,100,59,115,101,113,117,101,110,116,105,97,108,47,99,111,110,118,49,100,95,49,47,66,105,97,115,65,100,100,47,82,101,97,100,86,97,114,105,97,98,108,101,79,112,59,115,101,113,117,101,110,116,105,97,108,47,98,97,116,99,104,95,110,111,114,109,97,108,105,122,97,116,105,111,110,95,49,47,98,97,116,99,104,110,111,114,109,47,109,117,108,59,115,101,113,117,101,110,116,105,97,108,47,98,97,116,99,104,95,110,111,114,109,97,108,105,122,97,116,105,111,110,95,49,47,98,97,116,99,104,110,111,114,109,47,115,117,98,0,0,4,0,0,0,1,0,0,0,1,0,0,0,224,44,2,0,32,0,0,0,210,241,255,255,0,0,0,1,20,0,0,0,36,0,0,0,36,0,0,0,27,0,0,0,4,1,0,0,4,0,0,0,255,255,255,255,1,0,0,0,224,44,2,0,32,0,0,0,68,241,255,255,226,0,0,0,115,101,113,117,101,110,116,105,97,108,47,98,97,116,99,104,95,110,111,114,109,97,108,105,122,97,116,105,111,110,95,49,47,98,97,116,99,104,110,111,114,109,47,109,117,108,95,49,59,115,101,113,117,101,110,116,105,97,108,47,99,111,110,118,49,100,95,49,47,67,111,110,118,49,68,47,83,113,117,101,101,122,101,59,115,101,113,117,101,110,116,105,97,108,47,99,111,110,118,49,100,95,49,47,82,101,108,117,59,115,101,113,117,101,110,116,105,97,108,47,99,111,110,118,49,100,95,49,47,66,105,97,115,65,100,100,59,115,101,113,117,101,110,116,105,97,108,47,99,111,110,118,49,100,95,49,47,66,105,97,115,65,100,100,47,82,101,97,100,86,97,114,105,97,98,108,101,79,112,59,115,101,113,117,101,110,116,105,97,108,47,98,97,116,99,104,95,110,111,114,109,97,108,105,122,97,116,105,111,110,95,49,47,98,97,116,99,104,110,111,114,109,47,109,117,108,0,0,4,0,0,0,1,0,0,0,1,0,0,0,224,44,2,0,32,0,0,0,2,243,255,255,0,0,0,1,20,0,0,0,36,0,0,0,36,0,0,0,26,0,0,0,192,0,0,0,4,0,0,0,255,255,255,255,1,0,0,0,224,44,2,0,32,0,0,0,116,242,255,255,157,0,0,0,115,101,113,117,101,110,116,105,97,108,47,99,111,110,118,49,100,95,49,47,82,101,108,117,59,115,101,113,117,101,110,116,105,97,108,47,99,111,110,118,49,100,95,49,47,66,105,97,115,65,100,100,59,115,101,113,117,101,110,116,105,97,108,47,99,111,110,118,49,100,95,49,47,67,111,110,118,49,68,47,83,113,117,101,101,122,101,59,115,101,113,117,101,110,116,105,97,108,47,99,111,110,118,49,100,95,49,47,66,105,97,115,65,100,100,47,82,101,97,100,86,97,114,105,97,98,108,101,79,112,59,115,101,113,117,101,110,116,105,97,108,47,99,111,110,118,49,100,95,49,47,67,111,110,118,49,68,0,0,0,4,0,0,0,1,0,0,0,1,0,0,0,224,44,2,0,32,0,0,0,238,243,255,255,0,0,0,1,20,0,0,0,36,0,0,0,36,0,0,0,25,0,0,0,72,0,0,0,4,0,0,0,255,255,255,255,1,0,0,0,226,44,2,0,32,0,0,0,96,243,255,255,37,0,0,0,115,101,113,117,101,110,116,105,97,108,47,99,111,110,118,49,100,95,49,47,67,111,110,118,49,68,47,69,120,112,97,110,100,68,105,109,115,0,0,0,4,0,0,0,1,0,0,0,1,0,0,0,226,44,2,0,32,0,0,0,98,244,255,255,0,0,0,1,20,0,0,0,32,0,0,0,32,0,0,0,24,0,0,0,52,0,0,0,3,0,0,0,255,255,255,255,226,44,2,0,32,0,0,0,208,243,255,255,23,0,0,0,115,101,113,117,101,110,116,105,97,108,47,99,111,110,118,49,100,95,49,47,80,97,100,0,3,0,0,0,1,0,0,0,226,44,2,0,32,0,0,0,190,244,255,255,0,0,0,1,20,0,0,0,32,0,0,0,32,0,0,0,23,0,0,0,80,1,0,0,3,0,0,0,255,255,255,255,224,44,2,0,32,0,0,0,44,244,255,255,51,1,0,0,115,101,113,117,101,110,116,105,97,108,47,98,97,116,99,104,95,110,111,114,109,97,108,105,122,97,116,105,111,110,47,98,97,116,99,104,110,111,114,109,47,97,100,100,95,49,59,115,101,113,117,101,110,116,105,97,108,47,99,111,110,118,49,100,47,67,111,110,118,49,68,47,83,113,117,101,101,122,101,59,115,101,113,117,101,110,116,105,97,108,47,98,97,116,99,104,95,110,111,114,109,97,108,105,122,97,116,105,111,110,47,98,97,116,99,104,110,111,114,109,47,109,117,108,95,49,59,115,101,113,117,101,110,116,105,97,108,47,99,111,110,118,49,100,47,82,101,108,117,59,115,101,113,117,101,110,116,105,97,108,47,99,111,110,118,49,100,47,66,105,97,115,65,100,100,59,115,101,113,117,101,110,116,105,97,108,47,99,111,110,118,49,100,47,66,105,97,115,65,100,100,47,82,101,97,100,86,97,114,105,97,98,108,101,79,112,59,115,101,113,117,101,110,116,105,97,108,47,98,97,116,99,104,95,110,111,114,109,97,108,105,122,97,116,105,111,110,47,98,97,116,99,104,110,111,114,109,47,109,117,108,59,115,101,113,117,101,110,116,105,97,108,47,98,97,116,99,104,95,110,111,114,109,97,108,105,122,97,116,105,111,110,47,98,97,116,99,104,110,111,114,109,47,115,117,98,49,0,3,0,0,0,1,0,0,0,224,44,2,0,32,0,0,0,54,246,255,255,0,0,0,1,20,0,0,0,36,0,0,0,36,0,0,0,22,0,0,0,84,1,0,0,4,0,0,0,255,255,255,255,1,0,0,0,224,44,2,0,32,0,0,0,168,245,255,255,50,1,0,0,115,101,113,117,101,110,116,105,97,108,47,98,97,116,99,104,95,110,111,114,109,97,108,105,122,97,116,105,111,110,47,98,97,116,99,104,110,111,114,109,47,97,100,100,95,49,59,115,101,113,117,101,110,116,105,97,108,47,99,111,110,118,49,100,47,67,111,110,118,49,68,47,83,113,117,101,101,122,101,59,115,101,113,117,101,110,116,105,97,108,47,98,97,116,99,104,95,110,111,114,109,97,108,105,122,97,116,105,111,110,47,98,97,116,99,104,110,111,114,109,47,109,117,108,95,49,59,115,101,113,117,101,110,116,105,97,108,47,99,111,110,118,49,100,47,82,101,108,117,59,115,101,113,117,101,110,116,105,97,108,47,99,111,110,118,49,100,47,66,105,97,115,65,100,100,59,115,101,113,117,101,110,116,105,97,108,47,99,111,110,118,49,100,47,66,105,97,115,65,100,100,47,82,101,97,100,86,97,114,105,97,98,108,101,79,112,59,115,101,113,117,101,110,116,105,97,108,47,98,97,116,99,104,95,110,111,114,109,97,108,105,122,97,116,105,111,110,47,98,97,116,99,104,110,111,114,109,47,109,117,108,59,115,101,113,117,101,110,116,105,97,108,47,98,97,116,99,104,95,110,111,114,109,97,108,105,122,97,116,105,111,110,47,98,97,116,99,104,110,111,114,109,47,115,117,98,0,0,4,0,0,0,1,0,0,0,1,0,0,0,224,44,2,0,32,0,0,0,182,247,255,255,0,0,0,1,20,0,0,0,36,0,0,0,36,0,0,0,21,0,0,0,248,0,0,0,4,0,0,0,255,255,255,255,1,0,0,0,224,44,2,0,32,0,0,0,40,247,255,255,214,0,0,0,115,101,113,117,101,110,116,105,97,108,47,98,97,116,99,104,95,110,111,114,109,97,108,105,122,97,116,105,111,110,47,98,97,116,99,104,110,111,114,109,47,109,117,108,95,49,59,115,101,113,117,101,110,116,105,97,108,47,99,111,110,118,49,100,47,67,111,110,118,49,68,47,83,113,117,101,101,122,101,59,115,101,113,117,101,110,116,105,97,108,47,99,111,110,118,49,100,47,82,101,108,117,59,115,101,113,117,101,110,116,105,97,108,47,99,111,110,118,49,100,47,66,105,97,115,65,100,100,59,115,101,113,117,101,110,116,105,97,108,47,99,111,110,118,49,100,47,66,105,97,115,65,100,100,47,82,101,97,100,86,97,114,105,97,98,108,101,79,112,59,115,101,113,117,101,110,116,105,97,108,47,98,97,116,99,104,95,110,111,114,109,97,108,105,122,97,116,105,111,110,47,98,97,116,99,104,110,111,114,109,47,109,117,108,0,0,4,0,0,0,1,0,0,0,1,0,0,0,224,44,2,0,32,0,0,0,218,248,255,255,0,0,0,1,20,0,0,0,36,0,0,0,36,0,0,0,20,0,0,0,208,0,0,0,4,0,0,0,255,255,255,255,1,0,0,0,224,44,2,0,32,0,0,0,76,248,255,255,174,0,0,0,115,101,113,117,101,110,116,105,97,108,47,99,111,110,118,49,100,47,82,101,108,117,59,115,101,113,117,101,110,116,105,97,108,47,99,111,110,118,49,100,47,66,105,97,115,65,100,100,59,115,101,113,117,101,110,116,105,97,108,47,99,111,110,118,49,100,47,67,111,110,118,49,68,47,83,113,117,101,101,122,101,59,115,101,113,117,101,110,116,105,97,108,47,99,111,110,118,49,100,47,66,105,97,115,65,100,100,47,82,101,97,100,86,97,114,105,97,98,108,101,79,112,59,115,101,113,117,101,110,116,105,97,108,47,99,111,110,118,49,100,95,49,47,67,111,110,118,49,68,59,115,101,113,117,101,110,116,105,97,108,47,99,111,110,118,49,100,47,67,111,110,118,49,68,0,0,4,0,0,0,1,0,0,0,1,0,0,0,224,44,2,0,32,0,0,0,214,249,255,255,0,0,0,1,20,0,0,0,36,0,0,0,36,0,0,0,19,0,0,0,68,0,0,0,4,0,0,0,255,255,255,255,1,0,0,0,226,44,2,0,1,0,0,0,72,249,255,255,35,0,0,0,115,101,113,117,101,110,116,105,97,108,47,99,111,110,118,49,100,47,67,111,110,118,49,68,47,69,120,112,97,110,100,68,105,109,115,0,4,0,0,0,1,0,0,0,1,0,0,0,226,44,2,0,1,0,0,0,70,250,255,255,0,0,0,1,20,0,0,0,32,0,0,0,32,0,0,0,18,0,0,0,52,0,0,0,3,0,0,0,255,255,255,255,226,44,2,0,1,0,0,0,180,249,255,255,21,0,0,0,115,101,113,117,101,110,116,105,97,108,47,99,111,110,118,49,100,47,80,97,100,0,0,0,3,0,0,0,1,0,0,0,226,44,2,0,1,0,0,0,14,251,255,255,0,0,0,1,16,0,0,0,16,0,0,0,17,0,0,0,40,0,0,0,252,249,255,255,25,0,0,0,115,101,113,117,101,110,116,105,97,108,47,100,101,110,115,101,95,49,47,77,97,116,77,117,108,0,0,0,2,0,0,0,1,0,0,0,32,0,0,0,86,251,255,255,0,0,0,1,16,0,0,0,16,0,0,0,16,0,0,0,36,0,0,0,68,250,255,255,23,0,0,0,115,101,113,117,101,110,116,105,97,108,47,100,101,110,115,101,47,77,97,116,77,117,108,0,2,0,0,0,32,0,0,0,32,0,0,0,86,252,255,255,0,0,0,1,20,0,0,0,20,0,0,0,15,0,0,0,0,0,0,2,44,0,0,0,140,250,255,255,30,0,0,0,115,101,113,117,101,110,116,105,97,108,47,99,111,110,118,49,100,47,80,97,100,47,112,97,100,100,105,110,103,115,0,0,2,0,0,0,3,0,0,0,2,0,0,0,166,252,255,255,0,0,0,1,20,0,0,0,20,0,0,0,14,0,0,0,0,0,0,2,52,0,0,0,220,250,255,255,39,0,0,0,115,101,113,117,101,110,116,105,97,108,47,99,111,110,118,49,100,47,67,111,110,118,49,68,47,69,120,112,97,110,100,68,105,109,115,47,100,105,109,0,0,0,0,0,246,252,255,255,0,0,0,1,20,0,0,0,20,0,0,0,13,0,0,0,0,0,0,2,72,0,0,0,44,251,255,255,58,0,0,0,115,101,113,117,101,110,116,105,97,108,47,103,108,111,98,97,108,95,97,118,101,114,97,103,101,95,112,111,111,108,105,110,103,49,100,47,77,101,97,110,47,114,101,100,117,99,116,105,111,110,95,105,110,100,105,99,101,115,0,0,0,0,0,0,158,252,255,255,0,0,0,1,16,0,0,0,16,0,0,0,12,0,0,0,56,0,0,0,140,251,255,255,41,0,0,0,115,101,113,117,101,110,116,105,97,108,47,100,101,110,115,101,95,49,47,66,105,97,115,65,100,100,47,82,101,97,100,86,97,114,105,97,98,108,101,79,112,0,0,0,1,0,0,0,1,0,0,0,242,252,255,255,0,0,0,1,16,0,0,0,16,0,0,0,11,0,0,0,52,0,0,0,224,251,255,255,39,0,0,0,115,101,113,117,101,110,116,105,97,108,47,100,101,110,115,101,47,66,105,97,115,65,100,100,47,82,101,97,100,86,97,114,105,97,98,108,101,79,112,0,1,0,0,0,32,0,0,0,66,253,255,255,0,0,0,1,16,0,0,0,16,0,0,0,10,0,0,0,60,0,0,0,48,252,255,255,46,0,0,0,115,101,113,117,101,110,116,105,97,108,47,98,97,116,99,104,95,110,111,114,109,97,108,105,122,97,116,105,111,110,95,49,47,98,97,116,99,104,110,111,114,109,47,109,117,108,0,0,1,0,0,0,32,0,0,0,154,253,255,255,0,0,0,1,16,0,0,0,16,0,0,0,9,0,0,0,60,0,0,0,136,252,255,255,46,0,0,0,115,101,113,117,101,110,116,105,97,108,47,98,97,116,99,104,95,110,111,114,109,97,108,105,122,97,116,105,111,110,95,49,47,98,97,116,99,104,110,111,114,109,47,115,117,98,0,0,1,0,0,0,32,0,0,0,242,253,255,255,0,0,0,1,16,0,0,0,16,0,0,0,8,0,0,0,60,0,0,0,224,252,255,255,44,0,0,0,115,101,113,117,101,110,116,105,97,108,47,98,97,116,99,104,95,110,111,114,109,97,108,105,122,97,116,105,111,110,47,98,97,116,99,104,110,111,114,109,47,109,117,108,0,0,0,0,1,0,0,0,32,0,0,0,74,254,255,255,0,0,0,1,16,0,0,0,16,0,0,0,7,0,0,0,60,0,0,0,56,253,255,255,44,0,0,0,115,101,113,117,101,110,116,105,97,108,47,98,97,116,99,104,95,110,111,114,109,97,108,105,122,97,116,105,111,110,47,98,97,116,99,104,110,111,114,109,47,115,117,98,0,0,0,0,1,0,0,0,32,0,0,0,162,254,255,255,0,0,0,1,16,0,0,0,16,0,0,0,6,0,0,0,40,0,0,0,144,253,255,255,26,0,0,0,115,101,113,117,101,110,116,105,97,108,47,99,111,110,118,49,100,95,49,47,67,111,110,118,49,68,0,0,4,0,0,0,32,0,0,0,1,0,0,0,3,0,0,0,32,0,0,0,242,254,255,255,0,0,0,1,16,0,0,0,16,0,0,0,5,0,0,0,40,0,0,0,224,253,255,255,24,0,0,0,115,101,113,117,101,110,116,105,97,108,47,99,111,110,118,49,100,47,67,111,110,118,49,68,0,0,0,0,4,0,0,0,32,0,0,0,1,0,0,0,3,0,0,0,1,0,0,0,0,0,22,0,28,0,24,0,23,0,16,0,12,0,8,0,0,0,0,0,0,0,7,0,22,0,0,0,0,0,0,1,20,0,0,0,20,0,0,0,4,0,0,0,0,0,0,2,48,0,0,0,76,254,255,255,34,0,0,0,115,101,113,117,101,110,116,105,97,108,47,99,111,110,118,49,100,95,49,47,67,111,110,118,49,68,47,83,113,117,101,101,122,101,0,0,1,0,0,0,3,0,0,0,170,255,255,255,0,0,0,1,16,0,0,0,16,0,0,0,3,0,0,0,56,0,0,0,152,254,255,255,42,0,0,0,115,101,113,117,101,110,116,105,97,108,47,99,111,110,118,49,100,95,49,47,66,105,97,115,65,100,100,47,82,101,97,100,86,97,114,105,97,98,108,101,79,112,0,0,1,0,0,0,32,0,0,0,0,0,22,0,24,0,20,0,0,0,16,0,12,0,8,0,0,0,0,0,0,0,7,0,22,0,0,0,0,0,0,1,16,0,0,0,16,0,0,0,2,0,0,0,56,0,0,0,4,255,255,255,40,0,0,0,115,101,113,117,101,110,116,105,97,108,47,99,111,110,118,49,100,47,66,105,97,115,65,100,100,47,82,101,97,100,86,97,114,105,97,98,108,101,79,112,0,0,0,0,1,0,0,0,32,0,0,0,0,0,22,0,28,0,24,0,0,0,20,0,16,0,12,0,0,0,0,0,8,0,7,0,22,0,0,0,0,0,0,1,20,0,0,0,32,0,0,0,32,0,0,0,1,0,0,0,56,0,0,0,3,0,0,0,255,255,255,255,224,44,2,0,1,0,0,0,132,255,255,255,25,0,0,0,115,101,114,118,105,110,103,95,100,101,102,97,117,108,116,95,105,110,112,117,116,95,49,58,48,0,0,0,3,0,0,0,1,0,0,0,224,44,2,0,1,0,0,0,8,0,0,0,124,0,0,0,96,0,0,0,80,0,0,0,64,0,0,0,56,0,0,0,36,0,0,0,20,0,0,0,4,0,0,0,176,255,255,255,9,0,0,0,0,0,0,9,188,255,255,255,40,0,0,0,0,0,0,40,200,255,255,255,22,0,0,0,0,0,0,22,4,0,4,0,4,0,0,0,220,255,255,255,18,0,0,0,0,0,0,18,232,255,255,255,3,0,0,0,0,0,0,3,244,255,255,255,70,0,0,0,0,0,0,70,12,0,12,0,11,0,0,0,0,0,4,0,12,0,0,0,34,0,0,0,0,0,0,34};
const int g_model_len = 24732;
