#ifndef MODEL_DATA_H_
#define MODEL_DATA_H_

const unsigned char mlp_model[] = {
  0x20, 0x00, 0x00, 0x00, 0x54, 0x46, 0x4c, 0x33, 0x00, 0x00, 0x00, 0x00, 
  0x14, 0x00, 0x20, 0x00, 0x1c, 0x00, 0x18, 0x00, 0x14, 0x00, 0x10, 0x00, 
  0x0c, 0x00, 0x00, 0x00, 0x08, 0x00, 0x04, 0x00, 0x14, 0x00, 0x00, 0x00, 
  0x1c, 0x00, 0x00, 0x00, 0x90, 0x00, 0x00, 0x00, 0xe8, 0x00, 0x00, 0x00, 
  0x44, 0x3e, 0x00, 0x00, 0x54, 0x3e, 0x00, 0x00, 0x44, 0x46, 0x00, 0x00, 
  0x03, 0x00, 0x00, 0x00, 0x01, 0x00, 0x00, 0x00, 0x10, 0x00, 0x00, 0x00, 
  0x00, 0x00, 0x0a, 0x00, 0x10, 0x00, 0x0c, 0x00, 0x08, 0x00, 0x04, 0x00, 
  0x0a, 0x00, 0x00, 0x00, 0x0c, 0x00, 0x00, 0x00, 0x1c, 0x00, 0x00, 0x00, 
  0x38, 0x00, 0x00, 0x00, 0x0f, 0x00, 0x00, 0x00, 0x73, 0x65, 0x72, 0x76, 
  0x69, 0x6e, 0x67, 0x5f, 0x64, 0x65, 0x66, 0x61, 0x75, 0x6c, 0x74, 0x00, 
  0x01, 0x00, 0x00, 0x00, 0x04, 0x00, 0x00, 0x00, 0x98, 0xff, 0xff, 0xff, 
  0x09, 0x00, 0x00, 0x00, 0x04, 0x00, 0x00, 0x00, 0x07, 0x00, 0x00, 0x00, 
  0x64, 0x65, 0x6e, 0x73, 0x65, 0x5f, 0x32, 0x00, 0x01, 0x00, 0x00, 0x00, 
  0x04, 0x00, 0x00, 0x00, 0x4a, 0xc2, 0xff, 0xff, 0x04, 0x00, 0x00, 0x00, 
  0x0b, 0x00, 0x00, 0x00, 0x64, 0x65, 0x6e, 0x73, 0x65, 0x5f, 0x69, 0x6e, 
  0x70, 0x75, 0x74, 0x00, 0x02, 0x00, 0x00, 0x00, 0x34, 0x00, 0x00, 0x00, 
  0x04, 0x00, 0x00, 0x00, 0xdc, 0xff, 0xff, 0xff, 0x0c, 0x00, 0x00, 0x00, 
  0x04, 0x00, 0x00, 0x00, 0x13, 0x00, 0x00, 0x00, 0x43, 0x4f, 0x4e, 0x56, 
  0x45, 0x52, 0x53, 0x49, 0x4f, 0x4e, 0x5f, 0x4d, 0x45, 0x54, 0x41, 0x44, 
  0x41, 0x54, 0x41, 0x00, 0x08, 0x00, 0x0c, 0x00, 0x08, 0x00, 0x04, 0x00, 
  0x08, 0x00, 0x00, 0x00, 0x0b, 0x00, 0x00, 0x00, 0x04, 0x00, 0x00, 0x00, 
  0x13, 0x00, 0x00, 0x00, 0x6d, 0x69, 0x6e, 0x5f, 0x72, 0x75, 0x6e, 0x74, 
  0x69, 0x6d, 0x65, 0x5f, 0x76, 0x65, 0x72, 0x73, 0x69, 0x6f, 0x6e, 0x00, 
  0x0d, 0x00, 0x00, 0x00, 0x58, 0x3d, 0x00, 0x00, 0x50, 0x3d, 0x00, 0x00, 
  0x3c, 0x3d, 0x00, 0x00, 0xe4, 0x3c, 0x00, 0x00, 0xd4, 0x3b, 0x00, 0x00, 
  0xc4, 0x1b, 0x00, 0x00, 0xb4, 0x19, 0x00, 0x00, 0xa4, 0x00, 0x00, 0x00, 
  0x9c, 0x00, 0x00, 0x00, 0x94, 0x00, 0x00, 0x00, 0x8c, 0x00, 0x00, 0x00, 
  0x6c, 0x00, 0x00, 0x00, 0x04, 0x00, 0x00, 0x00, 0xf6, 0xc2, 0xff, 0xff, 
  0x04, 0x00, 0x00, 0x00, 0x58, 0x00, 0x00, 0x00, 0x0c, 0x00, 0x00, 0x00, 
  0x08, 0x00, 0x0e, 0x00, 0x08, 0x00, 0x04, 0x00, 0x08, 0x00, 0x00, 0x00, 
  0x10, 0x00, 0x00, 0x00, 0x28, 0x00, 0x00, 0x00, 0x00, 0x00, 0x06, 0x00, 
  0x08, 0x00, 0x04, 0x00, 0x06, 0x00, 0x00, 0x00, 0x04, 0x00, 0x00, 0x00, 
  0x01, 0x00, 0x00, 0x00, 0xeb, 0x03, 0x00, 0x00, 0x00, 0x00, 0x0a, 0x00, 
  0x10, 0x00, 0x0c, 0x00, 0x08, 0x00, 0x04, 0x00, 0x0a, 0x00, 0x00, 0x00, 
  0x02, 0x00, 0x00, 0x00, 0x02, 0x00, 0x00, 0x00, 0x04, 0x00, 0x00, 0x00, 
  0x06, 0x00, 0x00, 0x00, 0x32, 0x2e, 0x31, 0x30, 0x2e, 0x31, 0x00, 0x00, 
  0x5a, 0xc3, 0xff, 0xff, 0x04, 0x00, 0x00, 0x00, 0x10, 0x00, 0x00, 0x00, 
  0x31, 0x2e, 0x31, 0x34, 0x2e, 0x30, 0x00, 0x00, 0x00, 0x00, 0x00, 0x00, 
  0x00, 0x00, 0x00, 0x00, 0xe4, 0xc2, 0xff, 0xff, 0xe8, 0xc2, 0xff, 0xff, 
  0xec, 0xc2, 0xff, 0xff, 0x82, 0xc3, 0xff, 0xff, 0x04, 0x00, 0x00, 0x00, 
  0x00, 0x19, 0x00, 0x00, 0x5c, 0xc2, 0xcd, 0x2b, 0xd5, 0xef, 0xf5, 0x0a, 
  0x2e, 0x13, 0x11, 0x2f, 0xfe, 0xd3, 0x18, 0x28, 0xdb, 0x08, 0x30, 0xe2, 
  0x3b, 0xe3, 0xf7, 0xe0, 0xd9, 0xc8, 0xe3, 0xd8, 0x44, 0xfd, 0x4e, 0x2c, 
  0x27, 0x1c, 0x22, 0x1e, 0xe4, 0x1b, 0x3f, 0x48, 0x3f, 0xd4, 0xfc, 0xf9, 
  0xe4, 0xa8, 0x05, 0xe2, 0xc0, 0xee, 0x1b, 0x23, 0xee, 0x46, 0x3c, 0xf0, 
  0x35, 0xdd, 0x42, 0x1d, 0x15, 0xb7, 0x32, 0x01, 0x1c, 0xf1, 0x02, 0xd2, 
  0x05, 0xc9, 0x2a, 0xcb, 0xe2, 0xd5, 0xf7, 0x2a, 0xe0, 0x07, 0xea, 0x29, 
  0xde, 0x3e, 0xdd, 0x35, 0x3d, 0xd4, 0x0f, 0xe1, 0xcb, 0x30, 0x3d, 0xda, 
  0x26, 0x48, 0xd4, 0x24, 0x25, 0xd7, 0xf3, 0x26, 0xbf, 0x21, 0xb7, 0x52, 
  0x2d, 0xf0, 0x0d, 0x13, 0xd1, 0xdb, 0x17, 0x2f, 0x1d, 0x0d, 0x17, 0xfc, 
  0xc6, 0x46, 0xf7, 0xe8, 0xbe, 0x21, 0x04, 0x28, 0xf9, 0x1b, 0x22, 0xd6, 
  0xf2, 0xb7, 0x3a, 0xe3, 0x25, 0xbb, 0xda, 0x14, 0x33, 0xd5, 0x05, 0xde, 
  0x24, 0x42, 0xdc, 0xe8, 0x38, 0x22, 0xe7, 0xac, 0x1d, 0xf1, 0xf4, 0x3e, 
  0x4e, 0xeb, 0x27, 0x1f, 0xbe, 0x44, 0xdf, 0x39, 0x27, 0x0e, 0xd4, 0xd8, 
  0xdb, 0x1d, 0x24, 0x08, 0xf0, 0xc4, 0x35, 0x21, 0x06, 0x06, 0x2c, 0x38, 
  0xbf, 0x0b, 0x31, 0xdc, 0xe0, 0xee, 0xfb, 0xb6, 0x15, 0xca, 0xe4, 0xce, 
  0x27, 0x0b, 0xb7, 0xf9, 0xc3, 0xc0, 0x0f, 0xd4, 0xce, 0x23, 0xe8, 0x1e, 
  0x10, 0xf4, 0x21, 0x04, 0xb9, 0x05, 0xe6, 0xbf, 0xd9, 0xd8, 0x2e, 0xe3, 
  0x34, 0x00, 0x21, 0xaa, 0xf3, 0x1d, 0x17, 0xcd, 0x11, 0x44, 0x19, 0xe3, 
  0xc9, 0x41, 0xbc, 0x26, 0xec, 0x0a, 0x29, 0xf6, 0xcf, 0xd6, 0x43, 0x18, 
  0x50, 0x12, 0x1f, 0xe2, 0xd2, 0xcb, 0x27, 0xd6, 0x1e, 0x0a, 0x1a, 0xd7, 
  0xf9, 0x1f, 0xde, 0xda, 0x3e, 0xf5, 0x25, 0xdf, 0x32, 0xc4, 0x24, 0x2f, 
  0xd5, 0x1b, 0xff, 0xe5, 0x40, 0xd9, 0xb7, 0xfa, 0xe0, 0xfd, 0x15, 0x3f, 
  0xeb, 0xe5, 0xff, 0xde, 0x3f, 0x30, 0xe4, 0x3c, 0xf5, 0xff, 0xe8, 0xed, 
  0x1f, 0x1f, 0x13, 0xdf, 0x12, 0x49, 0x31, 0xcb, 0xdf, 0xf3, 0x3c, 0x41, 
  0x0d, 0x03, 0x4c, 0x2d, 0x0f, 0x18, 0x4a, 0xe4, 0xc5, 0xdf, 0xed, 0x20, 
  0x1f, 0xfc, 0x02, 0xe0, 0x25, 0xce, 0xc5, 0xd4, 0x33, 0x05, 0xed, 0xfa, 
  0xee, 0x64, 0x1f, 0x15, 0x2e, 0x26, 0xe3, 0x18, 0x2e, 0xc9, 0xfe, 0xb4, 
  0x06, 0x0a, 0xcc, 0x09, 0xe1, 0x22, 0xd0, 0x14, 0xde, 0x0e, 0xfc, 0xd6, 
  0xe1, 0x31, 0xcd, 0xe7, 0x2b, 0x39, 0xeb, 0x41, 0x17, 0x24, 0x38, 0x18, 
  0x3e, 0xcf, 0xf6, 0xe4, 0xfb, 0xdf, 0xf4, 0x0b, 0x3a, 0xc8, 0xee, 0x05, 
  0x0d, 0xd5, 0xd8, 0x42, 0xf1, 0xc3, 0x08, 0x07, 0x30, 0xc3, 0x13, 0xfa, 
  0xf3, 0x0c, 0x15, 0xf6, 0xbd, 0x1f, 0x23, 0xbc, 0x3e, 0x54, 0x0c, 0xc8, 
  0xfe, 0x04, 0x1c, 0xba, 0x16, 0xf6, 0x1a, 0xda, 0xe4, 0x3e, 0x07, 0xd3, 
  0xd8, 0xc6, 0x0f, 0xf4, 0x00, 0x15, 0x40, 0x27, 0x06, 0x39, 0x13, 0xd7, 
  0x07, 0x28, 0x19, 0xb5, 0xbd, 0x38, 0xd7, 0xfe, 0xca, 0xd4, 0xa3, 0xdd, 
  0x38, 0x02, 0xf2, 0x0a, 0xdf, 0x10, 0xcf, 0xf1, 0xe6, 0x0c, 0xed, 0x23, 
  0xf8, 0xe7, 0xf4, 0x1e, 0x04, 0x34, 0xf7, 0x24, 0xf1, 0xeb, 0x59, 0x0c, 
  0x08, 0xe1, 0x0f, 0xd2, 0xdd, 0xdf, 0x36, 0x34, 0xe2, 0xf0, 0x12, 0x35, 
  0x33, 0x0a, 0x03, 0x19, 0x02, 0xdb, 0x28, 0xeb, 0xeb, 0x1b, 0x48, 0x0c, 
  0xe0, 0x50, 0x1b, 0x25, 0xdb, 0x2c, 0x42, 0xff, 0x06, 0x33, 0x15, 0xfb, 
  0x12, 0xfd, 0x0a, 0x08, 0xdb, 0x31, 0x00, 0x2f, 0xc5, 0x21, 0x04, 0x15, 
  0x13, 0x3a, 0xe5, 0xe6, 0x0e, 0xff, 0x04, 0x17, 0x23, 0x11, 0xf5, 0xe9, 
  0xc8, 0xd4, 0x3a, 0x41, 0xf9, 0xa5, 0xc7, 0xbc, 0xf9, 0x1e, 0xd8, 0x13, 
  0x02, 0x1c, 0x25, 0xca, 0xbb, 0xdf, 0x3a, 0x1a, 0xc6, 0xbf, 0xff, 0x21, 
  0x2e, 0xfd, 0x01, 0x4a, 0xf4, 0x42, 0xde, 0xec, 0xfb, 0x4c, 0xc1, 0xfc, 
  0xf1, 0x09, 0x08, 0x61, 0x1f, 0x25, 0xed, 0x30, 0xeb, 0xfa, 0xe6, 0x1d, 
  0xf0, 0x28, 0x03, 0xd7, 0xdb, 0xfe, 0xee, 0xe9, 0xe8, 0x17, 0xc9, 0xe3, 
  0x3b, 0xe1, 0xb3, 0xd5, 0xe3, 0x24, 0xae, 0x2d, 0xfd, 0x39, 0x2d, 0xde, 
  0xd3, 0xd5, 0xde, 0xc6, 0xee, 0x48, 0x03, 0xc9, 0xd8, 0x40, 0x1e, 0x17, 
  0x41, 0xc3, 0x02, 0x14, 0x03, 0x44, 0x13, 0xe6, 0x15, 0xec, 0x01, 0xce, 
  0xdd, 0xe3, 0xec, 0xe1, 0x29, 0xf0, 0xe4, 0xe6, 0xd3, 0x3d, 0xf4, 0x00, 
  0x2c, 0xd5, 0x3a, 0x4e, 0xce, 0x00, 0xf7, 0x95, 0x0a, 0x27, 0xbd, 0xf5, 
  0xbb, 0x22, 0xe4, 0x17, 0x26, 0x1d, 0x32, 0x25, 0x6c, 0x14, 0x2b, 0xf0, 
  0x30, 0x17, 0xbb, 0xe1, 0xd2, 0xc5, 0x4f, 0x1f, 0xd2, 0x49, 0xd9, 0xe3, 
  0x36, 0x02, 0x02, 0x39, 0xb2, 0x0e, 0xec, 0x05, 0xb7, 0xed, 0x03, 0x36, 
  0x33, 0x16, 0xe9, 0xf9, 0x18, 0xf5, 0x30, 0xf4, 0xfe, 0xdc, 0x31, 0x02, 
  0xdc, 0xfb, 0x37, 0x1b, 0xc6, 0xd2, 0x17, 0x1a, 0xf6, 0x17, 0x0d, 0xb7, 
  0x2a, 0x12, 0x02, 0xfa, 0xd6, 0x26, 0x25, 0xee, 0xf5, 0x13, 0x24, 0x52, 
  0xfd, 0xf1, 0xb5, 0xf9, 0xfd, 0xe2, 0xe0, 0xdd, 0x29, 0xea, 0xf7, 0xee, 
  0xc9, 0xe4, 0xca, 0xf6, 0xe9, 0xc7, 0x20, 0xee, 0xdc, 0x0f, 0xda, 0x97, 
  0x5c, 0xc6, 0x29, 0x1c, 0xc4, 0x3c, 0x35, 0x0e, 0xf8, 0x4f, 0x12, 0xe4, 
  0xe5, 0x3f, 0xe9, 0xf5, 0x3d, 0xfa, 0xb6, 0x03, 0xd6, 0xcb, 0x3b, 0x0c, 
  0xfe, 0x0b, 0x29, 0xd6, 0x44, 0xf1, 0xf2, 0x0c, 0xb6, 0xc0, 0xca, 0x2a, 
  0xfb, 0xd5, 0x03, 0xfc, 0x26, 0x4a, 0x2d, 0x30, 0x9a, 0xf5, 0x2d, 0x34, 
  0xdb, 0x37, 0xe0, 0xdc, 0xfa, 0xf1, 0xcf, 0x2a, 0x3d, 0x4c, 0xc7, 0x11, 
  0xf7, 0x15, 0xd3, 0xc5, 0x0e, 0x2e, 0x1a, 0x1d, 0xf0, 0x2b, 0x30, 0x24, 
  0xd6, 0x31, 0xdd, 0x3c, 0x1e, 0xd1, 0x15, 0x05, 0xc8, 0xba, 0xf8, 0x22, 
  0xee, 0xd1, 0xad, 0x00, 0x0a, 0xf7, 0xe0, 0x31, 0xf3, 0xdb, 0xca, 0x22, 
  0xe5, 0x28, 0xdf, 0xdc, 0x26, 0xf6, 0x11, 0x47, 0xf8, 0x4b, 0x23, 0x20, 
  0x36, 0x42, 0x42, 0x42, 0xb4, 0x1d, 0x0d, 0x34, 0xec, 0xde, 0xe8, 0x10, 
  0xb8, 0x16, 0x2e, 0x02, 0x03, 0x11, 0xee, 0x0b, 0x09, 0xb8, 0xf5, 0x2c, 
  0x26, 0x1f, 0xfb, 0x1a, 0xe9, 0xdb, 0xcb, 0x14, 0x01, 0x4d, 0x07, 0x23, 
  0xfc, 0xfd, 0xbe, 0x13, 0xeb, 0xa3, 0x05, 0x42, 0x1d, 0xb4, 0xe6, 0xf9, 
  0x05, 0x9b, 0xf7, 0xdc, 0x35, 0x47, 0x33, 0x2b, 0xd4, 0xe2, 0x24, 0x05, 
  0xa9, 0x9c, 0x41, 0x2c, 0x21, 0xf8, 0xba, 0xc1, 0x0c, 0x0a, 0x14, 0x37, 
  0x02, 0xb1, 0x18, 0xfd, 0x0f, 0x1a, 0xeb, 0xbd, 0x07, 0xca, 0xf2, 0xeb, 
  0x0d, 0xce, 0xc3, 0x69, 0xe1, 0x08, 0x32, 0xeb, 0xa0, 0x39, 0x40, 0x11, 
  0xdc, 0xc4, 0x0b, 0x30, 0xeb, 0x06, 0xce, 0xbb, 0xf3, 0x2c, 0xd8, 0xe8, 
  0x08, 0xe2, 0x1a, 0xf3, 0xf4, 0xdd, 0x09, 0xe4, 0x08, 0xef, 0xc1, 0x12, 
  0xc8, 0xc0, 0xe6, 0xb4, 0xcc, 0xf8, 0x1d, 0xba, 0x38, 0xea, 0xea, 0x4f, 
  0x28, 0xcd, 0x1c, 0xdc, 0xba, 0x23, 0x29, 0x11, 0xcb, 0xf7, 0x2b, 0x0c, 
  0x11, 0x10, 0xe0, 0x30, 0x08, 0x03, 0x3c, 0x0d, 0x6a, 0x00, 0xcf, 0xcc, 
  0x21, 0x45, 0xe3, 0x06, 0x19, 0x11, 0xe5, 0xea, 0x46, 0xc8, 0x24, 0xe2, 
  0x03, 0xf5, 0xd2, 0xde, 0x1a, 0xcf, 0x22, 0x19, 0x02, 0xf4, 0xe3, 0xf8, 
  0x1e, 0xfb, 0x0b, 0xf6, 0x1f, 0x00, 0x07, 0xaa, 0xe7, 0x1d, 0xe8, 0xc9, 
  0xd5, 0xfa, 0x36, 0x41, 0xf2, 0xc7, 0x4c, 0xb8, 0x04, 0x18, 0x18, 0x33, 
  0x21, 0x12, 0x1e, 0xf0, 0x4f, 0x19, 0x2a, 0xe9, 0x2a, 0x21, 0xf8, 0xca, 
  0x23, 0xe2, 0x1d, 0x23, 0x0b, 0xd7, 0xb7, 0x4c, 0x07, 0xe4, 0x12, 0xd8, 
  0x4c, 0x4a, 0x21, 0xd0, 0xd9, 0xe5, 0x24, 0x1b, 0x39, 0x03, 0x19, 0xdf, 
  0x1e, 0x03, 0xe4, 0xc9, 0xfe, 0xf6, 0xc6, 0x41, 0xff, 0x23, 0x45, 0x27, 
  0x41, 0x43, 0x39, 0x1f, 0x23, 0x29, 0xb5, 0x24, 0xbb, 0xd2, 0x12, 0x0b, 
  0xde, 0xde, 0xee, 0x37, 0x41, 0x10, 0x2c, 0xb4, 0xfb, 0x1d, 0x22, 0xeb, 
  0x28, 0xcc, 0x07, 0xf8, 0x08, 0x0b, 0xe6, 0xb8, 0x36, 0xbb, 0x05, 0xc3, 
  0x3d, 0x2b, 0x1e, 0x24, 0xc4, 0xbe, 0xc3, 0xd4, 0x12, 0x29, 0xda, 0x58, 
  0xe8, 0x2a, 0xad, 0xba, 0x0c, 0xe6, 0x2a, 0xfd, 0xfd, 0xee, 0xb5, 0x0b, 
  0xc8, 0x0e, 0xce, 0xfe, 0xe7, 0x23, 0xc6, 0x20, 0xea, 0xe0, 0xdc, 0x17, 
  0x26, 0xd8, 0x3c, 0xcd, 0x0c, 0x19, 0xee, 0xd9, 0xe4, 0x01, 0x1e, 0x14, 
  0xf3, 0x03, 0xd5, 0xe5, 0xdc, 0x90, 0xea, 0xec, 0x25, 0xf0, 0xca, 0xf5, 
  0xbe, 0xc2, 0x38, 0xcb, 0x63, 0x37, 0xfb, 0x1d, 0xee, 0x11, 0x42, 0x22, 
  0xf9, 0x35, 0xae, 0x04, 0xc6, 0x16, 0xdd, 0xbb, 0x13, 0x02, 0x13, 0x3b, 
  0x20, 0xce, 0xed, 0xcd, 0x18, 0x2e, 0xda, 0x1f, 0xfc, 0x00, 0x2b, 0xd3, 
  0x2a, 0xca, 0x40, 0x3f, 0x45, 0x42, 0xf7, 0xec, 0xf7, 0x2f, 0x29, 0x12, 
  0x27, 0x11, 0xe4, 0x0a, 0x0d, 0xee, 0x00, 0x0d, 0x37, 0x0d, 0xbc, 0xcb, 
  0xf3, 0xf9, 0xbd, 0x19, 0x49, 0x02, 0x16, 0xe9, 0xe1, 0xc8, 0xe3, 0xfa, 
  0xbf, 0xb8, 0x19, 0xda, 0xdd, 0xce, 0x13, 0x20, 0xea, 0x31, 0xb1, 0x45, 
  0x51, 0x23, 0x27, 0x1f, 0xc7, 0x1d, 0xb7, 0x17, 0x36, 0xcb, 0xe4, 0xe2, 
  0x2d, 0xe5, 0xdb, 0xdc, 0xc8, 0xda, 0xf6, 0xcb, 0x20, 0x3e, 0x0c, 0xd3, 
  0xd4, 0x0c, 0x2f, 0x33, 0x12, 0xbf, 0x41, 0x30, 0xdc, 0xe3, 0xd9, 0x1e, 
  0x5b, 0xd0, 0x2f, 0x0c, 0x13, 0xca, 0xeb, 0x3a, 0xed, 0x21, 0x1e, 0xe5, 
  0x2d, 0x22, 0x2b, 0x4d, 0xea, 0xf2, 0xff, 0xe3, 0xeb, 0xcc, 0xc4, 0x3a, 
  0xc8, 0xfc, 0xc9, 0x05, 0xf9, 0x28, 0xad, 0x19, 0x29, 0x09, 0x01, 0x11, 
  0x31, 0xec, 0xd6, 0xf2, 0x4d, 0xd5, 0x36, 0xbd, 0xf1, 0xb7, 0xbc, 0xf2, 
  0x2e, 0x0f, 0xbc, 0x05, 0x3a, 0x07, 0x08, 0x12, 0x23, 0xf1, 0x20, 0xba, 
  0xaa, 0xfa, 0x06, 0xcd, 0x00, 0xd6, 0x12, 0xbf, 0x2c, 0x1e, 0xde, 0xd5, 
  0x19, 0xf8, 0x46, 0xbe, 0x19, 0xc7, 0x09, 0xff, 0xf0, 0xe5, 0xf1, 0xfc, 
  0x5e, 0x4b, 0x33, 0xc0, 0xf2, 0x32, 0x2c, 0xd6, 0x2b, 0xf2, 0x1e, 0x00, 
  0xf8, 0x0e, 0x18, 0xae, 0x08, 0x1e, 0x44, 0x0b, 0xd5, 0xf6, 0x34, 0xcb, 
  0x20, 0xc1, 0xfe, 0x02, 0xd9, 0xf3, 0xed, 0x17, 0x1e, 0x36, 0x10, 0x38, 
  0xc8, 0x37, 0x4d, 0xbb, 0x0b, 0xdb, 0x18, 0x01, 0x4a, 0xa8, 0xdb, 0x15, 
  0x1d, 0x0b, 0x0f, 0x21, 0x08, 0x08, 0x06, 0x3c, 0x08, 0xdd, 0x3a, 0x3a, 
  0x37, 0xe0, 0x05, 0xf4, 0x23, 0xcb, 0xc9, 0xf8, 0xfc, 0xbf, 0x03, 0xf2, 
  0xf9, 0xe5, 0xfd, 0xcd, 0x20, 0xc4, 0xed, 0xe8, 0x28, 0xf9, 0x11, 0x10, 
  0x20, 0x09, 0xd1, 0xf5, 0xdd, 0xfb, 0x2f, 0xdb, 0xd3, 0xe0, 0xe3, 0x44, 
  0xc1, 0xd7, 0xf7, 0xbc, 0x1b, 0x0b, 0xf9, 0x47, 0x39, 0xe9, 0xd8, 0x43, 
  0xf7, 0x32, 0x82, 0x0c, 0xfa, 0xd8, 0xfe, 0x32, 0xfd, 0xe3, 0x27, 0x07, 
  0xd1, 0x15, 0xdd, 0xe4, 0x3b, 0xdb, 0xd7, 0xc7, 0x20, 0x20, 0x0e, 0x2b, 
  0x2d, 0x25, 0x3b, 0xd9, 0x35, 0xb2, 0xf8, 0xb5, 0xbd, 0x3f, 0x0a, 0xe1, 
  0xd4, 0x4f, 0xf1, 0xb6, 0xf8, 0xe7, 0x23, 0xc4, 0x15, 0xdb, 0xfd, 0x5d, 
  0xee, 0x0d, 0x4d, 0xd0, 0xe6, 0x08, 0x56, 0x13, 0x05, 0x1c, 0x1a, 0xf6, 
  0x17, 0xd5, 0xff, 0x2f, 0x35, 0x06, 0xee, 0xef, 0xcf, 0xf8, 0xf3, 0xe2, 
  0xc7, 0xfb, 0x0d, 0xcc, 0x4d, 0x45, 0x3d, 0x14, 0x2f, 0x49, 0x32, 0xed, 
  0xf0, 0xfe, 0x1f, 0x43, 0x28, 0xdc, 0xc5, 0xb5, 0x1b, 0xc7, 0xf8, 0xd4, 
  0xf3, 0xe5, 0xcf, 0xdc, 0x19, 0xe9, 0xfe, 0x24, 0xcd, 0x28, 0x23, 0xff, 
  0xde, 0x0a, 0x0d, 0xb5, 0x18, 0x2f, 0x37, 0xc1, 0x1b, 0xdf, 0xe5, 0x30, 
  0xee, 0x36, 0x02, 0x49, 0x23, 0x1c, 0x01, 0xbc, 0xfd, 0x32, 0xc1, 0xc6, 
  0x10, 0xde, 0x0e, 0x24, 0xfb, 0xe5, 0x2b, 0x1e, 0x2e, 0xf7, 0x59, 0xf8, 
  0x3c, 0x2e, 0xe0, 0x23, 0x1c, 0x0d, 0xc4, 0x3a, 0xed, 0xc8, 0xbb, 0xdb, 
  0xbf, 0xe1, 0x0d, 0xcb, 0xc3, 0xd7, 0xfb, 0x2b, 0xda, 0xe5, 0x62, 0xe9, 
  0xd4, 0x14, 0x55, 0x3b, 0x3c, 0x24, 0xce, 0x35, 0xfd, 0xd2, 0xed, 0x39, 
  0x03, 0x11, 0xf1, 0x16, 0xf5, 0x01, 0xfd, 0x0f, 0xfc, 0x24, 0xfa, 0xfb, 
  0x2b, 0x04, 0x0d, 0x06, 0x2e, 0xde, 0xee, 0xf4, 0x1a, 0x14, 0xde, 0xfb, 
  0xfe, 0xe7, 0xe8, 0xf8, 0xc9, 0x1a, 0x43, 0x23, 0xe5, 0x38, 0xde, 0xd5, 
  0x1b, 0xf2, 0x36, 0xf8, 0x25, 0xec, 0x1d, 0x0a, 0x13, 0x17, 0xf2, 0xfb, 
  0xf2, 0x53, 0xee, 0xf8, 0xca, 0xd6, 0xc9, 0x14, 0xca, 0x27, 0xc2, 0x00, 
  0xba, 0xb9, 0xa8, 0xf5, 0x29, 0x38, 0x54, 0xcd, 0x5b, 0xae, 0xf1, 0xda, 
  0xb7, 0x39, 0x13, 0xff, 0x26, 0x06, 0xdb, 0xb7, 0x1d, 0x39, 0x1f, 0xce, 
  0xdf, 0xc5, 0xc5, 0x30, 0x4f, 0xeb, 0x28, 0x00, 0xf9, 0x25, 0x3d, 0x97, 
  0x1b, 0xf3, 0x4b, 0xff, 0x10, 0x33, 0x3d, 0xec, 0xe9, 0x1a, 0x1d, 0xd1, 
  0xdf, 0x0e, 0x1c, 0xd5, 0xd4, 0xff, 0xbc, 0xbc, 0x02, 0x07, 0xf5, 0xf0, 
  0xc4, 0xf7, 0x0c, 0x0d, 0xd2, 0xe1, 0x2d, 0x08, 0x2c, 0x0d, 0x3f, 0x1e, 
  0xb8, 0x04, 0xee, 0x14, 0x20, 0xc4, 0x49, 0x17, 0x27, 0x12, 0xe6, 0xca, 
  0x58, 0x26, 0x29, 0xe3, 0x48, 0x28, 0xf3, 0xfa, 0xf5, 0xf4, 0x37, 0x41, 
  0xe4, 0x3f, 0x09, 0xf7, 0xe7, 0x09, 0xdd, 0x15, 0x32, 0x1a, 0xa0, 0xf9, 
  0x24, 0x0e, 0x11, 0xd9, 0xd1, 0x0e, 0x54, 0x01, 0xd1, 0xcc, 0xf8, 0x14, 
  0xfc, 0xe0, 0xea, 0x3a, 0xd9, 0x37, 0x27, 0xd6, 0xe5, 0xff, 0x01, 0x38, 
  0xe1, 0x05, 0x12, 0xf4, 0x1b, 0xe6, 0xc8, 0x28, 0xc0, 0xf6, 0x22, 0x08, 
  0x21, 0x02, 0xb6, 0x0a, 0x39, 0xc3, 0xe9, 0xe8, 0x09, 0x1f, 0xe4, 0xee, 
  0x26, 0x35, 0xb2, 0x2f, 0xf4, 0x12, 0x0a, 0x3f, 0x69, 0x0c, 0xe5, 0x0d, 
  0xe4, 0x31, 0xf7, 0xf8, 0x1d, 0x37, 0x2d, 0xd7, 0x2b, 0x27, 0xe5, 0xf6, 
  0x2a, 0xd5, 0x28, 0x21, 0xcd, 0xfe, 0x0c, 0xe1, 0x28, 0x31, 0xd2, 0xfe, 
  0x0c, 0xe2, 0x28, 0xec, 0xe0, 0x22, 0x16, 0x0b, 0x19, 0xea, 0xde, 0x0a, 
  0xbe, 0xcd, 0xea, 0x23, 0xc5, 0xb3, 0x23, 0x17, 0x35, 0xca, 0x2d, 0x07, 
  0x2b, 0x32, 0xfe, 0xf9, 0xf1, 0xe2, 0xad, 0xf4, 0x2e, 0xcc, 0xca, 0x05, 
  0xe7, 0x05, 0xec, 0x3d, 0x32, 0xe8, 0x16, 0xe0, 0xe5, 0xd3, 0x22, 0x37, 
  0xf1, 0xfb, 0x1d, 0x48, 0xd0, 0x01, 0x21, 0xfd, 0xf4, 0x24, 0xa8, 0x0d, 
  0xff, 0x35, 0xb2, 0xee, 0x5b, 0xea, 0xf0, 0xf1, 0x37, 0xdc, 0xd0, 0xf9, 
  0x11, 0xcb, 0xfb, 0x2e, 0xe8, 0x32, 0xd3, 0x3e, 0x21, 0x19, 0x4c, 0x25, 
  0x37, 0x03, 0x03, 0xe2, 0xca, 0x19, 0xde, 0x4e, 0xce, 0xaf, 0xf6, 0x16, 
  0xde, 0xd5, 0x12, 0x66, 0xf4, 0x28, 0x01, 0x1d, 0x08, 0xd4, 0x37, 0xd5, 
  0xd4, 0xab, 0xe5, 0x0a, 0x56, 0x1c, 0xea, 0xdd, 0x10, 0xf9, 0x22, 0x4e, 
  0xf8, 0x38, 0x2d, 0x18, 0xcd, 0x29, 0xdf, 0xe2, 0xc8, 0xfd, 0xf8, 0xd4, 
  0xe7, 0xd8, 0x57, 0x36, 0xe1, 0x09, 0x11, 0x07, 0x3e, 0xe7, 0xba, 0xc1, 
  0x44, 0xeb, 0x08, 0x08, 0xe3, 0x38, 0xe9, 0xfe, 0x3b, 0x34, 0xe2, 0xf3, 
  0xc6, 0x05, 0xe3, 0xfc, 0x27, 0x32, 0xbe, 0x34, 0x1c, 0xdf, 0xf4, 0xe5, 
  0xf6, 0xd0, 0xb8, 0x4c, 0xb3, 0x3f, 0x2e, 0x06, 0xef, 0x2b, 0xd1, 0x3b, 
  0xab, 0xe2, 0x10, 0x33, 0x4a, 0x04, 0x0d, 0x03, 0xdc, 0xdf, 0xfc, 0xfa, 
  0xe6, 0x22, 0x29, 0x0c, 0xdd, 0xa7, 0x13, 0xf9, 0xd5, 0x1c, 0xe1, 0x05, 
  0xf3, 0xd9, 0x16, 0x50, 0xd0, 0x3b, 0xb0, 0x4c, 0xaf, 0x65, 0xe5, 0xff, 
  0x03, 0xf0, 0xd9, 0x11, 0x07, 0xe6, 0x16, 0x0c, 0x33, 0x0b, 0xc5, 0x0e, 
  0xde, 0xfa, 0xb8, 0x4a, 0x04, 0xe9, 0x16, 0x1f, 0x27, 0x16, 0xc5, 0x32, 
  0xc8, 0x38, 0xfd, 0xe5, 0x24, 0x24, 0xe1, 0xc4, 0xf4, 0x09, 0xe4, 0x32, 
  0xe6, 0xe6, 0xe3, 0xe4, 0xb4, 0xcf, 0x5d, 0x03, 0x27, 0x4a, 0x26, 0x07, 
  0x15, 0x00, 0xf4, 0x30, 0x3d, 0xe8, 0xf7, 0xce, 0x12, 0x69, 0x04, 0x35, 
  0xce, 0xe6, 0x11, 0xdd, 0xb4, 0xf6, 0x18, 0x18, 0xea, 0x0f, 0xcb, 0xf5, 
  0x37, 0x2e, 0xa9, 0x29, 0xf0, 0x03, 0xed, 0xf9, 0xc0, 0x12, 0xe7, 0xe7, 
  0xe4, 0x3a, 0x50, 0xf8, 0xf9, 0xb8, 0xdf, 0x2e, 0xe4, 0xe7, 0xf4, 0x56, 
  0x04, 0x54, 0x0c, 0xd9, 0x11, 0xde, 0x1c, 0xf4, 0xfb, 0xc0, 0x46, 0x0b, 
  0x12, 0xee, 0x1b, 0x29, 0x02, 0xf3, 0x3e, 0xe0, 0xbf, 0xcc, 0x06, 0xda, 
  0x0d, 0xf1, 0x31, 0x19, 0x04, 0xc5, 0x0b, 0xe8, 0x44, 0xc7, 0x15, 0xc4, 
  0xe2, 0x26, 0xea, 0x2b, 0xec, 0xf5, 0xeb, 0x34, 0x01, 0x3a, 0xcf, 0x35, 
  0x21, 0xcc, 0xcb, 0x11, 0xc4, 0xca, 0xc8, 0xd7, 0xda, 0xdc, 0x2c, 0xef, 
  0x05, 0x63, 0x3d, 0xe9, 0xcc, 0xd4, 0xf9, 0xdd, 0x04, 0xc2, 0xc3, 0xf4, 
  0x2e, 0xe6, 0xd3, 0x2c, 0x16, 0xf4, 0x1a, 0x0d, 0xf2, 0xde, 0x07, 0xe7, 
  0xfe, 0x3c, 0x09, 0x3c, 0xea, 0xd3, 0xf5, 0x0e, 0x2d, 0x1d, 0x27, 0x3b, 
  0xed, 0xe8, 0xcb, 0xe3, 0x2d, 0xe2, 0xd8, 0xc8, 0x21, 0xfe, 0x11, 0x2d, 
  0xfc, 0xd5, 0x31, 0xc6, 0xcc, 0xdf, 0xc5, 0xce, 0xc9, 0xca, 0xcd, 0xd2, 
  0x1d, 0x07, 0xe9, 0xce, 0xe3, 0xea, 0xfa, 0xf9, 0x21, 0xe3, 0x54, 0x20, 
  0x2f, 0x18, 0x37, 0xe3, 0x20, 0x35, 0xe5, 0xe5, 0x09, 0x13, 0x0d, 0xc0, 
  0x08, 0xc7, 0xcd, 0x26, 0xed, 0xf1, 0xc3, 0xd3, 0xde, 0xef, 0xcc, 0x19, 
  0x1d, 0xb4, 0x3e, 0x1b, 0x23, 0x40, 0x44, 0xf5, 0x21, 0x26, 0xce, 0xc6, 
  0x19, 0x10, 0xc7, 0xea, 0xf6, 0x24, 0xea, 0xd3, 0x3a, 0x2a, 0xb2, 0x1d, 
  0xbb, 0xd9, 0xff, 0x25, 0xce, 0x1d, 0xf0, 0xed, 0xe3, 0xfc, 0x04, 0xc1, 
  0xd7, 0xd0, 0x34, 0xe1, 0x05, 0x0d, 0x05, 0x06, 0x07, 0xfe, 0xfe, 0xec, 
  0x11, 0x45, 0xfe, 0xc6, 0xcf, 0xfe, 0x35, 0xb9, 0x33, 0xf8, 0xed, 0xe0, 
  0xd3, 0xbd, 0xde, 0xe8, 0xe0, 0x07, 0xfd, 0x31, 0x0f, 0xd7, 0xd3, 0x26, 
  0xf6, 0x19, 0x34, 0x56, 0x0f, 0x29, 0xda, 0xef, 0xf0, 0xca, 0xfe, 0x13, 
  0xd3, 0xf4, 0xb8, 0x58, 0x08, 0xfb, 0x3b, 0x1e, 0x26, 0x23, 0xfb, 0x26, 
  0xe0, 0xea, 0x2b, 0xe1, 0xdb, 0xcf, 0x1e, 0xf1, 0x20, 0x12, 0x3b, 0xa4, 
  0x0b, 0xf3, 0x10, 0x38, 0x1f, 0x18, 0x14, 0x2b, 0xd3, 0x08, 0xf1, 0xfc, 
  0xdd, 0x03, 0x00, 0x2c, 0x07, 0x29, 0xa4, 0xda, 0xf1, 0x26, 0xd8, 0x50, 
  0x1c, 0x3f, 0xbe, 0xe4, 0x1c, 0x2b, 0xf7, 0x34, 0xc3, 0xf5, 0x0d, 0x01, 
  0x13, 0x0b, 0x44, 0x12, 0x10, 0xb9, 0x05, 0xda, 0x28, 0xe4, 0x2c, 0xd4, 
  0x44, 0x18, 0xe7, 0xd5, 0xdf, 0x13, 0x30, 0x40, 0xc1, 0x40, 0x39, 0x30, 
  0xfd, 0x0e, 0x14, 0x1d, 0x0d, 0x51, 0x13, 0xf2, 0xc5, 0x4f, 0xff, 0xc4, 
  0x35, 0x09, 0xdd, 0x16, 0x24, 0xd5, 0x1b, 0x51, 0xf7, 0xd4, 0x2b, 0x0e, 
  0x42, 0xe2, 0xe1, 0xc4, 0xd5, 0x2d, 0xd1, 0xc8, 0x65, 0x17, 0xc7, 0x1f, 
  0xb3, 0xac, 0x1c, 0x07, 0x11, 0xc2, 0xfe, 0xd5, 0xf3, 0xe8, 0x49, 0xb5, 
  0x2c, 0x23, 0xda, 0xe6, 0x18, 0xf7, 0xd6, 0x14, 0xcc, 0x01, 0x40, 0xe0, 
  0x14, 0xc9, 0x0c, 0xed, 0x26, 0xe3, 0x03, 0x2d, 0x02, 0x49, 0x1d, 0x4c, 
  0xfd, 0x1d, 0xf4, 0x1f, 0x3c, 0xe2, 0xff, 0xcd, 0x0d, 0xc0, 0xd5, 0xd5, 
  0x29, 0xd6, 0xf6, 0xf5, 0xd3, 0xcc, 0xde, 0xd8, 0x1c, 0xcd, 0x08, 0x34, 
  0x2e, 0xe1, 0x12, 0xcc, 0xc3, 0xe9, 0xfe, 0x2b, 0xf6, 0xe8, 0xdf, 0xdc, 
  0xc6, 0xf6, 0x15, 0x4b, 0xa0, 0x1f, 0x2a, 0xc5, 0x3f, 0xed, 0xdd, 0xf5, 
  0x33, 0x43, 0xe8, 0xd6, 0x0b, 0xec, 0xe7, 0xb8, 0x19, 0x08, 0x37, 0x3c, 
  0xd1, 0xc0, 0xdd, 0xe6, 0x29, 0x16, 0xc3, 0xe5, 0xd0, 0x05, 0x29, 0x01, 
  0x26, 0x20, 0x2c, 0xdb, 0x09, 0xe3, 0xcb, 0xce, 0x22, 0xe1, 0xda, 0xe6, 
  0x07, 0x42, 0x14, 0x4e, 0x54, 0xbc, 0xf4, 0x12, 0xcd, 0x39, 0x19, 0xc8, 
  0x2b, 0x10, 0xbc, 0xf4, 0x29, 0xd7, 0xc8, 0x2f, 0x2a, 0x0b, 0x1e, 0x09, 
  0xbb, 0xcd, 0xc4, 0xe5, 0xc9, 0xd7, 0x4b, 0x0f, 0xfe, 0x10, 0xcd, 0xfd, 
  0xea, 0xb1, 0xf2, 0x0b, 0xfb, 0x33, 0xfd, 0xd7, 0xc0, 0xf6, 0xe1, 0xf5, 
  0x23, 0x29, 0x31, 0x34, 0xd5, 0x04, 0x1b, 0xe6, 0xf6, 0x35, 0x0f, 0xea, 
  0xc7, 0xe0, 0xdf, 0xe5, 0x20, 0xd5, 0x19, 0x10, 0xd0, 0xff, 0x42, 0xb9, 
  0x4d, 0x56, 0xe6, 0x19, 0xe7, 0x25, 0xcc, 0xb1, 0x1e, 0xd0, 0xbf, 0x20, 
  0xc4, 0xc9, 0x09, 0x0a, 0xba, 0x0e, 0xd2, 0xe1, 0x17, 0x31, 0xf0, 0x1b, 
  0xd5, 0x15, 0xf7, 0xcb, 0xe9, 0x1d, 0x25, 0x1e, 0x9a, 0xf1, 0xf0, 0xc6, 
  0xd7, 0xf0, 0xc1, 0xfb, 0x17, 0x2c, 0x07, 0xe3, 0x41, 0x1d, 0x33, 0x62, 
  0x45, 0x22, 0x25, 0x51, 0xcb, 0xe8, 0x1f, 0xb0, 0x3f, 0xf8, 0xe1, 0xe3, 
  0x17, 0x14, 0xf4, 0x2d, 0xec, 0xee, 0xd1, 0x2c, 0xf1, 0xf6, 0xc9, 0xeb, 
  0x31, 0xc2, 0xdc, 0xff, 0xe3, 0xf4, 0xa7, 0x48, 0xca, 0x21, 0x0f, 0x33, 
  0x0f, 0xec, 0x06, 0xf7, 0x11, 0xd6, 0x0e, 0x37, 0x09, 0x12, 0x43, 0x16, 
  0x38, 0xf7, 0x08, 0xfa, 0x09, 0x56, 0x18, 0xd3, 0x4a, 0x1d, 0x0a, 0xcb, 
  0x50, 0x0c, 0x02, 0xdf, 0x1b, 0xc4, 0xf7, 0x1d, 0xd0, 0xf1, 0x38, 0xeb, 
  0x07, 0xd4, 0xb5, 0xe6, 0x15, 0xf2, 0x3b, 0xcb, 0x04, 0xf9, 0xff, 0xf3, 
  0xd5, 0x39, 0x28, 0x21, 0xe5, 0x34, 0x22, 0xbc, 0x1a, 0x12, 0xc0, 0x3b, 
  0xcd, 0x33, 0x1c, 0xd6, 0xe0, 0xd8, 0x2a, 0xff, 0x26, 0x4e, 0xf8, 0x24, 
  0xe9, 0x1e, 0xf5, 0xed, 0xe3, 0xe5, 0xfe, 0x2f, 0x36, 0x03, 0x2c, 0x2a, 
  0x27, 0xef, 0x00, 0x0c, 0x41, 0xcb, 0xfc, 0xdb, 0x45, 0x22, 0xcf, 0xae, 
  0xd4, 0x25, 0x38, 0xdd, 0x47, 0x30, 0xe8, 0x19, 0xb9, 0xe1, 0xd2, 0xc6, 
  0x40, 0x32, 0x20, 0xac, 0x00, 0xf2, 0xb9, 0xe9, 0x1e, 0x30, 0xff, 0xe5, 
  0xf1, 0x02, 0x25, 0x37, 0xf0, 0x04, 0x38, 0xf3, 0xfd, 0xfa, 0x1e, 0x2d, 
  0x03, 0xc5, 0x23, 0x03, 0xf1, 0x06, 0x04, 0x3b, 0xb4, 0xf6, 0x14, 0x9d, 
  0xe3, 0xee, 0xfd, 0x1d, 0x05, 0xc1, 0x34, 0xd3, 0xf2, 0x0c, 0x2b, 0xd6, 
  0xda, 0x37, 0xe3, 0xf1, 0x45, 0x03, 0x1b, 0x34, 0x2d, 0x3e, 0x08, 0xfd, 
  0x02, 0xb1, 0xec, 0xd0, 0x55, 0x51, 0xd2, 0x29, 0xfd, 0x19, 0x03, 0xd4, 
  0x1c, 0xc6, 0xeb, 0x26, 0xec, 0xf0, 0x51, 0xcd, 0xc9, 0xee, 0x1a, 0x1f, 
  0xc8, 0xd8, 0x28, 0xd8, 0xf3, 0xd5, 0xa1, 0x2f, 0xf4, 0xc0, 0x11, 0xef, 
  0x0e, 0x12, 0x16, 0x0b, 0x1a, 0xff, 0x59, 0x18, 0x4a, 0x3f, 0xfd, 0x21, 
  0x12, 0xf2, 0x1b, 0xb3, 0xfc, 0x36, 0x97, 0x03, 0xba, 0xbe, 0x0f, 0x33, 
  0x2d, 0x16, 0x21, 0xe0, 0x2d, 0x36, 0x11, 0xb6, 0x18, 0xd5, 0x3f, 0x2c, 
  0x3b, 0xf7, 0xdb, 0xc5, 0xf1, 0x25, 0x01, 0x14, 0x38, 0x0e, 0x2f, 0xfd, 
  0x11, 0x31, 0xbb, 0x3c, 0x3c, 0x4c, 0xd5, 0x5f, 0xd3, 0x1a, 0xff, 0x2d, 
  0xf0, 0x2c, 0x2c, 0xe0, 0x10, 0x26, 0xe4, 0xf1, 0x36, 0xf1, 0xd1, 0x0d, 
  0x09, 0x01, 0xf4, 0xf2, 0xba, 0xf5, 0xed, 0xd7, 0x50, 0x00, 0x4a, 0xc4, 
  0xf1, 0x20, 0x06, 0x34, 0x37, 0xbd, 0xe7, 0x51, 0xf0, 0xf3, 0xfd, 0x21, 
  0x20, 0xff, 0xe4, 0x2f, 0xc7, 0xf7, 0xcc, 0x12, 0x39, 0xf1, 0xf1, 0x18, 
  0x4b, 0x30, 0x2c, 0xe3, 0xc8, 0xd2, 0xed, 0xfa, 0xc5, 0xe8, 0x00, 0xee, 
  0x50, 0xeb, 0x1e, 0x00, 0xeb, 0x35, 0xd4, 0x1d, 0xf4, 0xd8, 0x0f, 0xf9, 
  0xe8, 0x26, 0xef, 0x08, 0x47, 0x0e, 0xe4, 0xef, 0x35, 0x10, 0xe8, 0x12, 
  0xef, 0x48, 0x21, 0xee, 0x1b, 0x1e, 0x30, 0x08, 0x3d, 0x14, 0x39, 0x59, 
  0x15, 0xde, 0xfb, 0xfc, 0xd4, 0xf0, 0xeb, 0xf0, 0xfa, 0xe5, 0xa7, 0xe9, 
  0x23, 0x0a, 0xd7, 0xed, 0xcb, 0xff, 0xec, 0x2c, 0x03, 0x37, 0x1b, 0x0d, 
  0x20, 0x22, 0xdd, 0x0b, 0x27, 0x17, 0x1a, 0xb6, 0x12, 0xf4, 0x35, 0xdc, 
  0xb3, 0x46, 0x46, 0x1c, 0x57, 0xf6, 0x04, 0x1f, 0xec, 0x57, 0xf8, 0xf5, 
  0xf0, 0x03, 0xc9, 0xe9, 0xea, 0xf6, 0xba, 0x2c, 0xef, 0x34, 0xc1, 0x3c, 
  0xd6, 0xe6, 0x11, 0xda, 0x05, 0x07, 0xd5, 0x1e, 0xc1, 0x01, 0xf7, 0xee, 
  0x07, 0x3f, 0xcd, 0x42, 0xfa, 0x01, 0x35, 0xf4, 0xe7, 0xd6, 0x1c, 0x1d, 
  0x2d, 0xd8, 0xe0, 0x0e, 0x5a, 0xfd, 0x3e, 0x34, 0x35, 0x1e, 0x16, 0x1e, 
  0x1d, 0x09, 0x05, 0xb9, 0x45, 0xf3, 0x1f, 0x03, 0xbe, 0xc6, 0xd7, 0x1b, 
  0x46, 0x17, 0x1e, 0x04, 0x12, 0xea, 0xed, 0x24, 0xca, 0x4d, 0x1d, 0xf0, 
  0x19, 0x14, 0xfb, 0x04, 0x35, 0xf2, 0xc2, 0x27, 0x18, 0x0e, 0x3e, 0x23, 
  0xde, 0xbf, 0xc7, 0xde, 0xf7, 0x4c, 0x43, 0x04, 0x05, 0xf5, 0xfc, 0x12, 
  0x3c, 0xdb, 0xc8, 0x2b, 0xf7, 0x30, 0xf8, 0xc7, 0xc8, 0x9e, 0x31, 0x29, 
  0xde, 0x4d, 0x14, 0xd6, 0xe1, 0x0a, 0xe0, 0x27, 0x39, 0x71, 0x0f, 0xef, 
  0xf1, 0x1e, 0xfe, 0x1a, 0x16, 0xf6, 0x17, 0xe8, 0x0a, 0x08, 0xf7, 0x38, 
  0xe2, 0x19, 0xe0, 0xca, 0xc7, 0xbb, 0x38, 0x33, 0xd9, 0xfa, 0xc5, 0xc7, 
  0xf0, 0x1e, 0x15, 0xdc, 0x22, 0xeb, 0xb5, 0xfe, 0x09, 0xf6, 0x30, 0x2d, 
  0xfe, 0x33, 0x21, 0xc8, 0x08, 0x14, 0xdf, 0xec, 0xe3, 0xfe, 0xca, 0x0b, 
  0xc8, 0x04, 0xc6, 0x04, 0xf5, 0xf8, 0x0a, 0xae, 0xd6, 0x05, 0x35, 0x3f, 
  0xb8, 0x1a, 0x19, 0x18, 0xdc, 0xd9, 0x35, 0xba, 0x16, 0x36, 0xc8, 0xdc, 
  0xe5, 0x09, 0xe2, 0x13, 0xbc, 0xed, 0xe7, 0xf9, 0xf7, 0xe5, 0xdb, 0xe1, 
  0xfe, 0xcf, 0xa4, 0xde, 0xd0, 0x16, 0x00, 0xee, 0xda, 0x42, 0x1c, 0x4d, 
  0x00, 0xd1, 0x34, 0x21, 0x27, 0xe2, 0x1d, 0x21, 0x0c, 0x1d, 0xf9, 0x0a, 
  0xfc, 0xfe, 0xfd, 0x06, 0xe7, 0x14, 0xd9, 0x07, 0x34, 0x02, 0xe2, 0xd3, 
  0x28, 0x04, 0x29, 0x43, 0x1e, 0x21, 0xf9, 0x0e, 0xef, 0xf6, 0xf1, 0x2a, 
  0xc7, 0x4e, 0xad, 0xb1, 0xf7, 0x08, 0xd1, 0xe2, 0xc6, 0x08, 0x10, 0xdb, 
  0xce, 0x2a, 0x34, 0xe3, 0x11, 0x09, 0x2e, 0x0e, 0x2f, 0x56, 0x06, 0x3e, 
  0xf8, 0x00, 0xc8, 0x13, 0xf5, 0x33, 0xd2, 0x1e, 0xfb, 0xf1, 0xfa, 0xb2, 
  0x51, 0x17, 0x22, 0x1f, 0x31, 0x34, 0xe4, 0xd8, 0x11, 0xfa, 0x13, 0xd4, 
  0xc7, 0xfd, 0xd5, 0x35, 0x04, 0xf3, 0xd7, 0x4e, 0xb2, 0xef, 0xd9, 0xd3, 
  0x40, 0x19, 0x1b, 0xe3, 0x02, 0x57, 0x02, 0x1a, 0x11, 0xba, 0xc7, 0x2c, 
  0x12, 0xed, 0x23, 0xe0, 0x45, 0xf3, 0x1a, 0xbb, 0x17, 0x2f, 0xfe, 0x2c, 
  0x43, 0x18, 0x2f, 0x0b, 0xf8, 0x16, 0x25, 0xeb, 0xc2, 0x3f, 0x28, 0x1f, 
  0x10, 0xc0, 0xf9, 0xf5, 0x3a, 0xd5, 0x4c, 0x1b, 0x12, 0xdf, 0xce, 0xf0, 
  0xf4, 0x35, 0x21, 0x39, 0xcc, 0x0f, 0xfb, 0xc4, 0xef, 0x06, 0xc9, 0x1f, 
  0x25, 0xb9, 0x25, 0x35, 0xc7, 0x26, 0x31, 0xdf, 0x17, 0xcc, 0x10, 0x0f, 
  0x10, 0x08, 0xdf, 0xf4, 0x06, 0x3c, 0xd3, 0xe0, 0xe9, 0xf8, 0xb6, 0xe7, 
  0x09, 0xea, 0x3d, 0x1f, 0xee, 0xcb, 0xf9, 0x40, 0xc9, 0xf5, 0xb8, 0x22, 
  0x33, 0x38, 0x06, 0x43, 0xef, 0xda, 0x47, 0x14, 0x4d, 0x03, 0xc3, 0x28, 
  0x12, 0xfb, 0x21, 0xc7, 0x17, 0x05, 0x14, 0x01, 0xf8, 0x0b, 0xe2, 0x00, 
  0xc1, 0x0f, 0xfb, 0x01, 0xb5, 0xff, 0x38, 0xcf, 0xc6, 0xe2, 0xdf, 0xfb, 
  0xf2, 0xed, 0xf3, 0xff, 0x1c, 0x25, 0xd9, 0x0e, 0xeb, 0x1b, 0x4d, 0x41, 
  0x29, 0x26, 0x08, 0xe3, 0xe7, 0xa1, 0xb7, 0xf2, 0x9c, 0xf1, 0xc4, 0x19, 
  0x23, 0x06, 0x45, 0x1b, 0xd4, 0x0c, 0x05, 0x02, 0xd2, 0xc7, 0x29, 0xd9, 
  0xc8, 0x05, 0xd4, 0xf1, 0x2a, 0xf6, 0x95, 0x12, 0x2b, 0x24, 0x22, 0xe2, 
  0x0c, 0xdf, 0x04, 0x3b, 0xd8, 0x17, 0xc9, 0x21, 0x2b, 0xdd, 0xeb, 0x0b, 
  0x0a, 0xcf, 0x37, 0x1a, 0xdd, 0xfc, 0x0a, 0xef, 0x1b, 0x49, 0x3b, 0x3a, 
  0xaf, 0x18, 0xe0, 0x24, 0x1c, 0x26, 0xee, 0xc7, 0xfb, 0xf6, 0xaf, 0xd5, 
  0xf6, 0x12, 0x55, 0xf0, 0x02, 0x31, 0x32, 0xfc, 0x4a, 0x1e, 0x55, 0xd9, 
  0xc4, 0x1f, 0x0e, 0xf7, 0x09, 0xca, 0x2f, 0xc6, 0x08, 0xf0, 0xc4, 0x09, 
  0xd5, 0xc9, 0x11, 0x25, 0x0b, 0xeb, 0xf0, 0xdb, 0xc6, 0x0d, 0xda, 0xf1, 
  0x48, 0xb9, 0x09, 0xe1, 0x1f, 0xd6, 0x35, 0x0f, 0xdb, 0xe4, 0xf8, 0x10, 
  0x2e, 0x17, 0xf0, 0x25, 0x00, 0x08, 0xe2, 0xd2, 0xe6, 0x10, 0x01, 0xe6, 
  0xdc, 0xd2, 0x15, 0x2d, 0xe2, 0x37, 0xc4, 0x06, 0xeb, 0xf3, 0x2b, 0xf5, 
  0x29, 0xd3, 0x12, 0xc6, 0xab, 0xfb, 0xac, 0x2a, 0xfe, 0x2d, 0xe8, 0xbf, 
  0x1d, 0x45, 0x22, 0x05, 0x6b, 0x19, 0xd7, 0x09, 0x47, 0x12, 0xe1, 0x34, 
  0x08, 0x12, 0xfb, 0xf2, 0xe7, 0x0d, 0x25, 0xf2, 0x1e, 0x0b, 0xcc, 0x30, 
  0xe8, 0x49, 0xd0, 0xe5, 0x2c, 0x1a, 0x05, 0xc6, 0x05, 0x26, 0x16, 0x31, 
  0xe8, 0x1e, 0x0c, 0x1b, 0xde, 0xf3, 0xc1, 0xc4, 0xf2, 0x10, 0xe4, 0xeb, 
  0xc8, 0x2a, 0x0f, 0xa9, 0xc9, 0x3c, 0xd4, 0x27, 0xd2, 0x17, 0xde, 0x14, 
  0xdd, 0x43, 0xd3, 0xcd, 0xd6, 0x27, 0xd3, 0x4e, 0xd0, 0x36, 0x29, 0xdc, 
  0x1b, 0x01, 0x00, 0xee, 0x20, 0xfb, 0xde, 0xee, 0x2a, 0xfe, 0xd0, 0xee, 
  0x33, 0xef, 0x3d, 0x00, 0xe2, 0xf1, 0x42, 0xde, 0x18, 0x4c, 0x3a, 0x00, 
  0x30, 0x2a, 0x23, 0x15, 0x0f, 0x2d, 0x34, 0x28, 0xd5, 0xc1, 0xec, 0x25, 
  0x06, 0xb4, 0xd8, 0x37, 0x03, 0x15, 0xf3, 0x1a, 0x08, 0x2d, 0xd4, 0xfa, 
  0xe3, 0xd5, 0xf0, 0xe8, 0x0f, 0x03, 0xdf, 0x0e, 0xd7, 0xd0, 0x2f, 0x2b, 
  0xc7, 0xc8, 0x2f, 0xeb, 0xe7, 0x1f, 0xc9, 0x15, 0xe2, 0xf7, 0x13, 0x19, 
  0xc4, 0xd2, 0x3e, 0xcd, 0xfc, 0xde, 0x3b, 0xf9, 0xdf, 0x4c, 0xb4, 0x44, 
  0x26, 0xfc, 0x15, 0x2d, 0xf9, 0x24, 0xc4, 0xf1, 0xda, 0xfc, 0xd4, 0x1e, 
  0x25, 0x4c, 0x0f, 0x0a, 0xe2, 0xd7, 0xfd, 0x09, 0xee, 0xe7, 0x33, 0x17, 
  0xfb, 0x29, 0x07, 0x1c, 0x1a, 0x36, 0x12, 0xee, 0x09, 0xf7, 0xd8, 0x0c, 
  0x21, 0xcc, 0x25, 0x0b, 0xcc, 0xe6, 0xb2, 0x1f, 0xc6, 0xe2, 0xf0, 0xbc, 
  0xf7, 0xed, 0xe7, 0xf3, 0xd8, 0xdc, 0xde, 0x05, 0xa4, 0xdc, 0xd7, 0x4e, 
  0x1b, 0xd7, 0x31, 0xec, 0x03, 0x23, 0xf2, 0x30, 0xe1, 0xf4, 0x26, 0x21, 
  0xec, 0x40, 0xdf, 0xaf, 0xf6, 0x3e, 0xdd, 0xc8, 0x16, 0xda, 0x00, 0xb8, 
  0x3e, 0xff, 0x20, 0xe8, 0xea, 0x24, 0x1d, 0x01, 0xdb, 0x0b, 0xe1, 0xc1, 
  0xb3, 0x32, 0xe5, 0x48, 0x20, 0xdf, 0xe1, 0xee, 0xd2, 0x1e, 0xe7, 0xfa, 
  0x04, 0x43, 0x05, 0x41, 0x22, 0xdc, 0x3c, 0xff, 0xd5, 0x24, 0x19, 0xf9, 
  0xc6, 0xcd, 0xdf, 0xea, 0x1c, 0x09, 0xe7, 0x24, 0x29, 0xf6, 0xe5, 0x0a, 
  0x19, 0x17, 0xda, 0xe5, 0x10, 0x53, 0xc4, 0xf1, 0x20, 0x2b, 0x13, 0x3b, 
  0x4c, 0xd5, 0x06, 0x34, 0xdc, 0x42, 0x43, 0xd0, 0x08, 0x37, 0x2b, 0x23, 
  0x29, 0x0c, 0xc9, 0xf4, 0xc2, 0xbb, 0xf3, 0xd4, 0x2f, 0xaf, 0x2f, 0xbb, 
  0xfc, 0x53, 0x1e, 0x08, 0xbb, 0x34, 0x1e, 0x08, 0xd2, 0xf9, 0xfd, 0xd0, 
  0xcc, 0x08, 0xfb, 0x13, 0x2e, 0xfe, 0x15, 0x06, 0xef, 0x14, 0x08, 0xee, 
  0xd6, 0x03, 0x05, 0x0c, 0xcc, 0x0f, 0xed, 0x15, 0x00, 0x19, 0xcd, 0xff, 
  0x40, 0xe5, 0x35, 0x03, 0x32, 0xdc, 0xf0, 0x30, 0x04, 0x3a, 0x31, 0xe2, 
  0xe6, 0xe9, 0xf8, 0x23, 0xce, 0x39, 0x11, 0xe3, 0xd6, 0x1f, 0xf9, 0x01, 
  0xc1, 0x08, 0x1b, 0xa9, 0x34, 0x47, 0xe8, 0x20, 0xe0, 0x1a, 0xc4, 0x52, 
  0xe5, 0x14, 0x08, 0xcb, 0x5f, 0x00, 0x16, 0x0b, 0xed, 0x53, 0x2f, 0xce, 
  0xf9, 0x29, 0x27, 0xd3, 0x1b, 0xfc, 0x29, 0x4d, 0xef, 0x45, 0xc6, 0xb5, 
  0x09, 0x1d, 0xc4, 0xe2, 0x4b, 0xf8, 0xd9, 0x24, 0x1a, 0xfd, 0x1e, 0x25, 
  0x16, 0xd9, 0x29, 0x13, 0xff, 0x0d, 0x1c, 0xfe, 0x00, 0xee, 0x0f, 0x2f, 
  0xce, 0x11, 0x08, 0xe8, 0x15, 0xf3, 0x1a, 0x35, 0xd1, 0x07, 0x32, 0x08, 
  0xe6, 0xcf, 0xee, 0x0e, 0x3d, 0x49, 0xd5, 0x08, 0x32, 0x25, 0x07, 0x11, 
  0x29, 0xb7, 0x0c, 0xbd, 0x14, 0x03, 0x17, 0xfc, 0xc8, 0x45, 0x26, 0xf4, 
  0xfd, 0x6b, 0xea, 0xda, 0xee, 0xfa, 0x36, 0xe1, 0xf9, 0xde, 0xca, 0xf5, 
  0xb3, 0xb5, 0xc5, 0x02, 0xe0, 0x28, 0xca, 0x32, 0x16, 0xd8, 0x0f, 0x03, 
  0xec, 0x59, 0x00, 0xe9, 0x31, 0xd1, 0xf1, 0xe6, 0x59, 0x0d, 0x2a, 0xe0, 
  0x07, 0x20, 0x16, 0xf7, 0xe9, 0xfe, 0x18, 0x15, 0x2e, 0xb8, 0x03, 0x25, 
  0x10, 0x22, 0x0b, 0xbe, 0xcf, 0xe6, 0x32, 0x05, 0xc6, 0xf4, 0xf4, 0x07, 
  0x08, 0x06, 0x17, 0xce, 0x00, 0x19, 0xd5, 0x3d, 0xd1, 0x21, 0x3e, 0xf5, 
  0x0d, 0xf3, 0xae, 0xc8, 0xe3, 0xfd, 0xe8, 0x13, 0xf9, 0x1f, 0xe2, 0xe8, 
  0xa8, 0x25, 0xeb, 0xee, 0xb2, 0xbc, 0xbe, 0x2e, 0x15, 0xd5, 0xac, 0x06, 
  0xd6, 0x1d, 0xd8, 0x16, 0xe9, 0xdc, 0x07, 0xf0, 0xb5, 0x37, 0xbe, 0x3a, 
  0xc7, 0x2b, 0x0c, 0xc8, 0x2f, 0xea, 0xfa, 0xcd, 0xe2, 0x27, 0x12, 0x0e, 
  0x23, 0xf6, 0x09, 0x25, 0xd4, 0x09, 0xe4, 0x18, 0x43, 0x16, 0x07, 0x2e, 
  0x61, 0x30, 0xe8, 0x31, 0xec, 0x10, 0xe9, 0x0d, 0xc6, 0x02, 0xfe, 0xdf, 
  0x45, 0xec, 0x38, 0x45, 0x1f, 0x0c, 0x1b, 0xd8, 0x3b, 0x0f, 0xc2, 0xfc, 
  0x36, 0x49, 0x19, 0xfc, 0xea, 0xfc, 0xa6, 0x15, 0x02, 0x16, 0xe4, 0xea, 
  0x1f, 0xe8, 0x4e, 0x2c, 0xb6, 0xfa, 0x06, 0xd5, 0xfc, 0xf8, 0x32, 0x23, 
  0xe3, 0xf9, 0xbd, 0xe4, 0x1c, 0xf8, 0x04, 0xec, 0x41, 0x44, 0xbe, 0xee, 
  0xf0, 0xfb, 0xb4, 0xd2, 0x24, 0xee, 0x3e, 0xce, 0x35, 0xfc, 0x2d, 0xe8, 
  0x26, 0xd7, 0xd1, 0xc9, 0x25, 0xf9, 0xe4, 0xb6, 0xb2, 0x25, 0x3d, 0xf6, 
  0xef, 0xf6, 0x02, 0xca, 0xcc, 0xfb, 0x04, 0x1a, 0x11, 0x60, 0xfb, 0xec, 
  0x12, 0x20, 0xe6, 0xfd, 0x06, 0xd9, 0xcd, 0x29, 0x3f, 0xfa, 0xeb, 0x0e, 
  0xfa, 0xd1, 0xec, 0xf0, 0x20, 0x25, 0x25, 0x01, 0x48, 0xf7, 0x1e, 0xcf, 
  0xd5, 0x34, 0x20, 0x2e, 0xfb, 0x18, 0x35, 0x31, 0xeb, 0xdc, 0xd2, 0xbf, 
  0x9f, 0xdf, 0x1b, 0x1b, 0x15, 0xcf, 0x21, 0x24, 0x14, 0x29, 0xf2, 0xd1, 
  0xd7, 0x22, 0xdc, 0xd7, 0xbc, 0xf5, 0xa7, 0x2f, 0xe9, 0x02, 0x31, 0xef, 
  0xed, 0xde, 0x23, 0x06, 0x07, 0x23, 0xbf, 0xe7, 0xf6, 0xe2, 0xd3, 0xd6, 
  0x03, 0xd7, 0x3a, 0x10, 0xca, 0x00, 0xae, 0xdb, 0x28, 0xdd, 0xce, 0xdb, 
  0x38, 0xef, 0xbd, 0x2a, 0x18, 0x1d, 0xf0, 0x32, 0xdb, 0xf8, 0x01, 0xc7, 
  0x58, 0x0b, 0x39, 0xe9, 0xef, 0xea, 0xdf, 0x0f, 0xcf, 0x3f, 0x1d, 0x11, 
  0xd9, 0x14, 0xfa, 0xf9, 0x24, 0xed, 0xdc, 0x08, 0xbb, 0x19, 0x4c, 0xb9, 
  0x3e, 0xe8, 0x18, 0xec, 0xfb, 0x28, 0xe1, 0x2d, 0xc2, 0x3b, 0xfe, 0xf3, 
  0x06, 0xee, 0x21, 0xbd, 0xfa, 0x21, 0xc5, 0xfa, 0xbc, 0x35, 0xe9, 0x04, 
  0xca, 0x9c, 0x34, 0xee, 0x16, 0xdd, 0xef, 0x40, 0x19, 0xe4, 0x1a, 0xfa, 
  0xf9, 0xac, 0xe1, 0xe9, 0x08, 0xf5, 0xdb, 0x0e, 0x06, 0xca, 0xe8, 0xbb, 
  0x3b, 0xd3, 0x47, 0x01, 0x4c, 0x34, 0x47, 0x11, 0xbf, 0x3c, 0x22, 0x44, 
  0xfc, 0x1d, 0xf9, 0xdd, 0x12, 0xfe, 0xfb, 0xcc, 0x10, 0xba, 0x11, 0x1e, 
  0x27, 0xd5, 0x32, 0xfd, 0x1d, 0xc0, 0x23, 0x38, 0xef, 0xfe, 0xec, 0xa2, 
  0x28, 0xb8, 0x2c, 0xe5, 0xc8, 0xc1, 0x08, 0xf8, 0xe4, 0x2c, 0x0a, 0x35, 
  0x18, 0xfa, 0xca, 0x15, 0xd6, 0xfc, 0xdd, 0x12, 0x16, 0xf5, 0xd8, 0x2b, 
  0xd3, 0xdd, 0xd3, 0xca, 0xd7, 0xf8, 0x1d, 0x69, 0x46, 0x3b, 0xfa, 0x2d, 
  0xf5, 0x19, 0xd9, 0x34, 0xdc, 0xe7, 0x32, 0xd5, 0x14, 0x36, 0x09, 0x05, 
  0xe1, 0x33, 0xf8, 0xfc, 0xd4, 0xe1, 0x28, 0x1a, 0x1a, 0xf1, 0xfd, 0x07, 
  0xd8, 0xbe, 0x1a, 0xd2, 0xc3, 0xe9, 0x22, 0xf7, 0x07, 0x15, 0xf3, 0x41, 
  0x27, 0x5f, 0xf6, 0xfb, 0x05, 0xba, 0xee, 0x2e, 0xba, 0xbe, 0xe2, 0x0a, 
  0xc8, 0xbb, 0xeb, 0x36, 0x51, 0xef, 0x28, 0xdb, 0x57, 0xde, 0x17, 0xea, 
  0xe3, 0xf8, 0x35, 0xcc, 0xeb, 0x09, 0x1c, 0xd0, 0x41, 0xc9, 0xda, 0xe8, 
  0xed, 0xd7, 0xcb, 0x02, 0xe3, 0x06, 0x41, 0x32, 0x3c, 0xbf, 0x27, 0xca, 
  0x28, 0x1e, 0xe8, 0x3a, 0xdc, 0xec, 0xfb, 0xee, 0xf7, 0xe1, 0x2e, 0xfb, 
  0xc9, 0x2e, 0x0e, 0x17, 0x0e, 0x10, 0xcf, 0xf3, 0x1b, 0x4a, 0x37, 0xdf, 
  0x37, 0xef, 0x2a, 0x26, 0xfe, 0x24, 0xde, 0xf5, 0xd0, 0xe1, 0x07, 0xe9, 
  0xcc, 0xde, 0x0a, 0xd9, 0xdb, 0xcb, 0x03, 0xd1, 0x23, 0x40, 0xbf, 0xdd, 
  0xd8, 0x42, 0x2e, 0x23, 0x3a, 0x02, 0x0c, 0xd6, 0x2f, 0xde, 0xff, 0x09, 
  0x3e, 0x05, 0xf3, 0xe3, 0xee, 0x02, 0xf4, 0x3a, 0x2d, 0x1b, 0x15, 0xfa, 
  0xea, 0xae, 0x33, 0xc3, 0x1c, 0xc6, 0x1e, 0xce, 0x31, 0xb5, 0x36, 0xd6, 
  0x19, 0xbd, 0xe0, 0x02, 0x02, 0x33, 0xea, 0xd4, 0x58, 0x3d, 0x12, 0xe1, 
  0xe0, 0x38, 0xcf, 0xe2, 0xd2, 0xd1, 0x2b, 0x04, 0x25, 0xc6, 0xd2, 0x14, 
  0x5e, 0xcc, 0x2c, 0x10, 0xe8, 0xfa, 0x43, 0xaf, 0xd7, 0x01, 0xb7, 0x1b, 
  0x2b, 0xe2, 0x1c, 0x02, 0x3f, 0x18, 0x64, 0x1d, 0x24, 0xcf, 0x20, 0x16, 
  0x11, 0x0f, 0xda, 0x20, 0xcb, 0x3c, 0xcb, 0xe8, 0x0e, 0xf7, 0xd3, 0xc1, 
  0x14, 0xd7, 0x34, 0x03, 0x28, 0x5c, 0x07, 0x1d, 0xd4, 0x08, 0x36, 0xb3, 
  0xfc, 0x34, 0xc7, 0xf0, 0xaf, 0x8e, 0xed, 0x2a, 0xdd, 0x05, 0xf1, 0xe4, 
  0x2d, 0xfe, 0x22, 0x41, 0x01, 0xc0, 0x0e, 0xe2, 0x3e, 0xdf, 0x36, 0x23, 
  0x56, 0xe9, 0xe1, 0xe8, 0xf8, 0xfe, 0x59, 0xb8, 0xcf, 0xd6, 0x26, 0xeb, 
  0xd1, 0xfc, 0x09, 0x32, 0x22, 0x2d, 0x03, 0x1d, 0xe5, 0x29, 0x04, 0xe6, 
  0xba, 0xda, 0xe5, 0xd9, 0x10, 0x05, 0xda, 0x34, 0xc4, 0xc4, 0xf8, 0xe0, 
  0x22, 0xef, 0xeb, 0x00, 0xc2, 0x03, 0xfb, 0x3d, 0x25, 0xf8, 0x56, 0xdf, 
  0xf6, 0xe4, 0xe5, 0xdb, 0xb8, 0x2f, 0x15, 0x01, 0xd7, 0xc4, 0xe8, 0xf8, 
  0x15, 0xd8, 0x0a, 0xcd, 0xf3, 0xcf, 0xca, 0x10, 0xee, 0x00, 0x31, 0xe7, 
  0xf8, 0xe7, 0x27, 0xe7, 0xd8, 0x4d, 0xf8, 0xe0, 0x46, 0xce, 0xcf, 0xcd, 
  0xc0, 0x1b, 0x21, 0xa4, 0x12, 0xe7, 0x04, 0x1a, 0xe7, 0xec, 0xc4, 0x3e, 
  0xc3, 0xff, 0x0f, 0x48, 0x02, 0xd0, 0x24, 0xfa, 0x30, 0x4a, 0xfc, 0x2b, 
  0xdd, 0x15, 0xc8, 0x04, 0x02, 0xec, 0x34, 0xee, 0xf3, 0x2f, 0x19, 0x09, 
  0x35, 0x3d, 0x31, 0xdf, 0x34, 0xd1, 0xc3, 0xd5, 0x01, 0xfa, 0x07, 0xd5, 
  0x2c, 0xe6, 0x11, 0x27, 0x2b, 0x46, 0x3b, 0x02, 0xe4, 0x21, 0xde, 0xd5, 
  0xf1, 0x27, 0xe7, 0xfd, 0x3d, 0xa1, 0x1a, 0x29, 0x0f, 0x42, 0xcc, 0xcd, 
  0xcb, 0x3e, 0xc0, 0x1f, 0xf6, 0xc9, 0x03, 0xed, 0xf5, 0xcc, 0x29, 0xc6, 
  0xce, 0x0a, 0x1a, 0x12, 0xd3, 0x2b, 0xd2, 0x09, 0x04, 0x0e, 0xe5, 0x11, 
  0x10, 0x19, 0xf8, 0xbb, 0x23, 0x2e, 0xe7, 0x22, 0x25, 0xbd, 0x36, 0xd0, 
  0xeb, 0x02, 0x06, 0x19, 0xd8, 0x25, 0xbd, 0x4d, 0xd4, 0xf8, 0x10, 0xd7, 
  0x3b, 0x3b, 0x2e, 0xcc, 0xdf, 0xb5, 0xea, 0xe9, 0x18, 0x21, 0xd8, 0xfe, 
  0x0c, 0xcf, 0x66, 0xef, 0xb9, 0xd0, 0x34, 0xea, 0x13, 0xca, 0xf0, 0x2c, 
  0xd1, 0x1b, 0xf1, 0xf9, 0xee, 0xb0, 0x08, 0x2a, 0xef, 0xe4, 0x47, 0x10, 
  0x0a, 0x0d, 0x11, 0x52, 0x4c, 0x2c, 0x3b, 0xd7, 0xf9, 0xfe, 0x11, 0xfa, 
  0x24, 0xf1, 0x04, 0x1e, 0x2f, 0xbf, 0x1b, 0xd5, 0x2f, 0xf2, 0xeb, 0xb9, 
  0x2b, 0x20, 0x04, 0xb3, 0x26, 0x0a, 0x20, 0x2b, 0x3a, 0x3a, 0xff, 0xd9, 
  0x32, 0xdf, 0xfb, 0xc4, 0x2a, 0x3c, 0xda, 0x04, 0x2c, 0x0d, 0xcd, 0xbf, 
  0xcc, 0x1c, 0x3b, 0x46, 0xe7, 0xcd, 0xd0, 0xf7, 0x16, 0xe6, 0xeb, 0xe5, 
  0x01, 0x20, 0x19, 0xd7, 0x05, 0x1a, 0x4d, 0xe8, 0xe7, 0xfd, 0x0f, 0xde, 
  0x05, 0xfa, 0xb6, 0x31, 0xd7, 0xf6, 0x4b, 0xde, 0xb6, 0x02, 0x3a, 0xdd, 
  0x04, 0xfa, 0x24, 0xd5, 0x10, 0xd2, 0x12, 0xba, 0xc3, 0xcb, 0x46, 0xed, 
  0xe5, 0x1c, 0x01, 0x16, 0x21, 0xf4, 0xbd, 0x4d, 0x3d, 0x04, 0xe0, 0xee, 
  0xff, 0xde, 0xfe, 0xce, 0xcb, 0x0d, 0xea, 0x05, 0xf6, 0x04, 0xd9, 0xfa, 
  0x35, 0x0d, 0xdb, 0xcb, 0x1a, 0xfe, 0xba, 0xf3, 0xef, 0xd7, 0xf0, 0xc2, 
  0x11, 0xde, 0xc5, 0xc1, 0x38, 0x29, 0x14, 0x2e, 0x31, 0x34, 0x0e, 0x11, 
  0xe8, 0xd2, 0x04, 0xd1, 0xaf, 0xc7, 0x37, 0x07, 0xde, 0xed, 0x07, 0x44, 
  0xf9, 0xaa, 0xdf, 0xdc, 0x26, 0xe0, 0xe0, 0x30, 0x2a, 0xe8, 0xb3, 0xf8, 
  0x48, 0x31, 0xf2, 0xc3, 0xd2, 0xe2, 0x13, 0xcb, 0x35, 0x53, 0xe7, 0xbb, 
  0x06, 0xf8, 0xc5, 0x53, 0xfc, 0xf7, 0xee, 0x22, 0xbd, 0x39, 0x0c, 0xda, 
  0x21, 0x1a, 0xfc, 0x1b, 0xc3, 0x3e, 0xd4, 0xd8, 0xf2, 0x00, 0x66, 0xd9, 
  0x33, 0x07, 0xee, 0xf4, 0xe7, 0x0b, 0xfc, 0xe7, 0xdd, 0x2a, 0xdb, 0xf4, 
  0xfa, 0xe3, 0xee, 0x1c, 0xeb, 0xf7, 0x1a, 0xfa, 0x36, 0x18, 0x0a, 0x0e, 
  0x06, 0xff, 0x0e, 0x1f, 0xea, 0xdd, 0x3e, 0x3c, 0xce, 0xe7, 0xd5, 0xe6, 
  0xfb, 0x19, 0x1b, 0xe6, 0x29, 0xe1, 0xfb, 0xe3, 0x1b, 0x3a, 0xd2, 0x20, 
  0x08, 0x0c, 0xcd, 0x05, 0x2b, 0xa8, 0x4a, 0xd1, 0x0e, 0x32, 0x3c, 0x19, 
  0x26, 0xfc, 0xb5, 0x32, 0x3f, 0xea, 0x2c, 0x42, 0x1a, 0x24, 0xe6, 0x1f, 
  0x1e, 0x0c, 0x2f, 0x13, 0xbe, 0x14, 0xcf, 0x0c, 0xe3, 0xe6, 0x0a, 0x29, 
  0xd2, 0x0a, 0xf7, 0xbc, 0xcb, 0x0e, 0xe0, 0xc9, 0x29, 0xdd, 0x01, 0xed, 
  0x04, 0xe3, 0xf3, 0x28, 0xfc, 0x1d, 0x5d, 0x28, 0xd4, 0xd2, 0xd6, 0x0b, 
  0x0f, 0xf4, 0xe9, 0x08, 0xb9, 0x49, 0x30, 0xc8, 0x0c, 0x34, 0xda, 0x22, 
  0x31, 0xd0, 0xfd, 0xbf, 0x3e, 0xe4, 0x0b, 0xe6, 0x15, 0x09, 0xb9, 0x43, 
  0xc7, 0xbc, 0xe5, 0x36, 0x16, 0x39, 0xf9, 0xe7, 0xf5, 0xed, 0x10, 0xe1, 
  0x06, 0x0e, 0xf1, 0x09, 0x61, 0x28, 0x0d, 0x0b, 0x22, 0x07, 0x26, 0xe6, 
  0xf1, 0xfe, 0xfb, 0xf5, 0x36, 0xf1, 0xda, 0xcf, 0xe8, 0x27, 0xb9, 0x1f, 
  0xe1, 0x07, 0x2f, 0xe1, 0x3f, 0x2c, 0x19, 0xfb, 0x1a, 0xcb, 0x3e, 0x18, 
  0x1c, 0xcf, 0x1d, 0x17, 0x1e, 0x30, 0x14, 0xc0, 0x3d, 0xc7, 0xef, 0xed, 
  0x1a, 0x0f, 0x39, 0x20, 0xfd, 0xf9, 0x4d, 0x11, 0x41, 0x14, 0x15, 0x2d, 
  0x12, 0x17, 0xda, 0x28, 0x0e, 0xc0, 0x33, 0xda, 0xb9, 0x28, 0xe3, 0xaf, 
  0xc2, 0x2e, 0x29, 0x28, 0xdd, 0x2c, 0x0e, 0xe8, 0x23, 0x60, 0x30, 0xf7, 
  0x1a, 0x0a, 0x20, 0xea, 0xed, 0x0d, 0x13, 0xd6, 0xdd, 0x3a, 0xf1, 0xf3, 
  0x27, 0x01, 0xd1, 0x03, 0xe2, 0xe5, 0x14, 0x39, 0x14, 0xdd, 0xd0, 0x40, 
  0x06, 0xd0, 0x1d, 0x12, 0xe8, 0xf5, 0x1f, 0x02, 0x33, 0x22, 0xbe, 0x04, 
  0xdc, 0x08, 0x06, 0xc5, 0x43, 0xe6, 0x26, 0xde, 0x37, 0xef, 0x2e, 0x48, 
  0xc4, 0xd6, 0x24, 0x04, 0x41, 0x01, 0xdb, 0x46, 0x05, 0xdb, 0x1a, 0xb4, 
  0xce, 0xe4, 0xe3, 0xf3, 0x3e, 0x31, 0x04, 0x02, 0x29, 0xca, 0xcb, 0xd3, 
  0xd4, 0xd5, 0xf4, 0x19, 0x2a, 0xf9, 0x3f, 0xc6, 0xcb, 0x3f, 0x0f, 0xca, 
  0xd1, 0xc4, 0xc9, 0x01, 0xf8, 0xc1, 0x2e, 0xcf, 0x42, 0xd3, 0x54, 0xe7, 
  0x00, 0x00, 0xe6, 0xd8, 0x31, 0x15, 0xc8, 0xcc, 0xfe, 0xf5, 0xc9, 0xeb, 
  0xba, 0xf7, 0x0a, 0x49, 0xd0, 0xe4, 0x42, 0xe3, 0xd0, 0x28, 0xce, 0xcf, 
  0x29, 0xf2, 0x35, 0x45, 0x18, 0xec, 0x1c, 0xd3, 0xf0, 0xe5, 0x03, 0xda, 
  0xee, 0xe4, 0xe1, 0x1c, 0x37, 0x1e, 0x3a, 0xb9, 0x22, 0xdb, 0xe5, 0x25, 
  0x3f, 0xe2, 0xf2, 0xf6, 0x07, 0x12, 0xdb, 0xc9, 0x18, 0xe8, 0x0d, 0xe3, 
  0xce, 0xed, 0xe5, 0xfd, 0x10, 0x18, 0x1c, 0x2b, 0x25, 0xaa, 0xdd, 0xe6, 
  0xe8, 0x42, 0xe9, 0x3c, 0x4b, 0x0b, 0x31, 0xde, 0xdf, 0x41, 0x21, 0xef, 
  0x49, 0xe9, 0xeb, 0x03, 0x38, 0x11, 0x39, 0xfb, 0x02, 0xd0, 0x06, 0xc7, 
  0x02, 0xf0, 0x37, 0xf9, 0xdc, 0x53, 0x1e, 0xd5, 0x04, 0xe2, 0xcc, 0x28, 
  0xdc, 0x59, 0xdd, 0xa9, 0x01, 0x9b, 0x2e, 0x00, 0x2f, 0x43, 0xfd, 0x2d, 
  0x3e, 0xf0, 0x0b, 0xe2, 0xce, 0xcf, 0x34, 0x09, 0xe2, 0x29, 0xed, 0x98, 
  0x18, 0x14, 0xe7, 0x4b, 0xe3, 0xd7, 0xf5, 0x1c, 0x17, 0xfd, 0xda, 0x58, 
  0xe4, 0xc9, 0x25, 0x52, 0xac, 0x09, 0xe4, 0xeb, 0x2d, 0x03, 0x2a, 0xdf, 
  0xe9, 0x17, 0x3c, 0xef, 0x26, 0x29, 0x1e, 0x5e, 0x0f, 0xd0, 0xf1, 0xea, 
  0xba, 0x49, 0xc5, 0x18, 0x16, 0x45, 0xbe, 0xb0, 0x1b, 0x1a, 0xe8, 0xb4, 
  0xcd, 0xf6, 0x19, 0xf6, 0x09, 0xd6, 0xeb, 0xf3, 0x2f, 0x44, 0x17, 0x08, 
  0xe3, 0xfe, 0xdb, 0xee, 0xcd, 0x09, 0x07, 0x1a, 0x08, 0x20, 0x18, 0x07, 
  0x3c, 0x05, 0x02, 0xca, 0xf2, 0x05, 0xe3, 0xe3, 0xd0, 0x33, 0xd0, 0x31, 
  0xda, 0xfb, 0xf2, 0xe8, 0x1a, 0xdb, 0x40, 0x31, 0x22, 0xbc, 0xf6, 0xf2, 
  0x15, 0x25, 0x48, 0xeb, 0xf7, 0x0f, 0x1b, 0xf1, 0x0b, 0xd5, 0xfa, 0xc0, 
  0x0e, 0x23, 0x20, 0x30, 0xd8, 0x30, 0x38, 0xcf, 0x3c, 0xc3, 0x2f, 0x3a, 
  0x20, 0x11, 0x22, 0x0b, 0x2e, 0x09, 0x3a, 0x03, 0xea, 0xcf, 0xde, 0xc0, 
  0xb0, 0x1c, 0x21, 0x0e, 0x1b, 0x50, 0x10, 0x2a, 0x4d, 0xee, 0x36, 0x9e, 
  0xe7, 0xdc, 0x24, 0xf5, 0x30, 0x0a, 0x1b, 0xe8, 0xd3, 0xe3, 0xe5, 0x4a, 
  0x34, 0xdc, 0x13, 0xdc, 0x15, 0x1c, 0x12, 0xda, 0xcf, 0x32, 0x44, 0xb2, 
  0xe6, 0x0a, 0xdc, 0x28, 0x1a, 0x03, 0x12, 0x03, 0xe7, 0x26, 0xb8, 0xec, 
  0x81, 0x9b, 0x13, 0xf4, 0x17, 0x01, 0xc3, 0x3c, 0x04, 0xec, 0x2c, 0xe8, 
  0xbd, 0x37, 0x08, 0x24, 0xf7, 0x64, 0xfc, 0x03, 0x10, 0xd8, 0x0a, 0xa9, 
  0xd2, 0x3c, 0xa7, 0xc3, 0x39, 0x23, 0xde, 0xcd, 0x32, 0xe7, 0x3c, 0xfd, 
  0xc5, 0x2e, 0xea, 0xc1, 0x41, 0xe0, 0x04, 0x18, 0xc7, 0xf1, 0x22, 0x19, 
  0xd9, 0xfd, 0x01, 0xea, 0x1e, 0xf7, 0x2a, 0x0e, 0x1f, 0xd0, 0xbe, 0xfe, 
  0x51, 0x33, 0xb1, 0x2e, 0xd1, 0x0e, 0x03, 0xbf, 0x28, 0xff, 0x3e, 0x24, 
  0xf9, 0xee, 0x03, 0xc4, 0x4c, 0xdc, 0x08, 0x42, 0xfb, 0x2a, 0xd4, 0x1e, 
  0x0d, 0xe1, 0xc7, 0xfb, 0xe2, 0xd4, 0x0e, 0xf2, 0xe4, 0xfd, 0xfa, 0xd3, 
  0x03, 0xd4, 0xe4, 0x22, 0x23, 0x31, 0xba, 0xae, 0xdc, 0x06, 0xbe, 0xe8, 
  0xcf, 0xe9, 0xbf, 0xd8, 0xff, 0x23, 0x12, 0x31, 0x13, 0xce, 0x19, 0xd5, 
  0x1f, 0xff, 0x3c, 0xed, 0x08, 0x33, 0x10, 0x0d, 0x46, 0x20, 0x24, 0xd7, 
  0x04, 0x0d, 0xef, 0x17, 0xa3, 0xdf, 0xfd, 0xdc, 0xe9, 0xed, 0x35, 0xc7, 
  0x08, 0x16, 0x14, 0xc8, 0x1f, 0x59, 0xe1, 0x73, 0x23, 0x24, 0x19, 0xd5, 
  0xc3, 0x1a, 0x3e, 0xc3, 0x33, 0xf6, 0xbf, 0xc7, 0xd0, 0x0f, 0xe6, 0xf4, 
  0xd6, 0x1e, 0x16, 0xf9, 0xfa, 0x0c, 0xda, 0x1e, 0x02, 0xdf, 0x03, 0xe3, 
  0x0c, 0x15, 0x21, 0x03, 0x11, 0x1b, 0xb6, 0x4c, 0x0e, 0xe1, 0x41, 0xfb, 
  0xcb, 0xba, 0xbf, 0xdb, 0x2b, 0x41, 0x0d, 0x4a, 0xe7, 0xa9, 0x4e, 0xcd, 
  0xda, 0xf7, 0x04, 0xf1, 0xba, 0x23, 0x3d, 0x44, 0x8e, 0xdc, 0xff, 0xff, 
  0x04, 0x00, 0x00, 0x00, 0x00, 0x02, 0x00, 0x00, 0x00, 0x00, 0x00, 0x00, 
  0x00, 0x00, 0x00, 0x00, 0x00, 0x00, 0x00, 0x00, 0x00, 0x00, 0x00, 0x00, 
  0x00, 0x00, 0x00, 0x00, 0x00, 0x00, 0x00, 0x00, 0x00, 0x00, 0x00, 0x00, 
  0x00, 0x00, 0x00, 0x00, 0x00, 0x00, 0x00, 0x00, 0x00, 0x00, 0x00, 0x00, 
  0x00, 0x00, 0x00, 0x00, 0x00, 0x00, 0x00, 0x00, 0x00, 0x00, 0x00, 0x00, 
  0x00, 0x00, 0x00, 0x00, 0x00, 0x00, 0x00, 0x00, 0x00, 0x00, 0x00, 0x00, 
  0x00, 0x00, 0x00, 0x00, 0x00, 0x00, 0x00, 0x00, 0x00, 0x00, 0x00, 0x00, 
  0x00, 0x00, 0x00, 0x00, 0x00, 0x00, 0x00, 0x00, 0x00, 0x00, 0x00, 0x00, 
  0x00, 0x00, 0x00, 0x00, 0x00, 0x00, 0x00, 0x00, 0x00, 0x00, 0x00, 0x00, 
  0x00, 0x00, 0x00, 0x00, 0x00, 0x00, 0x00, 0x00, 0x00, 0x00, 0x00, 0x00, 
  0x00, 0x00, 0x00, 0x00, 0x00, 0x00, 0x00, 0x00, 0x00, 0x00, 0x00, 0x00, 
  0x00, 0x00, 0x00, 0x00, 0x00, 0x00, 0x00, 0x00, 0x00, 0x00, 0x00, 0x00, 
  0x00, 0x00, 0x00, 0x00, 0x00, 0x00, 0x00, 0x00, 0x00, 0x00, 0x00, 0x00, 
  0x00, 0x00, 0x00, 0x00, 0x00, 0x00, 0x00, 0x00, 0x00, 0x00, 0x00, 0x00, 
  0x00, 0x00, 0x00, 0x00, 0x00, 0x00, 0x00, 0x00, 0x00, 0x00, 0x00, 0x00, 
  0x00, 0x00, 0x00, 0x00, 0x00, 0x00, 0x00, 0x00, 0x00, 0x00, 0x00, 0x00, 
  0x00, 0x00, 0x00, 0x00, 0x00, 0x00, 0x00, 0x00, 0x00, 0x00, 0x00, 0x00, 
  0x00, 0x00, 0x00, 0x00, 0x00, 0x00, 0x00, 0x00, 0x00, 0x00, 0x00, 0x00, 
  0x00, 0x00, 0x00, 0x00, 0x00, 0x00, 0x00, 0x00, 0x00, 0x00, 0x00, 0x00, 
  0x00, 0x00, 0x00, 0x00, 0x00, 0x00, 0x00, 0x00, 0x00, 0x00, 0x00, 0x00, 
  0x00, 0x00, 0x00, 0x00, 0x00, 0x00, 0x00, 0x00, 0x00, 0x00, 0x00, 0x00, 
  0x00, 0x00, 0x00, 0x00, 0x00, 0x00, 0x00, 0x00, 0x00, 0x00, 0x00, 0x00, 
  0x00, 0x00, 0x00, 0x00, 0x00, 0x00, 0x00, 0x00, 0x00, 0x00, 0x00, 0x00, 
  0x00, 0x00, 0x00, 0x00, 0x00, 0x00, 0x00, 0x00, 0x00, 0x00, 0x00, 0x00, 
  0x00, 0x00, 0x00, 0x00, 0x00, 0x00, 0x00, 0x00, 0x00, 0x00, 0x00, 0x00, 
  0x00, 0x00, 0x00, 0x00, 0x00, 0x00, 0x00, 0x00, 0x00, 0x00, 0x00, 0x00, 
  0x00, 0x00, 0x00, 0x00, 0x00, 0x00, 0x00, 0x00, 0x00, 0x00, 0x00, 0x00, 
  0x00, 0x00, 0x00, 0x00, 0x00, 0x00, 0x00, 0x00, 0x00, 0x00, 0x00, 0x00, 
  0x00, 0x00, 0x00, 0x00, 0x00, 0x00, 0x00, 0x00, 0x00, 0x00, 0x00, 0x00, 
  0x00, 0x00, 0x00, 0x00, 0x00, 0x00, 0x00, 0x00, 0x00, 0x00, 0x00, 0x00, 
  0x00, 0x00, 0x00, 0x00, 0x00, 0x00, 0x00, 0x00, 0x00, 0x00, 0x00, 0x00, 
  0x00, 0x00, 0x00, 0x00, 0x00, 0x00, 0x00, 0x00, 0x00, 0x00, 0x00, 0x00, 
  0x00, 0x00, 0x00, 0x00, 0x00, 0x00, 0x00, 0x00, 0x00, 0x00, 0x00, 0x00, 
  0x00, 0x00, 0x00, 0x00, 0x00, 0x00, 0x00, 0x00, 0x00, 0x00, 0x00, 0x00, 
  0x00, 0x00, 0x00, 0x00, 0x00, 0x00, 0x00, 0x00, 0x00, 0x00, 0x00, 0x00, 
  0x00, 0x00, 0x00, 0x00, 0x00, 0x00, 0x00, 0x00, 0x00, 0x00, 0x00, 0x00, 
  0x00, 0x00, 0x00, 0x00, 0x00, 0x00, 0x00, 0x00, 0x00, 0x00, 0x00, 0x00, 
  0x00, 0x00, 0x00, 0x00, 0x00, 0x00, 0x00, 0x00, 0x00, 0x00, 0x00, 0x00, 
  0x00, 0x00, 0x00, 0x00, 0x00, 0x00, 0x00, 0x00, 0x00, 0x00, 0x00, 0x00, 
  0x00, 0x00, 0x00, 0x00, 0x00, 0x00, 0x00, 0x00, 0x00, 0x00, 0x00, 0x00, 
  0x00, 0x00, 0x00, 0x00, 0x00, 0x00, 0x00, 0x00, 0x00, 0x00, 0x00, 0x00, 
  0x00, 0x00, 0x00, 0x00, 0x00, 0x00, 0x00, 0x00, 0x00, 0x00, 0x00, 0x00, 
  0x00, 0x00, 0x00, 0x00, 0x00, 0x00, 0x00, 0x00, 0x00, 0x00, 0x00, 0x00, 
  0x00, 0x00, 0x00, 0x00, 0x9a, 0xde, 0xff, 0xff, 0x04, 0x00, 0x00, 0x00, 
  0x00, 0x20, 0x00, 0x00, 0xf5, 0x53, 0x34, 0x11, 0x03, 0x17, 0x1f, 0x34, 
  0xe2, 0x52, 0xdc, 0xf1, 0xf7, 0x0b, 0xee, 0xfa, 0x36, 0x13, 0xfb, 0xd9, 
  0xe9, 0xd1, 0x2b, 0x16, 0x12, 0x18, 0xe3, 0xd2, 0xf1, 0x2a, 0xfe, 0x39, 
  0x14, 0xe3, 0x11, 0xec, 0xaf, 0x43, 0x0a, 0xc0, 0xea, 0x45, 0xed, 0x06, 
  0x42, 0x11, 0x36, 0x32, 0x34, 0xf2, 0x1a, 0xec, 0xe5, 0x37, 0xd2, 0x18, 
  0x29, 0x83, 0xe8, 0x22, 0xc2, 0xd2, 0x01, 0xcd, 0x0d, 0xba, 0xc2, 0x02, 
  0xe4, 0xe1, 0xe6, 0x1f, 0xd0, 0x16, 0xef, 0x04, 0x0e, 0xf4, 0xe6, 0x02, 
  0xb0, 0xf6, 0x11, 0x59, 0x49, 0x29, 0x62, 0x15, 0x24, 0xd4, 0xdb, 0x06, 
  0x0b, 0x19, 0xf8, 0x24, 0xd2, 0x36, 0x1b, 0xff, 0x33, 0x4c, 0x1a, 0x07, 
  0x0c, 0x12, 0xf7, 0x02, 0x4f, 0x3c, 0xfc, 0xf4, 0xf4, 0xdb, 0x14, 0x2e, 
  0x06, 0x2e, 0xed, 0x3b, 0xd2, 0xe7, 0x26, 0x2f, 0x23, 0x49, 0x5f, 0xa1, 
  0xcd, 0xc6, 0x3d, 0xd7, 0xc1, 0xfa, 0x03, 0xeb, 0x4a, 0x18, 0x45, 0x28, 
  0xcd, 0xf8, 0x0a, 0xd4, 0x22, 0x9f, 0xe9, 0x24, 0xcf, 0xc1, 0x01, 0xd4, 
  0x12, 0xf4, 0x34, 0x0b, 0xdd, 0xad, 0x24, 0x1f, 0x10, 0xf0, 0x3b, 0x38, 
  0xcf, 0xd8, 0xe7, 0xc1, 0x11, 0xe9, 0xf0, 0xf1, 0xdc, 0xf7, 0x19, 0xba, 
  0xcf, 0x92, 0x07, 0xb6, 0xeb, 0x4d, 0x1b, 0x26, 0xd0, 0xf8, 0x08, 0x67, 
  0xbe, 0xf2, 0x01, 0x00, 0xae, 0x04, 0xf6, 0x0f, 0x06, 0x2b, 0xcb, 0x2c, 
  0x28, 0x09, 0x10, 0xea, 0x21, 0x08, 0xf3, 0x3e, 0x13, 0xfb, 0x2d, 0xcd, 
  0xda, 0x24, 0xe6, 0xde, 0xdf, 0x14, 0xe3, 0x18, 0xf8, 0xae, 0xfb, 0x20, 
  0xf1, 0x38, 0xf3, 0x00, 0xec, 0x0b, 0x0f, 0xca, 0x38, 0xd9, 0xd6, 0x0e, 
  0xdf, 0x07, 0xe1, 0xdb, 0xf3, 0x04, 0xdb, 0xf2, 0x23, 0xf1, 0xbc, 0xc3, 
  0xd2, 0x05, 0xe3, 0xf9, 0xe5, 0x24, 0x14, 0xc3, 0x2e, 0xd3, 0xff, 0xd1, 
  0xf1, 0x1e, 0x31, 0xb4, 0xce, 0x43, 0xd0, 0xfd, 0xb8, 0x18, 0xf7, 0x3f, 
  0xf1, 0x02, 0xfe, 0xd1, 0x0b, 0x12, 0x25, 0x8c, 0xd8, 0xf1, 0x28, 0xdb, 
  0x05, 0xbe, 0x29, 0x1e, 0xfa, 0xf1, 0x10, 0xdb, 0xed, 0xf3, 0xfc, 0x0e, 
  0x2f, 0x1a, 0xd8, 0xd7, 0xeb, 0x27, 0x3c, 0x0b, 0xdc, 0xf2, 0xf5, 0x14, 
  0x0d, 0xf4, 0x4f, 0x43, 0xd5, 0xb1, 0xe4, 0xcb, 0xbd, 0xfa, 0xfa, 0xa4, 
  0xe2, 0x33, 0x58, 0xe9, 0xc8, 0x1e, 0x0e, 0x4a, 0xdb, 0xc6, 0x17, 0xcd, 
  0xdb, 0xf0, 0x19, 0xe5, 0xdc, 0x0c, 0xd6, 0x10, 0xdf, 0x09, 0x24, 0xf3, 
  0xea, 0x27, 0x29, 0xf8, 0x35, 0xe0, 0xe7, 0x37, 0xf3, 0x01, 0xeb, 0xf0, 
  0xf2, 0x5c, 0x0c, 0xe0, 0xf0, 0x15, 0xd4, 0xe0, 0x11, 0xb8, 0x35, 0xe4, 
  0x1b, 0x1b, 0x2f, 0x16, 0x1d, 0xf7, 0x13, 0x07, 0xde, 0xef, 0xce, 0x13, 
  0xdc, 0xd1, 0xda, 0xef, 0x05, 0xf8, 0xe1, 0xf7, 0x0d, 0x09, 0x36, 0xed, 
  0xfc, 0xcd, 0xbc, 0x23, 0x3b, 0x12, 0x12, 0x0d, 0xf5, 0x30, 0x32, 0x0f, 
  0xa5, 0xd5, 0xe6, 0x29, 0xdf, 0xe1, 0x35, 0xf6, 0x26, 0x08, 0xce, 0x32, 
  0x48, 0xe9, 0xe1, 0xb6, 0xe4, 0xfa, 0x00, 0xc4, 0x15, 0x27, 0xf4, 0xb4, 
  0xcf, 0x33, 0xfc, 0x19, 0xdc, 0xc9, 0xf9, 0x32, 0xcb, 0xc8, 0x2a, 0x1e, 
  0xba, 0x2b, 0xe7, 0x13, 0x02, 0x19, 0xeb, 0x1d, 0x23, 0x12, 0x44, 0xfc, 
  0xf2, 0x10, 0x9d, 0xc0, 0x25, 0xee, 0xd4, 0xd4, 0x31, 0xe5, 0x02, 0xdc, 
  0x15, 0xf0, 0x28, 0x3d, 0x3a, 0xd5, 0x49, 0x51, 0x0e, 0x1a, 0x13, 0xf7, 
  0x41, 0xd9, 0xe8, 0xd7, 0xf0, 0x13, 0xe7, 0xdb, 0x00, 0xcf, 0x29, 0x17, 
  0xf2, 0x07, 0xde, 0x3e, 0x12, 0x2a, 0x24, 0xff, 0x2b, 0x3a, 0xee, 0x0e, 
  0x34, 0x27, 0xb9, 0x1a, 0x0c, 0xd4, 0x28, 0xec, 0x09, 0xe0, 0xc9, 0x09, 
  0xf4, 0xf3, 0x1d, 0x01, 0x3d, 0x4d, 0xcc, 0xe9, 0xc0, 0x2c, 0xc7, 0xfa, 
  0x12, 0xf5, 0xf0, 0x04, 0xe6, 0x11, 0xd3, 0x53, 0xcd, 0x61, 0x3b, 0x9a, 
  0x0b, 0xec, 0x04, 0xff, 0x09, 0x04, 0xd2, 0xc5, 0x1b, 0xf2, 0x31, 0x66, 
  0x51, 0x00, 0xef, 0xcf, 0x3d, 0xe6, 0x0f, 0xe9, 0x0c, 0xc3, 0x17, 0xd7, 
  0xea, 0xf8, 0x06, 0x10, 0x42, 0xe2, 0xbe, 0xd5, 0xe0, 0x38, 0xd2, 0x4a, 
  0xbb, 0xee, 0x16, 0xfd, 0xdb, 0xbe, 0x30, 0x38, 0xff, 0x00, 0x10, 0xf4, 
  0xf1, 0xfd, 0xb9, 0xe6, 0x23, 0xc4, 0x25, 0xf8, 0x11, 0xd2, 0xc7, 0xeb, 
  0x18, 0x4f, 0xf5, 0xf1, 0xed, 0x05, 0x3e, 0x2d, 0xde, 0xe7, 0xd3, 0x1a, 
  0x02, 0xeb, 0x10, 0xad, 0x1f, 0x14, 0x44, 0xe1, 0x1e, 0xd1, 0x0c, 0xd6, 
  0x06, 0xb7, 0x0c, 0x12, 0x3a, 0x20, 0xd2, 0xf6, 0xad, 0x0a, 0xf0, 0x3b, 
  0x49, 0x04, 0x1e, 0x0e, 0xe0, 0x46, 0x2b, 0x48, 0xf9, 0xf5, 0xda, 0x1e, 
  0xe8, 0xc3, 0x08, 0x05, 0xf1, 0x08, 0xee, 0x28, 0xed, 0xf7, 0x03, 0xf7, 
  0xdf, 0x35, 0xba, 0xc8, 0xde, 0x1d, 0xe7, 0x20, 0xc9, 0x10, 0xf5, 0xed, 
  0x0c, 0xf3, 0xce, 0xe5, 0x46, 0xd7, 0x11, 0x3f, 0x2b, 0xf6, 0x27, 0x02, 
  0x2a, 0xd9, 0x4f, 0x3d, 0x1d, 0x37, 0x03, 0xd2, 0x42, 0xcb, 0xc4, 0x3f, 
  0xd1, 0x09, 0xcb, 0xd5, 0xfb, 0xff, 0x1d, 0xf5, 0x23, 0x16, 0xcd, 0xcb, 
  0xed, 0xba, 0xac, 0xf3, 0x31, 0xb9, 0xfe, 0xf1, 0x18, 0xdf, 0xcf, 0x42, 
  0xe4, 0x1b, 0x21, 0xf5, 0xcd, 0x24, 0xfc, 0xf5, 0x24, 0x37, 0x24, 0xd0, 
  0xe1, 0xbf, 0xca, 0xf1, 0x1b, 0xa1, 0xfa, 0x0a, 0xe2, 0x1e, 0x29, 0xa8, 
  0x1d, 0x0a, 0xda, 0xf7, 0xe4, 0x16, 0xc6, 0x1c, 0xe1, 0xfa, 0xd5, 0x0e, 
  0xf4, 0x23, 0xfc, 0x13, 0x23, 0x07, 0x44, 0xfb, 0xd7, 0x19, 0x1b, 0xf5, 
  0x33, 0xc0, 0x4c, 0xc2, 0x15, 0x0f, 0x0e, 0xf3, 0xde, 0x01, 0xf6, 0x3d, 
  0x13, 0x4a, 0xfb, 0x48, 0x54, 0xda, 0xd3, 0xf0, 0x13, 0x0f, 0x0c, 0xb8, 
  0x37, 0xb2, 0xb8, 0x04, 0x0d, 0xf7, 0xff, 0xdd, 0x43, 0xe7, 0xc6, 0x04, 
  0xc5, 0x15, 0x16, 0x37, 0xe6, 0x22, 0xeb, 0xc0, 0xf4, 0x16, 0xf4, 0xf8, 
  0xf1, 0x0f, 0x11, 0xc8, 0x18, 0x18, 0x10, 0x2a, 0xd9, 0xc6, 0xbb, 0xf4, 
  0x0a, 0x29, 0x49, 0xd3, 0xdb, 0x08, 0xd1, 0xe3, 0x3d, 0x96, 0xfd, 0xb3, 
  0x42, 0xf8, 0xe0, 0x05, 0x21, 0xb4, 0x29, 0x24, 0xc1, 0x33, 0x12, 0xc1, 
  0x3a, 0xdd, 0xeb, 0xf7, 0x16, 0xed, 0x0b, 0x2b, 0xed, 0xf5, 0xba, 0xcc, 
  0x1c, 0x27, 0x1b, 0xd4, 0x01, 0x48, 0x0e, 0x51, 0x0f, 0x35, 0xd0, 0x3c, 
  0xaf, 0xd2, 0xd4, 0x23, 0x07, 0x21, 0x23, 0xde, 0x1d, 0xf4, 0x3b, 0x05, 
  0x28, 0xfc, 0x3b, 0x0a, 0xec, 0x1f, 0xc6, 0xf7, 0xdb, 0xd6, 0x2a, 0x9f, 
  0xec, 0xf2, 0x1f, 0x51, 0x27, 0x5c, 0x25, 0x0b, 0xee, 0xdc, 0x43, 0xee, 
  0x27, 0xca, 0x0f, 0xf6, 0x1c, 0xbc, 0x17, 0xfb, 0xd8, 0x32, 0xcc, 0x0c, 
  0x3e, 0x19, 0x28, 0x12, 0x15, 0xda, 0xdf, 0x34, 0x07, 0xfb, 0xe6, 0x36, 
  0x22, 0x06, 0xd8, 0x16, 0xbc, 0x27, 0xf5, 0x0a, 0xdb, 0x15, 0x2d, 0xc5, 
  0xeb, 0x14, 0xe2, 0x33, 0xd4, 0x26, 0x1b, 0xf8, 0xc2, 0x1e, 0xdd, 0x28, 
  0x2a, 0x30, 0x25, 0xfc, 0x21, 0x0a, 0xf9, 0xec, 0x32, 0xb6, 0xc6, 0x02, 
  0x38, 0xa3, 0x1c, 0x43, 0xf4, 0x0d, 0x0f, 0x07, 0xd4, 0x06, 0x0b, 0x04, 
  0x08, 0x05, 0x0c, 0xc6, 0xe9, 0x27, 0x2c, 0xdf, 0x02, 0xcb, 0xe7, 0x2a, 
  0xf9, 0xfe, 0xf1, 0x60, 0x23, 0x32, 0x35, 0x39, 0xac, 0xf2, 0x07, 0x3b, 
  0xef, 0x58, 0x08, 0x04, 0x2a, 0x4f, 0xf6, 0x28, 0x19, 0x27, 0xed, 0x49, 
  0xe9, 0xcb, 0xdb, 0x29, 0xec, 0xd8, 0xd3, 0xaa, 0x04, 0x05, 0xe2, 0xd4, 
  0xfe, 0x10, 0xec, 0x35, 0xdf, 0xdf, 0x2f, 0x04, 0xd3, 0x1f, 0xf8, 0xfe, 
  0xfd, 0xee, 0x3c, 0x26, 0xd8, 0x25, 0x03, 0x36, 0xf4, 0x12, 0x04, 0xc5, 
  0x2f, 0x42, 0x06, 0xe7, 0xc2, 0x30, 0x38, 0x3c, 0x3e, 0xe8, 0xe1, 0xae, 
  0x01, 0xf2, 0x3d, 0xd8, 0xe7, 0xee, 0xe0, 0x0a, 0xf7, 0xf9, 0xee, 0x31, 
  0xde, 0x09, 0x2b, 0x21, 0xcd, 0x98, 0x2e, 0x33, 0xc9, 0x36, 0x06, 0x0e, 
  0x34, 0x20, 0x07, 0xc5, 0xdb, 0x15, 0x0d, 0xfa, 0xe9, 0x2f, 0xb0, 0xa8, 
  0x1f, 0xe1, 0xc9, 0x39, 0x42, 0x1c, 0x46, 0x6e, 0xf9, 0x3a, 0x38, 0x3b, 
  0xbf, 0xca, 0x22, 0x0a, 0xe6, 0x11, 0xd9, 0xd6, 0xca, 0x01, 0xe8, 0xdb, 
  0xd2, 0xc2, 0x18, 0xcf, 0xe5, 0x20, 0x34, 0x20, 0x64, 0xda, 0xee, 0x13, 
  0x0c, 0x29, 0x03, 0xf7, 0x3b, 0x08, 0xea, 0x12, 0xfb, 0x30, 0x1c, 0xe7, 
  0xfa, 0x0f, 0xf6, 0xcb, 0x35, 0x04, 0x43, 0x0c, 0xfa, 0xbd, 0xe6, 0x44, 
  0x1d, 0x10, 0x29, 0x2a, 0x28, 0x1b, 0xda, 0x1a, 0xe2, 0x4a, 0xe0, 0x30, 
  0x0b, 0xfe, 0xfc, 0x09, 0x32, 0x14, 0xfe, 0xfa, 0x39, 0x2d, 0xf7, 0xfa, 
  0x31, 0x07, 0xcd, 0x2c, 0x32, 0x18, 0x34, 0xe4, 0x2e, 0x24, 0x21, 0x39, 
  0xe7, 0x56, 0x19, 0x21, 0x5c, 0x24, 0xeb, 0xfd, 0xbb, 0xdc, 0xc8, 0x0a, 
  0x14, 0x09, 0x2d, 0x07, 0xf6, 0xf2, 0xf0, 0xea, 0x43, 0xeb, 0xed, 0xdb, 
  0x13, 0x23, 0x30, 0xe3, 0xde, 0xa7, 0xd7, 0xd1, 0x1b, 0x2d, 0xf6, 0xfd, 
  0xcc, 0x2c, 0xed, 0x0b, 0x06, 0xb6, 0x10, 0xe7, 0x00, 0xcc, 0x29, 0x2b, 
  0x56, 0xb4, 0x32, 0x53, 0xe5, 0xf9, 0xf7, 0x2c, 0x14, 0x0f, 0x29, 0x14, 
  0xb6, 0x2f, 0x15, 0x56, 0x0d, 0x32, 0xa7, 0xf2, 0xc6, 0x08, 0xfc, 0x12, 
  0x01, 0xce, 0x39, 0x20, 0xd0, 0xe6, 0xf6, 0xf6, 0x44, 0xc9, 0xf2, 0x2d, 
  0xdd, 0xc8, 0x08, 0x4c, 0x27, 0xca, 0x32, 0xd3, 0x10, 0x17, 0xc4, 0xb8, 
  0x2e, 0x47, 0xf6, 0xea, 0x36, 0x3e, 0x2a, 0x18, 0x07, 0xb2, 0xa8, 0x19, 
  0x2c, 0x2b, 0xf0, 0x41, 0x3e, 0xe4, 0x12, 0x09, 0xe5, 0x18, 0x44, 0xe9, 
  0xe8, 0x33, 0x2e, 0x31, 0xda, 0xde, 0xfe, 0xfa, 0xee, 0x2e, 0xf7, 0x1f, 
  0x01, 0x1d, 0xfb, 0x34, 0x1e, 0x47, 0x01, 0x01, 0xe0, 0xc1, 0x48, 0xfa, 
  0xfd, 0xf1, 0xb8, 0x3d, 0x50, 0xf5, 0xf8, 0x25, 0x06, 0xc0, 0xe4, 0x06, 
  0xfa, 0x06, 0x12, 0x9f, 0x05, 0xb5, 0x09, 0x17, 0x2e, 0x2c, 0x64, 0xe4, 
  0xf8, 0xce, 0x05, 0xfb, 0xec, 0xd5, 0x4b, 0xe1, 0xc2, 0x0e, 0x28, 0xde, 
  0x24, 0xfb, 0x34, 0x28, 0x29, 0x17, 0xea, 0xeb, 0xe9, 0xc5, 0x12, 0x17, 
  0xaa, 0x0e, 0x0e, 0x07, 0x1a, 0xd4, 0xeb, 0x02, 0xc6, 0x22, 0xf3, 0x1b, 
  0xf6, 0x21, 0x1d, 0x14, 0x31, 0xd8, 0xf9, 0x2d, 0xd6, 0xd9, 0xd4, 0xd1, 
  0x36, 0xf0, 0x22, 0xdd, 0xeb, 0x1d, 0xfc, 0xd6, 0x1b, 0x3c, 0xd0, 0x1b, 
  0xd9, 0x32, 0x2a, 0xda, 0xe7, 0x3d, 0xcb, 0x2f, 0x06, 0xf5, 0x0d, 0xed, 
  0x1c, 0x00, 0xde, 0x0a, 0x22, 0xdf, 0xdd, 0xf0, 0x2b, 0xdb, 0x29, 0x4d, 
  0xf0, 0xe8, 0xdb, 0x28, 0xd8, 0x39, 0xe5, 0x20, 0x2a, 0x57, 0xea, 0xfc, 
  0xca, 0x28, 0x41, 0x32, 0x10, 0x28, 0x38, 0xd4, 0xc2, 0xf9, 0xf0, 0xc2, 
  0x34, 0x10, 0x02, 0x3a, 0x12, 0xfd, 0x4d, 0xff, 0xc5, 0x36, 0xf7, 0x26, 
  0x09, 0x18, 0x19, 0x02, 0xe0, 0xea, 0x3b, 0x1e, 0x1a, 0x06, 0xd6, 0xe5, 
  0xb4, 0xe9, 0xcf, 0xc0, 0x3e, 0x3f, 0x2d, 0xea, 0xd1, 0x1e, 0x2e, 0x58, 
  0x25, 0xeb, 0x0e, 0xfa, 0x09, 0x14, 0x13, 0x2d, 0xc0, 0xf5, 0x12, 0x37, 
  0x24, 0xea, 0x08, 0x2a, 0x1d, 0xdc, 0x39, 0x1d, 0x19, 0x38, 0x52, 0x0c, 
  0xe9, 0xe0, 0xf2, 0x0c, 0xe3, 0x2d, 0xb2, 0xd9, 0xca, 0x1b, 0x1b, 0xe6, 
  0xe1, 0xf6, 0xc4, 0xfa, 0x1f, 0x1a, 0xfe, 0xe3, 0xc5, 0xcc, 0x27, 0x04, 
  0x11, 0xed, 0xf4, 0xc3, 0x32, 0x3d, 0x0f, 0xa5, 0xcf, 0xc4, 0xbb, 0x19, 
  0xe3, 0x18, 0x4f, 0x36, 0x1b, 0xfa, 0xfb, 0xef, 0x28, 0xe5, 0x03, 0xe6, 
  0xd5, 0x4a, 0x3e, 0x06, 0x10, 0x0e, 0x1e, 0xd8, 0xdc, 0xf2, 0xd5, 0x22, 
  0x07, 0xcb, 0xef, 0x2a, 0x16, 0x25, 0xd0, 0xd1, 0x18, 0x2d, 0x24, 0x2f, 
  0xd1, 0x13, 0xf6, 0x31, 0xeb, 0xa5, 0x1d, 0x3d, 0x33, 0x50, 0x1b, 0x2b, 
  0xb0, 0x53, 0xbc, 0xfd, 0x2d, 0xca, 0xd7, 0x0b, 0xf8, 0xe0, 0xd0, 0xcb, 
  0x2c, 0xba, 0x04, 0x34, 0xe4, 0x4f, 0x0f, 0xf1, 0xee, 0x25, 0x22, 0xda, 
  0x43, 0xb7, 0x10, 0xce, 0xa9, 0xfa, 0x0e, 0x0b, 0xd1, 0xf8, 0x23, 0x08, 
  0xc0, 0x16, 0x1a, 0x31, 0xc2, 0x09, 0xf5, 0x3c, 0xd1, 0x11, 0xdc, 0x04, 
  0x23, 0x1d, 0x47, 0x0e, 0xf2, 0x18, 0xc8, 0x36, 0x36, 0xec, 0xc8, 0x09, 
  0x06, 0x12, 0x41, 0x12, 0xfc, 0xce, 0x0e, 0xc2, 0x0b, 0xcc, 0x52, 0xd5, 
  0xbf, 0x0f, 0x06, 0xf6, 0xdb, 0x25, 0x46, 0xf5, 0xfc, 0x01, 0x3c, 0xf7, 
  0xad, 0x05, 0xd2, 0x11, 0xe5, 0xde, 0xe9, 0xb1, 0x02, 0xdc, 0xe5, 0xd0, 
  0x2c, 0x00, 0x15, 0xf1, 0xb8, 0xf1, 0xea, 0xf2, 0xdd, 0xcb, 0x17, 0x07, 
  0xf1, 0x2d, 0x10, 0xe3, 0x18, 0x24, 0x2b, 0x42, 0x17, 0xce, 0x1b, 0x38, 
  0xd6, 0x05, 0xd6, 0xf5, 0x15, 0xa7, 0xca, 0x3c, 0x04, 0x2c, 0x03, 0xc0, 
  0x29, 0x0d, 0xfc, 0x1e, 0xd1, 0x0a, 0x4f, 0xf6, 0xd2, 0x28, 0xc0, 0x09, 
  0xcd, 0x2e, 0xbe, 0xdc, 0xff, 0x33, 0x39, 0x3c, 0x0b, 0x44, 0x27, 0xed, 
  0xfe, 0x21, 0x34, 0xff, 0x25, 0xcd, 0xc8, 0x0a, 0x51, 0xed, 0x6c, 0xff, 
  0xdf, 0xb4, 0xcc, 0xdd, 0x2e, 0xf1, 0x54, 0x05, 0x26, 0x13, 0x16, 0x2e, 
  0x05, 0x07, 0x2e, 0xf3, 0x21, 0x53, 0x23, 0x24, 0xd8, 0x23, 0xe6, 0x19, 
  0x0a, 0x18, 0xf7, 0xe1, 0x36, 0x29, 0xe0, 0x10, 0xc1, 0x0d, 0x4c, 0x04, 
  0x1e, 0xc6, 0xd5, 0xed, 0x44, 0x35, 0x04, 0xf9, 0xf7, 0x0b, 0x11, 0xd9, 
  0x31, 0x41, 0xeb, 0xf1, 0xcd, 0x5f, 0xe9, 0x0d, 0x3f, 0x28, 0x01, 0x39, 
  0x19, 0x1a, 0x2e, 0x10, 0x2b, 0xf9, 0x01, 0xe4, 0x5d, 0x01, 0xff, 0xf0, 
  0x06, 0xac, 0x5d, 0xe5, 0x00, 0x0f, 0xe1, 0x1e, 0x37, 0xc5, 0xf7, 0xf3, 
  0xdc, 0x1d, 0x11, 0xde, 0x2b, 0xc9, 0x0c, 0xfd, 0xea, 0x30, 0xfe, 0x18, 
  0x20, 0xdf, 0xf9, 0xbf, 0x08, 0x15, 0x31, 0xf5, 0x29, 0x67, 0x13, 0x3c, 
  0x1a, 0xd7, 0x53, 0xdd, 0xfc, 0x11, 0x15, 0x17, 0x45, 0xce, 0xe5, 0x2b, 
  0x09, 0xf8, 0xe7, 0x5d, 0x20, 0xda, 0xfa, 0x43, 0x0d, 0x64, 0x1c, 0xf2, 
  0xe9, 0xde, 0x2b, 0xb2, 0x25, 0xf2, 0x27, 0x1a, 0x0c, 0x20, 0xf3, 0x2a, 
  0x0f, 0x2f, 0x12, 0x26, 0x1d, 0x37, 0x09, 0xd3, 0x16, 0xcf, 0xdf, 0xf9, 
  0x50, 0x9f, 0x38, 0x1c, 0xa7, 0xe7, 0x07, 0xd2, 0xbf, 0xc6, 0xf7, 0xec, 
  0x33, 0x12, 0xac, 0x14, 0x13, 0xfe, 0xfc, 0xe7, 0x1a, 0x26, 0x1d, 0x13, 
  0x53, 0x1b, 0x23, 0x20, 0x52, 0xd3, 0xf8, 0x09, 0xff, 0xf5, 0xcc, 0x05, 
  0xfe, 0xbe, 0x0f, 0xca, 0xa7, 0xc5, 0xc3, 0xfb, 0xd7, 0x07, 0x03, 0x2c, 
  0x23, 0x20, 0xcc, 0xbe, 0x10, 0xf0, 0xd4, 0xd0, 0xef, 0x18, 0xf7, 0xe6, 
  0x46, 0x42, 0x11, 0x49, 0x2d, 0xae, 0xfd, 0x20, 0x46, 0xdc, 0xc9, 0x41, 
  0x5b, 0x38, 0x12, 0xd4, 0x04, 0xe1, 0xdf, 0xe9, 0x15, 0xe4, 0xda, 0x34, 
  0xe9, 0x08, 0x0e, 0x44, 0x2a, 0x14, 0xc4, 0x20, 0xd0, 0x04, 0xe9, 0xf6, 
  0x03, 0x0e, 0x3a, 0x02, 0x1f, 0xea, 0xd4, 0x34, 0xef, 0x3c, 0x3b, 0x03, 
  0x1d, 0x03, 0xf1, 0xde, 0xfa, 0xda, 0xc4, 0xf1, 0x25, 0xe3, 0xd4, 0x17, 
  0x1e, 0x1d, 0x00, 0x26, 0x1d, 0x14, 0xf8, 0xdd, 0x18, 0xbb, 0xf1, 0x02, 
  0x1d, 0x03, 0x0c, 0x09, 0x03, 0x12, 0x0e, 0xd9, 0x4d, 0x3e, 0x1b, 0x11, 
  0xd5, 0xb9, 0x07, 0xc2, 0xee, 0x19, 0x10, 0xb2, 0xd9, 0x0d, 0xf4, 0xca, 
  0xca, 0xef, 0x35, 0xe1, 0x43, 0x2e, 0x1c, 0x03, 0xf4, 0x47, 0xd0, 0x4c, 
  0x26, 0x48, 0x18, 0x2a, 0x05, 0xe8, 0x35, 0xcd, 0xf8, 0x1a, 0xde, 0xe6, 
  0x2c, 0xec, 0x3c, 0x49, 0xf8, 0xfc, 0xe6, 0xec, 0x0b, 0x9a, 0xed, 0x33, 
  0xc8, 0xc0, 0x32, 0xdd, 0x19, 0xe7, 0xe9, 0xcb, 0xc1, 0x14, 0x20, 0xdf, 
  0x1d, 0xdc, 0xfd, 0xbb, 0xfb, 0xd6, 0xfb, 0x21, 0x2c, 0xe4, 0x29, 0xf5, 
  0x44, 0x0b, 0x0e, 0xda, 0xf3, 0x2c, 0xfc, 0x30, 0xc3, 0xd3, 0xe7, 0x11, 
  0xf6, 0xcc, 0xee, 0x0d, 0xe9, 0x0c, 0x14, 0xe7, 0xfa, 0x1f, 0x1b, 0xfd, 
  0x2f, 0x04, 0x37, 0xbd, 0x15, 0x70, 0x1c, 0x1a, 0x2e, 0xf1, 0x09, 0x28, 
  0xd8, 0xf9, 0x16, 0xe3, 0x40, 0x26, 0x08, 0x21, 0xfd, 0x17, 0x1b, 0xf7, 
  0x20, 0x12, 0x3c, 0xf8, 0xbc, 0x40, 0xf5, 0x1c, 0xd3, 0x28, 0x4e, 0xff, 
  0x3d, 0x4a, 0xc6, 0xc9, 0xe4, 0xf3, 0xc3, 0xf0, 0x13, 0xd1, 0x15, 0x29, 
  0x1b, 0x3c, 0x16, 0xf9, 0x45, 0x4e, 0x13, 0x4d, 0xb2, 0xd0, 0xd6, 0xcc, 
  0x4a, 0xf1, 0x13, 0xf6, 0x02, 0x14, 0xd4, 0x01, 0x02, 0xe7, 0x13, 0xed, 
  0xe5, 0xc1, 0x2e, 0xff, 0x03, 0xca, 0xd9, 0xfa, 0x0a, 0x34, 0x19, 0x33, 
  0xcb, 0xd6, 0xe9, 0xda, 0xef, 0xe8, 0x48, 0x1d, 0xf4, 0x0b, 0xdf, 0x18, 
  0xf7, 0x36, 0xe9, 0xed, 0x56, 0x09, 0xe6, 0x24, 0x11, 0x0c, 0xd9, 0x3e, 
  0xf4, 0xfa, 0x33, 0x20, 0x15, 0x0d, 0xf2, 0x28, 0x1f, 0x1c, 0x2e, 0x13, 
  0xce, 0xe7, 0x13, 0xeb, 0xe7, 0xd0, 0x1e, 0x0e, 0x06, 0x10, 0xbd, 0x09, 
  0x0f, 0x04, 0x43, 0x1e, 0x0d, 0xc3, 0x19, 0xcc, 0xd2, 0x32, 0x3a, 0x22, 
  0xef, 0xdd, 0xd4, 0xee, 0x39, 0x6b, 0x36, 0x04, 0xf9, 0xf7, 0xc0, 0xba, 
  0xbf, 0xf5, 0xeb, 0x3a, 0x0d, 0xf3, 0xfb, 0xd7, 0x13, 0xf5, 0x31, 0x04, 
  0x15, 0xef, 0x0e, 0xe8, 0x0b, 0x0c, 0xdf, 0x09, 0x03, 0xcb, 0x22, 0x08, 
  0x40, 0x31, 0x13, 0xde, 0x3e, 0xd3, 0xe6, 0xfa, 0x2a, 0x46, 0x21, 0xbd, 
  0xe6, 0x31, 0xcf, 0xc9, 0x3b, 0xf5, 0xf5, 0x2d, 0x2d, 0x3d, 0x15, 0x58, 
  0xe0, 0xe5, 0x59, 0x0d, 0xfd, 0xb8, 0xd3, 0x27, 0xb4, 0x28, 0x02, 0x41, 
  0xdf, 0xdd, 0xdb, 0x11, 0xe7, 0x0c, 0xf0, 0xfc, 0x00, 0xfc, 0x30, 0x0c, 
  0x5a, 0xed, 0x23, 0xe5, 0xf1, 0xd7, 0xd1, 0xef, 0x0c, 0x34, 0xf1, 0xd2, 
  0xff, 0xf5, 0x10, 0xdb, 0xe5, 0xf1, 0xba, 0x15, 0xe5, 0xda, 0xfb, 0x12, 
  0x41, 0xfd, 0xea, 0xd5, 0x45, 0x16, 0xe3, 0x1f, 0x0c, 0x49, 0x44, 0x08, 
  0x0c, 0x1f, 0xe2, 0xdb, 0xdd, 0xf7, 0xdf, 0x02, 0xfc, 0xe9, 0xb9, 0xd0, 
  0x1a, 0x0b, 0xb9, 0xb6, 0xcd, 0xcb, 0x06, 0x4d, 0xdf, 0xd8, 0x29, 0xc1, 
  0x32, 0x33, 0xf8, 0x07, 0xf8, 0x27, 0x00, 0xe9, 0x2b, 0xd8, 0xda, 0x2b, 
  0xc7, 0x2f, 0x5d, 0xd9, 0xf1, 0xc1, 0x01, 0xe3, 0x3a, 0xdf, 0xec, 0x0d, 
  0xec, 0xea, 0x00, 0x09, 0x5b, 0xae, 0x2e, 0xc2, 0x0a, 0xce, 0x28, 0xfe, 
  0xf1, 0xb4, 0x4b, 0xb7, 0x38, 0xbd, 0x42, 0x22, 0xeb, 0x30, 0xaa, 0x33, 
  0x00, 0xf2, 0xf0, 0xf3, 0x1d, 0x03, 0x22, 0xf9, 0xc6, 0xef, 0xee, 0x26, 
  0x05, 0xfb, 0x3c, 0x16, 0x1b, 0xf0, 0xf8, 0xf6, 0x13, 0xd4, 0xcd, 0xc3, 
  0xcd, 0x0a, 0x00, 0x07, 0xd7, 0xd7, 0xe7, 0x3f, 0x4b, 0xf2, 0x32, 0xf0, 
  0xb8, 0x45, 0xcd, 0x26, 0x0b, 0x00, 0x25, 0x09, 0x37, 0xe2, 0xcf, 0x06, 
  0xf9, 0xfe, 0x3c, 0xf5, 0xdc, 0x47, 0xf4, 0xd4, 0x2e, 0x2a, 0xf9, 0x16, 
  0xc8, 0xd2, 0x0b, 0x13, 0x20, 0xe1, 0xb6, 0xbc, 0x1e, 0x0b, 0xd3, 0x19, 
  0xed, 0x2c, 0xe9, 0x16, 0xb9, 0xdd, 0xc1, 0xfe, 0xef, 0xf2, 0x1e, 0x40, 
  0xdf, 0x38, 0xeb, 0xbb, 0x01, 0xe9, 0xd9, 0xe6, 0xe6, 0x49, 0x21, 0x3e, 
  0xfb, 0xec, 0x07, 0x07, 0xdd, 0x1f, 0x27, 0xf2, 0xc1, 0xc7, 0x25, 0x0a, 
  0x16, 0xc9, 0x3d, 0xc4, 0x34, 0xc6, 0xf6, 0x1a, 0x07, 0x17, 0x09, 0xdb, 
  0xd3, 0xcb, 0x4d, 0xd9, 0xdc, 0xb8, 0x11, 0x36, 0xbc, 0x29, 0xf8, 0x0c, 
  0x27, 0x22, 0xef, 0x15, 0xea, 0x06, 0x4d, 0xdd, 0xf9, 0x14, 0x00, 0xfb, 
  0xfd, 0xe0, 0x1d, 0xd2, 0x35, 0xe6, 0x09, 0xf9, 0xc9, 0xee, 0x42, 0x3c, 
  0x30, 0xf5, 0x34, 0x18, 0x4f, 0x1b, 0x1d, 0xd1, 0xe0, 0xe2, 0xed, 0xf9, 
  0x03, 0x2b, 0xef, 0x1b, 0x23, 0x2f, 0xdb, 0xe9, 0x24, 0xfe, 0x10, 0xf7, 
  0xe7, 0xc3, 0x9d, 0xf5, 0x32, 0x13, 0xfd, 0xf1, 0x29, 0x23, 0xfb, 0xda, 
  0x21, 0xac, 0xc8, 0x3c, 0x25, 0xf9, 0x2d, 0x0b, 0xc3, 0xbf, 0x3b, 0x16, 
  0xf3, 0xc4, 0xdc, 0x04, 0xf6, 0x45, 0xe7, 0x27, 0x37, 0x36, 0x19, 0xeb, 
  0x03, 0x45, 0xcf, 0xd6, 0xe7, 0x02, 0xde, 0x1d, 0x22, 0xaa, 0xca, 0x3b, 
  0xe9, 0x4b, 0x2c, 0xb0, 0x3f, 0x43, 0x31, 0x03, 0x1b, 0xe1, 0xe2, 0xef, 
  0xef, 0xe4, 0x07, 0x47, 0x00, 0xde, 0xe6, 0xe8, 0xf7, 0xcc, 0x07, 0xc5, 
  0x0f, 0xd5, 0xfd, 0xed, 0x0a, 0x1d, 0xcb, 0x18, 0xfa, 0x27, 0x0c, 0xfc, 
  0x3a, 0xee, 0xf6, 0x4f, 0xf4, 0xf7, 0x37, 0x38, 0x0d, 0x24, 0x20, 0xcd, 
  0x14, 0x07, 0xd0, 0x20, 0x05, 0x32, 0x05, 0x2d, 0xe0, 0x0b, 0x17, 0x18, 
  0x4b, 0xf0, 0x51, 0xf5, 0xd3, 0x3c, 0x4f, 0x34, 0xe1, 0xd9, 0xdf, 0xe1, 
  0x1e, 0x26, 0x2c, 0xd5, 0xc5, 0xc2, 0x09, 0xff, 0xd7, 0xa9, 0xb5, 0x04, 
  0x1c, 0x10, 0x3c, 0xef, 0x05, 0xd2, 0x30, 0xac, 0x03, 0x19, 0x3e, 0xf6, 
  0xec, 0x04, 0xf3, 0xde, 0x02, 0xdf, 0xcd, 0x1c, 0xff, 0xe1, 0xef, 0xb0, 
  0xc7, 0xf2, 0x2d, 0xd8, 0x3f, 0x1a, 0x07, 0x82, 0xcc, 0xdf, 0x09, 0xf0, 
  0xea, 0xa5, 0x09, 0xe3, 0xdc, 0xb9, 0x03, 0x28, 0xd4, 0xd9, 0xd1, 0xea, 
  0x13, 0xd8, 0x01, 0xe1, 0xfc, 0xf6, 0xcc, 0x2e, 0xe0, 0xce, 0x11, 0xe3, 
  0xf1, 0xcd, 0xe1, 0x4c, 0x07, 0xde, 0xfd, 0xd2, 0xed, 0x1f, 0xe1, 0xcc, 
  0x0f, 0xea, 0xd4, 0x23, 0xe7, 0x0a, 0x42, 0x41, 0xf7, 0xcd, 0xf8, 0xc2, 
  0xe2, 0xf7, 0xcb, 0x19, 0xed, 0x1a, 0xe0, 0x18, 0x20, 0xf2, 0x26, 0xd6, 
  0xbd, 0xf5, 0x24, 0xe2, 0x3d, 0x19, 0x0a, 0xfe, 0xd0, 0x38, 0x2c, 0xdb, 
  0x04, 0xff, 0xee, 0x14, 0x31, 0xb1, 0xea, 0x3c, 0x35, 0xc5, 0x35, 0xd2, 
  0xc0, 0xe7, 0xd0, 0x15, 0xe3, 0x25, 0xc8, 0xf2, 0x02, 0x41, 0xce, 0x10, 
  0xe8, 0x34, 0xd4, 0x0a, 0xf6, 0x10, 0x45, 0x32, 0x1b, 0xd1, 0xe8, 0xe8, 
  0x38, 0x15, 0xe7, 0x03, 0x1c, 0xb7, 0x3c, 0x4b, 0xbb, 0xfa, 0x0f, 0xf5, 
  0x0e, 0x2b, 0xc8, 0x4d, 0xe4, 0x46, 0xe7, 0x2c, 0xf7, 0x31, 0x22, 0xf5, 
  0xc2, 0x24, 0xd1, 0x11, 0x3e, 0x29, 0xf2, 0xc2, 0x33, 0xec, 0x0e, 0xe0, 
  0xf5, 0x15, 0xe3, 0x1c, 0x2d, 0x1a, 0x0c, 0x5b, 0xf2, 0xe8, 0xef, 0xc3, 
  0x29, 0xaf, 0x06, 0x43, 0x0e, 0xcc, 0x09, 0x39, 0xdc, 0x01, 0x2b, 0xea, 
  0xda, 0x2c, 0x44, 0x11, 0xdf, 0xc0, 0x28, 0x49, 0x20, 0x39, 0x20, 0x4d, 
  0xe8, 0xed, 0xde, 0x31, 0xbf, 0x1d, 0x18, 0x14, 0xb2, 0xf8, 0xb5, 0x16, 
  0xfe, 0x39, 0x2f, 0x37, 0xf0, 0xed, 0x26, 0x09, 0xf2, 0x95, 0x33, 0x22, 
  0x1d, 0x19, 0xc4, 0xc4, 0xe8, 0x1c, 0x0e, 0x0a, 0x24, 0xf0, 0xf8, 0xfb, 
  0x16, 0x16, 0x3b, 0x33, 0x1b, 0x3d, 0x00, 0x32, 0xc8, 0x23, 0xf4, 0x3d, 
  0xcd, 0x3c, 0xdf, 0xdc, 0xc9, 0x09, 0xfe, 0x1b, 0x23, 0x1d, 0x28, 0x34, 
  0x98, 0xcf, 0x28, 0x52, 0x11, 0xff, 0xd4, 0xe3, 0xee, 0x2f, 0xc4, 0x38, 
  0xba, 0xf4, 0x2c, 0x3c, 0xd7, 0x36, 0xc0, 0x0c, 0xd3, 0x00, 0xd5, 0xda, 
  0x11, 0x24, 0x31, 0xef, 0xe9, 0xea, 0xdf, 0x94, 0xdc, 0x3d, 0x63, 0x35, 
  0x19, 0x0c, 0x14, 0xe1, 0x34, 0x38, 0xdd, 0x17, 0x18, 0xad, 0xdb, 0x26, 
  0xe2, 0x10, 0xe5, 0x34, 0x06, 0x29, 0x07, 0xd9, 0xdd, 0xca, 0xd8, 0xee, 
  0xe7, 0x2e, 0xf2, 0x00, 0x1e, 0x18, 0xcf, 0x42, 0xe6, 0x36, 0xf0, 0xad, 
  0x3a, 0x05, 0xe7, 0xd7, 0x28, 0xc3, 0xda, 0x21, 0xfb, 0xea, 0x2f, 0xe6, 
  0x2f, 0xe8, 0x2c, 0xaf, 0x27, 0x61, 0x22, 0x10, 0xef, 0xd1, 0x30, 0xae, 
  0x1b, 0xef, 0xce, 0x1a, 0x3b, 0x15, 0xe1, 0xf0, 0x68, 0xb7, 0x36, 0x3c, 
  0x33, 0xd8, 0x07, 0xf8, 0x02, 0x09, 0x20, 0xe7, 0xda, 0xc9, 0x08, 0x81, 
  0xed, 0x12, 0x3a, 0x3e, 0x09, 0xf1, 0x12, 0xf0, 0x1c, 0x0d, 0x13, 0xd8, 
  0xce, 0xd7, 0x0e, 0x43, 0x1d, 0x10, 0x4b, 0xd4, 0x38, 0x16, 0x2c, 0x35, 
  0x37, 0xfd, 0x51, 0x08, 0x09, 0xce, 0x12, 0xed, 0xe7, 0xa4, 0x18, 0x4d, 
  0x55, 0xd0, 0xf1, 0xdb, 0xde, 0x1f, 0x43, 0x1b, 0x29, 0xd5, 0xee, 0xb8, 
  0x5c, 0xcf, 0xce, 0xe7, 0xcb, 0xc6, 0xf8, 0xe7, 0xef, 0x48, 0x07, 0xfb, 
  0x3d, 0xbe, 0xff, 0x42, 0x11, 0x05, 0x1b, 0x18, 0xee, 0xd6, 0x03, 0x2a, 
  0xf1, 0xe6, 0xe9, 0xe2, 0xe9, 0xf1, 0x22, 0xfb, 0xd5, 0xc2, 0xe1, 0x43, 
  0x18, 0xf2, 0x0c, 0xf8, 0xf1, 0x33, 0x26, 0x2b, 0x28, 0xc8, 0xe0, 0x13, 
  0x18, 0x1a, 0xca, 0x16, 0x04, 0xeb, 0xd2, 0x1e, 0x3a, 0x45, 0xff, 0xef, 
  0xe2, 0x12, 0xfd, 0x0f, 0x31, 0x22, 0x0a, 0x11, 0x07, 0x31, 0x3a, 0xc3, 
  0x32, 0xda, 0x0e, 0x45, 0xc9, 0xdf, 0x14, 0xe4, 0xfb, 0x1f, 0xd7, 0x18, 
  0xd0, 0x09, 0xf3, 0xd4, 0x38, 0x0e, 0xa5, 0xa9, 0xab, 0x13, 0x0c, 0xd6, 
  0x19, 0x41, 0x09, 0x2b, 0xc7, 0x5e, 0xf5, 0x05, 0xfa, 0xc8, 0xba, 0x25, 
  0xf3, 0x38, 0xe1, 0xd0, 0xf6, 0x1c, 0xe0, 0xc2, 0x13, 0xe8, 0xf3, 0x09, 
  0xd2, 0x29, 0xb3, 0x2c, 0x2c, 0x20, 0x03, 0x03, 0xfe, 0x2a, 0x2f, 0x50, 
  0x41, 0xa4, 0xff, 0xde, 0x35, 0xed, 0xe7, 0xb2, 0x12, 0x11, 0xbd, 0xeb, 
  0xf7, 0x32, 0xd7, 0xd1, 0x15, 0x3a, 0xe5, 0x0d, 0xdd, 0xf9, 0xdf, 0xd0, 
  0xdc, 0xd4, 0xf9, 0x15, 0x0b, 0xe2, 0xd8, 0x1f, 0xa8, 0xd2, 0x5c, 0xfb, 
  0xd9, 0x48, 0x00, 0x01, 0x0c, 0x06, 0x57, 0xf9, 0xe9, 0x04, 0xaf, 0xf4, 
  0x0a, 0xed, 0xc1, 0xcd, 0xec, 0x07, 0xd6, 0x32, 0x02, 0xe3, 0x32, 0xc8, 
  0xfa, 0xfb, 0x8b, 0x34, 0x02, 0x12, 0xdb, 0x23, 0x24, 0x44, 0xd3, 0x2a, 
  0xf5, 0xa4, 0xc7, 0xd6, 0xe3, 0xb6, 0xce, 0x20, 0xd6, 0xdf, 0x17, 0x29, 
  0xe4, 0x14, 0x45, 0x74, 0xd2, 0x0b, 0xec, 0x0e, 0x42, 0xd8, 0x01, 0x22, 
  0xd4, 0x1a, 0x01, 0xdd, 0xf8, 0xec, 0x54, 0x4c, 0xfa, 0x1b, 0x16, 0x25, 
  0xdb, 0x4f, 0xf0, 0x27, 0xfb, 0xc2, 0x21, 0x09, 0x0c, 0x53, 0x37, 0x0f, 
  0x24, 0x0d, 0x52, 0xca, 0xcb, 0x18, 0x14, 0x24, 0xd7, 0x3d, 0xd2, 0xf4, 
  0x19, 0xd9, 0xd5, 0x62, 0x00, 0xfc, 0x35, 0x1b, 0xee, 0xf9, 0xc0, 0xc9, 
  0xc6, 0xba, 0xd1, 0xe1, 0x53, 0x49, 0xee, 0x22, 0x16, 0xda, 0x30, 0x12, 
  0xde, 0x27, 0x30, 0xf2, 0xa5, 0xef, 0xe5, 0xef, 0xf7, 0xeb, 0xc4, 0x25, 
  0xe1, 0xbf, 0x30, 0x1d, 0xe8, 0x4a, 0xc0, 0x12, 0xf9, 0x20, 0xb5, 0x08, 
  0x16, 0xde, 0x30, 0x08, 0x0b, 0x2c, 0x42, 0xd4, 0x37, 0x04, 0x59, 0xdc, 
  0x1f, 0x2f, 0xe8, 0xc5, 0x12, 0x35, 0x30, 0xc2, 0x13, 0xba, 0x3a, 0xf1, 
  0x2b, 0xf2, 0xdf, 0xdf, 0x3b, 0x1d, 0xea, 0xef, 0xcf, 0x16, 0x12, 0xe3, 
  0x33, 0xfa, 0x04, 0xf3, 0x46, 0x0e, 0x35, 0x38, 0xe2, 0x2f, 0xed, 0x10, 
  0x29, 0xe4, 0xcc, 0x18, 0xe5, 0xf6, 0x1f, 0xfd, 0xf9, 0xc1, 0xf8, 0xf6, 
  0x44, 0xfd, 0xe5, 0x44, 0xd5, 0x15, 0x17, 0x2e, 0x06, 0xe6, 0xbf, 0xbd, 
  0x52, 0x4d, 0x03, 0xc7, 0x10, 0xd2, 0x01, 0x0a, 0x0d, 0xaf, 0x0b, 0x0b, 
  0xfa, 0x2c, 0x24, 0xf2, 0x27, 0x00, 0x11, 0x14, 0x15, 0x26, 0xd4, 0xf9, 
  0x16, 0x25, 0x10, 0xd0, 0xef, 0xce, 0x26, 0xca, 0xeb, 0x2c, 0x1d, 0x02, 
  0x7b, 0xda, 0xd9, 0xe0, 0x25, 0xdc, 0xf9, 0xda, 0x4d, 0x42, 0x2e, 0x00, 
  0xde, 0x73, 0x16, 0x07, 0xed, 0x54, 0x54, 0x13, 0x2c, 0x23, 0x0e, 0xf0, 
  0x1d, 0x1c, 0xe1, 0x0d, 0xd8, 0x36, 0x03, 0x35, 0xc5, 0x11, 0x34, 0xe6, 
  0x14, 0xdc, 0xe3, 0xfa, 0x2b, 0xbd, 0xf1, 0xf4, 0xfb, 0x19, 0xee, 0x2e, 
  0xd6, 0x12, 0xd3, 0xeb, 0x9a, 0xdd, 0xf1, 0x1c, 0x34, 0x41, 0x36, 0x40, 
  0x06, 0xf2, 0x11, 0xed, 0x05, 0x3c, 0xcd, 0xd8, 0xfd, 0xf6, 0x4b, 0xe4, 
  0x1f, 0xba, 0x21, 0xe0, 0xd7, 0xc9, 0x2c, 0xad, 0x3a, 0xd4, 0x13, 0xeb, 
  0x47, 0x32, 0xb7, 0xe5, 0xf5, 0xdf, 0x3a, 0x57, 0xe1, 0xda, 0xe7, 0xa6, 
  0xdc, 0x04, 0xeb, 0xe8, 0x44, 0xb6, 0xc2, 0xd2, 0xf8, 0xe7, 0xf1, 0x28, 
  0x06, 0xac, 0x2e, 0x4b, 0xce, 0x11, 0x43, 0x4c, 0xcc, 0xdc, 0xff, 0x48, 
  0xec, 0x00, 0x15, 0xe7, 0x2c, 0x17, 0xdd, 0xfb, 0x1c, 0x03, 0xdd, 0x13, 
  0xde, 0x1e, 0xfa, 0xec, 0x27, 0x08, 0x00, 0x10, 0xf2, 0x35, 0xe6, 0x34, 
  0x0a, 0xaf, 0xcb, 0xfa, 0x40, 0x2f, 0xd9, 0xca, 0x06, 0xd1, 0x1f, 0xfa, 
  0xbb, 0x3c, 0x2d, 0xf5, 0x0a, 0xf7, 0x11, 0xfb, 0x2f, 0xc5, 0xe7, 0xd6, 
  0x1f, 0xc8, 0xca, 0x3f, 0x15, 0x25, 0x1d, 0xf3, 0xd1, 0xff, 0x60, 0x1a, 
  0xb0, 0xea, 0x34, 0xd3, 0x43, 0x2f, 0x11, 0x3d, 0xfc, 0xe5, 0x10, 0xe1, 
  0x10, 0x45, 0xe0, 0x38, 0xdf, 0x63, 0xb8, 0x1b, 0x0c, 0xf0, 0x48, 0x1a, 
  0x34, 0xd7, 0x09, 0x05, 0x0d, 0x08, 0xf1, 0x08, 0xd4, 0x04, 0xa8, 0xd9, 
  0x21, 0x49, 0x45, 0x1f, 0xe8, 0x35, 0x18, 0x3c, 0x03, 0xec, 0x0c, 0x46, 
  0x3e, 0xbb, 0x05, 0xe0, 0x12, 0x4d, 0xfd, 0xd9, 0xf5, 0x1e, 0xcf, 0xfd, 
  0xde, 0xe9, 0xd3, 0x3c, 0x17, 0xfc, 0xf8, 0xde, 0x12, 0xc0, 0xda, 0xd4, 
  0x34, 0x2d, 0xd8, 0xd6, 0xaf, 0xf3, 0x39, 0xdf, 0xc3, 0x04, 0x11, 0xf9, 
  0x06, 0x14, 0xe0, 0xb2, 0xd7, 0xcc, 0x4d, 0x27, 0x2a, 0xfe, 0x3b, 0x19, 
  0xec, 0x3c, 0xee, 0x2a, 0xd3, 0x0b, 0x4e, 0x36, 0xf4, 0x2c, 0xca, 0x3f, 
  0xf2, 0x14, 0x0f, 0xfd, 0xfb, 0x08, 0x30, 0x16, 0x00, 0xee, 0xc8, 0x0d, 
  0x07, 0xf7, 0xd7, 0x3a, 0xc5, 0xf2, 0x10, 0xd9, 0x02, 0x40, 0xd5, 0xf3, 
  0xf2, 0x15, 0xcd, 0xc2, 0xfc, 0xff, 0x3d, 0x0e, 0x14, 0xd6, 0x45, 0xe2, 
  0x3b, 0xc4, 0x2c, 0x19, 0xc1, 0xd3, 0x04, 0xe5, 0xe4, 0xba, 0xea, 0xd0, 
  0x0f, 0x20, 0x0b, 0x64, 0xcc, 0x1d, 0x3f, 0x2a, 0x24, 0x3d, 0xfe, 0xb6, 
  0x57, 0x02, 0xe0, 0xe6, 0xd5, 0xf8, 0x01, 0x2c, 0x1f, 0x26, 0xfd, 0x59, 
  0x2d, 0xfc, 0x3b, 0xf2, 0x41, 0xf2, 0x32, 0x39, 0x57, 0xff, 0x1c, 0xd7, 
  0x25, 0x04, 0xf8, 0xb7, 0xf2, 0x31, 0x08, 0x02, 0xec, 0xdd, 0x08, 0xcf, 
  0x3a, 0x46, 0xed, 0x27, 0x0d, 0xce, 0x2b, 0x1a, 0x12, 0xf6, 0xbb, 0x0e, 
  0xee, 0x0f, 0xb5, 0x11, 0xf0, 0x0a, 0x4a, 0x2a, 0xdb, 0xf8, 0x0c, 0x0a, 
  0x07, 0x34, 0x1e, 0x25, 0x12, 0x40, 0x4c, 0x2d, 0x21, 0x0e, 0xf7, 0xfb, 
  0x4c, 0x27, 0x14, 0x1d, 0x28, 0xa3, 0x1b, 0x30, 0x0c, 0x15, 0x28, 0x01, 
  0x0d, 0x3e, 0xd0, 0xfc, 0x28, 0xe7, 0xce, 0xd7, 0xe8, 0xe1, 0xeb, 0x34, 
  0x05, 0x11, 0xf9, 0xd6, 0x3f, 0x00, 0x37, 0x12, 0x4a, 0x29, 0x2a, 0xe9, 
  0xfb, 0x58, 0xd3, 0x24, 0x05, 0x5c, 0x30, 0xd3, 0x37, 0xd3, 0x1f, 0x09, 
  0x0d, 0xd8, 0xd7, 0xc8, 0x1d, 0x14, 0xfb, 0xc6, 0x14, 0xcb, 0xee, 0x0c, 
  0xfa, 0xcf, 0x15, 0xce, 0xf7, 0x3e, 0xec, 0x40, 0x3c, 0x13, 0x49, 0x0a, 
  0x28, 0xeb, 0xe8, 0xde, 0x25, 0xe2, 0xfe, 0xae, 0xfa, 0x22, 0x01, 0x17, 
  0x23, 0x0c, 0x10, 0x37, 0x12, 0xe4, 0xf1, 0x2d, 0xe3, 0x36, 0x24, 0xfc, 
  0x08, 0x03, 0x19, 0xd0, 0x1f, 0x03, 0x3b, 0xe3, 0x20, 0x42, 0xd3, 0xea, 
  0x06, 0xe2, 0x11, 0x2c, 0x1f, 0x15, 0xdd, 0x09, 0x30, 0x3b, 0xf6, 0x34, 
  0x4a, 0x04, 0x02, 0x13, 0xee, 0xcc, 0x18, 0xd9, 0x4c, 0x33, 0xce, 0xdc, 
  0x03, 0x4e, 0xf3, 0xcb, 0xf7, 0xf6, 0x28, 0xdb, 0x14, 0xfb, 0xba, 0xea, 
  0x3d, 0xee, 0xce, 0x0d, 0x42, 0x26, 0xd9, 0xdd, 0x19, 0xd4, 0x21, 0x19, 
  0x16, 0xeb, 0x33, 0x11, 0xfa, 0xf2, 0x3f, 0x11, 0x04, 0x10, 0xc6, 0x21, 
  0xce, 0xc2, 0xe5, 0x09, 0x3d, 0x1c, 0x06, 0x37, 0xe0, 0xe0, 0xf6, 0xd9, 
  0xed, 0x1a, 0x12, 0x30, 0x2b, 0xe0, 0xea, 0x10, 0xe9, 0x2a, 0xeb, 0x2c, 
  0xee, 0x47, 0xd2, 0x04, 0x19, 0x33, 0x1e, 0x05, 0x26, 0xe5, 0x5c, 0xe1, 
  0x13, 0x9c, 0x00, 0xf3, 0xeb, 0x04, 0x0f, 0x14, 0x0c, 0xd1, 0x3f, 0x2a, 
  0xdd, 0xd4, 0x20, 0x25, 0xb6, 0x33, 0xd7, 0x0f, 0xe5, 0x0c, 0xf0, 0x43, 
  0xaf, 0x02, 0xcc, 0x3c, 0xd8, 0x16, 0xce, 0xf2, 0x19, 0xe0, 0x20, 0x14, 
  0xd0, 0x13, 0xd4, 0x22, 0x2d, 0xde, 0x04, 0xeb, 0x1b, 0x14, 0x46, 0x10, 
  0x19, 0x3a, 0x18, 0x20, 0x31, 0x2a, 0x14, 0x45, 0xfd, 0xe2, 0xbd, 0xce, 
  0xd5, 0xdd, 0xc6, 0x1a, 0x1c, 0x3e, 0x19, 0x2d, 0xdc, 0xd5, 0xa8, 0x29, 
  0x11, 0xf0, 0xeb, 0x2d, 0xe0, 0xc7, 0xff, 0xef, 0x38, 0xd8, 0x30, 0x23, 
  0x38, 0xd8, 0x27, 0x21, 0xe2, 0x31, 0x20, 0x3d, 0xc3, 0x24, 0x1a, 0xf1, 
  0x1e, 0x17, 0x0b, 0xbd, 0xe7, 0x39, 0xb0, 0xde, 0xe6, 0xaa, 0xb4, 0xf4, 
  0x3d, 0x47, 0x1c, 0x41, 0xee, 0xa2, 0x0e, 0x26, 0xca, 0x0b, 0xd4, 0x3b, 
  0x21, 0xd3, 0xe3, 0x29, 0x19, 0x3f, 0xcd, 0x0d, 0xf4, 0x43, 0x1c, 0x0c, 
  0x1e, 0x36, 0x1b, 0x11, 0xee, 0xd9, 0xd3, 0x22, 0xbc, 0x2d, 0x27, 0xf4, 
  0xf8, 0xba, 0x2a, 0x25, 0xc7, 0x41, 0x23, 0x15, 0x03, 0xcc, 0x34, 0x34, 
  0xd2, 0xdc, 0xd6, 0xd2, 0xf7, 0xc2, 0x03, 0xe0, 0x0e, 0xe2, 0x04, 0x0f, 
  0x20, 0x0b, 0x47, 0x04, 0xe1, 0xef, 0x46, 0x18, 0xee, 0xe1, 0x14, 0x04, 
  0x1a, 0x01, 0x02, 0xcd, 0xf2, 0xd6, 0xd3, 0x02, 0xe5, 0x02, 0xc4, 0xd1, 
  0x24, 0x31, 0x34, 0xe7, 0xc0, 0x2f, 0xb7, 0x44, 0xc8, 0xfc, 0x22, 0x01, 
  0xc0, 0x08, 0x01, 0x51, 0xdf, 0x2b, 0x33, 0x02, 0x58, 0x1c, 0x55, 0x33, 
  0x02, 0x99, 0xfd, 0xdc, 0x23, 0xe4, 0x35, 0x0e, 0xc7, 0x1f, 0xec, 0x1d, 
  0x01, 0x1c, 0x36, 0xc6, 0x1f, 0x2e, 0x06, 0x4e, 0x12, 0x1c, 0x22, 0xfc, 
  0x10, 0x08, 0xfd, 0x32, 0xf9, 0xdd, 0xc5, 0x2c, 0x05, 0x1f, 0x07, 0xd5, 
  0xea, 0xc9, 0xeb, 0x45, 0x4f, 0x10, 0x26, 0x41, 0x0f, 0x3d, 0x0f, 0x49, 
  0x00, 0x59, 0xd5, 0x09, 0xd4, 0xb0, 0xd4, 0x46, 0xa9, 0x3b, 0xe6, 0xf6, 
  0x34, 0x32, 0x1f, 0x21, 0xbd, 0x15, 0xde, 0xdf, 0xfb, 0xda, 0x29, 0xee, 
  0x0a, 0xd2, 0x23, 0x07, 0x15, 0xcc, 0x2a, 0x43, 0xe1, 0xd7, 0xee, 0xe4, 
  0x10, 0xca, 0x4d, 0x4a, 0x77, 0xe4, 0x30, 0xef, 0x0a, 0x06, 0x39, 0x15, 
  0xed, 0x33, 0xf5, 0x06, 0xd7, 0xbb, 0x2f, 0x0a, 0xc1, 0xfd, 0x1c, 0x0d, 
  0x22, 0xcc, 0x18, 0x29, 0xe7, 0x02, 0x2b, 0x46, 0xf0, 0x27, 0x4f, 0x0e, 
  0xea, 0x21, 0x38, 0x27, 0x38, 0xf3, 0xf2, 0x02, 0xdf, 0xd9, 0xcf, 0x25, 
  0xed, 0xae, 0xd9, 0xd8, 0xd5, 0x00, 0xe9, 0x2f, 0xc5, 0x08, 0xf7, 0x0a, 
  0x51, 0xfb, 0xb2, 0xd9, 0x3a, 0x04, 0x1d, 0x4b, 0xc6, 0x1c, 0xe3, 0xd3, 
  0xf0, 0x2d, 0x36, 0x4d, 0x24, 0x36, 0x1a, 0x34, 0x32, 0xf0, 0xb4, 0x00, 
  0xe0, 0x12, 0x2e, 0xe1, 0xc6, 0x20, 0xf3, 0xc1, 0xb9, 0x23, 0x12, 0x0e, 
  0xb8, 0xdb, 0x24, 0xea, 0xbd, 0x04, 0x0c, 0x1f, 0xe3, 0x46, 0x11, 0x1c, 
  0x14, 0x11, 0xf0, 0x34, 0x27, 0x38, 0xdd, 0xe2, 0x22, 0xf2, 0x17, 0xe6, 
  0x26, 0x2a, 0x22, 0xfa, 0x15, 0x0d, 0xf0, 0xd1, 0x17, 0x0d, 0xb7, 0x0c, 
  0xd2, 0x08, 0x24, 0x21, 0xd9, 0x5f, 0x06, 0xcf, 0x08, 0xc1, 0xf0, 0xdf, 
  0xd7, 0x03, 0xdd, 0xd1, 0xf6, 0xff, 0xeb, 0x30, 0xce, 0x27, 0x0e, 0x35, 
  0xfa, 0xd5, 0xe1, 0x04, 0x18, 0xd9, 0x05, 0x6b, 0x4e, 0x2f, 0x23, 0x1d, 
  0x3a, 0x10, 0x2e, 0x38, 0xc5, 0xd1, 0xe6, 0x16, 0x30, 0xac, 0x19, 0xa3, 
  0xfa, 0x31, 0xdd, 0xd2, 0x1a, 0x16, 0x52, 0x3d, 0x1f, 0xe2, 0x16, 0x22, 
  0x29, 0xc0, 0x08, 0x9b, 0x27, 0xcc, 0x23, 0x38, 0xea, 0xdc, 0x28, 0x2a, 
  0xf9, 0xf5, 0x21, 0xee, 0xd3, 0xb3, 0x33, 0x15, 0xc2, 0xda, 0xe2, 0xb0, 
  0x49, 0xe0, 0x05, 0xc9, 0xeb, 0xf0, 0x23, 0x22, 0x01, 0xc6, 0x29, 0xd7, 
  0x31, 0xeb, 0x18, 0xf6, 0x22, 0xf1, 0x41, 0xee, 0xc5, 0xb9, 0x0f, 0x36, 
  0xea, 0x53, 0xe3, 0x09, 0xe1, 0xd9, 0xd2, 0xb2, 0x00, 0x05, 0x03, 0x03, 
  0x25, 0xec, 0xc9, 0x34, 0xde, 0xd6, 0xf4, 0x22, 0xd7, 0xe6, 0xf6, 0xda, 
  0x3b, 0xd8, 0xce, 0x0b, 0x25, 0x52, 0xb4, 0x4a, 0xec, 0xf2, 0xfd, 0x0a, 
  0x18, 0xcc, 0x0f, 0xdd, 0x26, 0xe1, 0xc3, 0xfe, 0xf8, 0xf6, 0xdf, 0x08, 
  0xbc, 0x39, 0xc4, 0x25, 0xfc, 0xcc, 0x10, 0xf9, 0xce, 0xf0, 0xbf, 0x19, 
  0xeb, 0xa2, 0xdc, 0xcf, 0xfd, 0x58, 0xfa, 0xc8, 0xc3, 0xcd, 0xe6, 0x42, 
  0xee, 0x00, 0x1d, 0x23, 0xfc, 0x08, 0x26, 0xbe, 0x3a, 0xeb, 0x2d, 0xff, 
  0xf6, 0xb0, 0xdd, 0x49, 0xee, 0xf9, 0x17, 0xf0, 0x05, 0xc5, 0x12, 0xda, 
  0xc2, 0x05, 0xc1, 0xdf, 0xe6, 0x27, 0xec, 0xe0, 0x33, 0x34, 0x12, 0x19, 
  0xf1, 0xd8, 0xed, 0xd0, 0x16, 0x18, 0x35, 0xd8, 0x63, 0x17, 0x00, 0xdc, 
  0x1d, 0x04, 0x1b, 0xbb, 0xc5, 0x0e, 0xad, 0xbb, 0xd4, 0x05, 0xe2, 0xc1, 
  0x0c, 0x0a, 0x10, 0x34, 0xe0, 0xf4, 0xed, 0xe0, 0x13, 0x36, 0xe7, 0x18, 
  0x1c, 0x19, 0xdb, 0x00, 0x52, 0xeb, 0x24, 0xd2, 0x06, 0x13, 0xf8, 0x22, 
  0x41, 0x35, 0x11, 0x11, 0xfd, 0x45, 0xd3, 0x01, 0xe6, 0x47, 0x30, 0x1c, 
  0x3c, 0xff, 0x26, 0x16, 0x52, 0xe3, 0x29, 0xcc, 0xfd, 0x2d, 0xc1, 0x11, 
  0xdd, 0x3d, 0x05, 0xe2, 0xfb, 0x31, 0xd2, 0x14, 0x09, 0xf9, 0x12, 0x32, 
  0x19, 0xd2, 0x07, 0x9c, 0xc1, 0x16, 0x1f, 0xf7, 0x4b, 0xf7, 0x1d, 0xdc, 
  0xee, 0xb9, 0xc5, 0xf2, 0xcd, 0x1e, 0x1a, 0xd8, 0x01, 0x04, 0xe2, 0xf6, 
  0xe1, 0xb9, 0xf1, 0xb2, 0x14, 0xe5, 0xba, 0x08, 0x23, 0xe9, 0x38, 0xdb, 
  0x19, 0xd8, 0xed, 0x29, 0x3e, 0xe6, 0x22, 0x54, 0x28, 0xf0, 0x25, 0xc2, 
  0x2b, 0x18, 0x11, 0xef, 0x1a, 0xcd, 0xd6, 0x23, 0x09, 0x29, 0xfe, 0x20, 
  0x1d, 0xcb, 0xc5, 0xd0, 0x2c, 0xb0, 0xdd, 0xfc, 0x0c, 0xe9, 0x14, 0x1e, 
  0x22, 0xf6, 0x3b, 0x59, 0xd7, 0xdc, 0xde, 0x23, 0xd0, 0x20, 0xf4, 0x19, 
  0xb2, 0xe2, 0x25, 0x3c, 0xca, 0x0a, 0x27, 0x46, 0x20, 0x06, 0xce, 0x92, 
  0xce, 0x33, 0x1e, 0xd7, 0x01, 0xe8, 0xcf, 0x2d, 0x00, 0x43, 0xc8, 0x02, 
  0x02, 0x32, 0x07, 0xe8, 0x14, 0x2d, 0xca, 0xd6, 0xf7, 0x19, 0x03, 0x1c, 
  0xfb, 0x05, 0x17, 0xd9, 0x2c, 0x21, 0xdc, 0x41, 0x39, 0x3a, 0x1a, 0xba, 
  0x17, 0x4c, 0x0e, 0xec, 0x5a, 0xe5, 0x09, 0xfe, 0xe4, 0x1f, 0xd1, 0x33, 
  0xe8, 0x39, 0xcf, 0xe2, 0xf9, 0xd4, 0xec, 0x13, 0x2d, 0x1d, 0xbb, 0x04, 
  0xf1, 0xdf, 0x24, 0x28, 0xf4, 0xc0, 0xc5, 0xef, 0xde, 0x1a, 0x40, 0xf0, 
  0xe5, 0x48, 0x42, 0x45, 0x24, 0x12, 0xb1, 0xe1, 0xf4, 0xdc, 0xf7, 0x0c, 
  0xea, 0xee, 0x1d, 0x20, 0xfa, 0xdb, 0x39, 0x42, 0x0a, 0xf8, 0x31, 0x24, 
  0xe7, 0x4a, 0xfc, 0xf4, 0x35, 0x01, 0xbf, 0xc8, 0xed, 0x0c, 0x2c, 0xd1, 
  0xf1, 0x11, 0x45, 0x27, 0x08, 0x02, 0x69, 0x1a, 0xd0, 0x0a, 0x1e, 0xcb, 
  0xc9, 0x13, 0xb4, 0x2c, 0xd9, 0x38, 0xe5, 0x7e, 0xc3, 0xe7, 0x02, 0x1d, 
  0x02, 0x48, 0xb6, 0xf5, 0x1d, 0x2d, 0xfb, 0xbb, 0xd1, 0x37, 0xe8, 0xe7, 
  0x00, 0xc5, 0xcc, 0x56, 0xc3, 0xd6, 0xe9, 0xd8, 0xf0, 0xb8, 0xc4, 0xdd, 
  0xba, 0x30, 0x06, 0x11, 0x26, 0x29, 0x00, 0x46, 0xd6, 0x38, 0xe2, 0x10, 
  0xb7, 0x20, 0x06, 0xd2, 0xed, 0xf4, 0xad, 0xda, 0xe3, 0xec, 0x14, 0xe4, 
  0xfb, 0x0b, 0x19, 0x12, 0xe5, 0xd0, 0x13, 0x31, 0x06, 0x2c, 0x09, 0xca, 
  0xda, 0xe1, 0xc9, 0x28, 0x0a, 0xd1, 0xce, 0x02, 0x09, 0xdf, 0xe8, 0xdf, 
  0xd5, 0xfb, 0xeb, 0xee, 0xe4, 0x17, 0xf4, 0xcf, 0xe0, 0x28, 0x0e, 0x0a, 
  0x2b, 0xfa, 0x25, 0x12, 0xc7, 0xed, 0xa9, 0xfc, 0x0f, 0x26, 0xbe, 0x07, 
  0x21, 0x49, 0x2d, 0xd1, 0xd3, 0xc2, 0xe4, 0x28, 0x11, 0x08, 0x2e, 0x0a, 
  0xc8, 0xfa, 0xf8, 0xf7, 0xa2, 0xbb, 0xe4, 0xcd, 0x08, 0xc9, 0x2b, 0xce, 
  0xe2, 0xfc, 0xfe, 0x46, 0xf4, 0x37, 0xd4, 0xbf, 0xcf, 0x00, 0xd1, 0xc8, 
  0x32, 0x23, 0x04, 0xd5, 0x06, 0x17, 0xfc, 0xfb, 0xf8, 0x13, 0x37, 0x1a, 
  0xba, 0x3a, 0x1c, 0x0a, 0x28, 0xf5, 0xbf, 0x0c, 0xb5, 0x0d, 0x02, 0xf5, 
  0x4f, 0x44, 0xed, 0xf0, 0xbe, 0x1f, 0x29, 0xe0, 0x36, 0x45, 0xc2, 0xdd, 
  0xe2, 0x14, 0x2b, 0xc0, 0x1a, 0x2f, 0x2d, 0x26, 0x3d, 0x0f, 0xf3, 0x1a, 
  0xcb, 0xc7, 0x1a, 0xe3, 0x1e, 0xa9, 0xd2, 0xdb, 0xe1, 0xe2, 0xbf, 0x0f, 
  0xe6, 0x08, 0xd0, 0x00, 0x1b, 0x0b, 0xf0, 0xbb, 0x29, 0xf0, 0xed, 0x00, 
  0xde, 0xbc, 0x32, 0xe8, 0x39, 0xe2, 0x19, 0x1f, 0xb1, 0x08, 0xdd, 0xed, 
  0xd9, 0xea, 0xba, 0x14, 0xdf, 0xe3, 0x1d, 0x23, 0x18, 0x05, 0x15, 0x58, 
  0x36, 0x15, 0xd3, 0x13, 0x11, 0xb4, 0x52, 0xfc, 0x39, 0x3e, 0x44, 0x33, 
  0x36, 0x0e, 0xd5, 0x23, 0xc6, 0x44, 0xe1, 0x3b, 0xfb, 0xa8, 0xec, 0xed, 
  0x2c, 0x26, 0xf3, 0xd5, 0xcb, 0x19, 0xf5, 0x22, 0xd1, 0x2a, 0x34, 0x0d, 
  0x00, 0xe5, 0x24, 0xfe, 0xf6, 0x28, 0x07, 0xff, 0x13, 0x02, 0x24, 0xf9, 
  0x25, 0x1c, 0x14, 0x18, 0x10, 0xdc, 0x00, 0x1e, 0xfc, 0xc9, 0xef, 0x16, 
  0xec, 0x36, 0x23, 0xe5, 0x48, 0xe4, 0x38, 0x28, 0x0b, 0x30, 0xb0, 0xe1, 
  0xfb, 0xc2, 0x15, 0xba, 0xd2, 0x35, 0x4a, 0x05, 0xe6, 0x2c, 0x26, 0xd3, 
  0x1e, 0x07, 0x19, 0x05, 0x17, 0xd1, 0xf0, 0x16, 0xf1, 0xe2, 0x2a, 0x39, 
  0x23, 0xe3, 0x17, 0x27, 0x30, 0x16, 0x1d, 0xde, 0x26, 0xe8, 0x10, 0x03, 
  0xcc, 0xde, 0x0b, 0x3a, 0x05, 0xc0, 0x4c, 0x23, 0xc1, 0xd7, 0x45, 0x1e, 
  0xda, 0x0a, 0x0f, 0xdf, 0x1e, 0xda, 0xc4, 0xed, 0x02, 0x32, 0xde, 0xe2, 
  0xcf, 0xb9, 0x24, 0xd9, 0xd8, 0x10, 0x40, 0x26, 0xce, 0x27, 0x32, 0x29, 
  0xc7, 0x22, 0x3d, 0xda, 0x19, 0xb7, 0xcb, 0xff, 0x28, 0x0e, 0xcf, 0xef, 
  0x2f, 0x06, 0xbe, 0x24, 0x33, 0xd5, 0x34, 0x05, 0x42, 0x19, 0x09, 0x13, 
  0x1c, 0x2b, 0xde, 0xd0, 0x1f, 0x26, 0xfe, 0xe0, 0x39, 0xdf, 0xf4, 0xdc, 
  0xf7, 0x42, 0x34, 0x1c, 0x3f, 0x02, 0xd9, 0xf4, 0x53, 0x2b, 0xe3, 0xf1, 
  0x0e, 0xcc, 0xea, 0xd6, 0x34, 0xfc, 0xd7, 0x52, 0x24, 0xe6, 0x0d, 0xce, 
  0xe2, 0xb8, 0x2b, 0x36, 0x27, 0x0f, 0xb0, 0x0e, 0x13, 0x41, 0x39, 0x3b, 
  0xfd, 0x04, 0x1a, 0x11, 0xf0, 0xb5, 0x31, 0x07, 0x42, 0xf9, 0xe4, 0x41, 
  0xea, 0xfc, 0xee, 0x32, 0xf4, 0xbb, 0xc7, 0x14, 0xa7, 0xe5, 0xcd, 0x3f, 
  0x1f, 0xdf, 0x2e, 0x31, 0xf2, 0xf2, 0x1c, 0xbe, 0xe6, 0xc3, 0x37, 0xf5, 
  0x30, 0xea, 0x24, 0x2c, 0x10, 0x2b, 0x25, 0xb9, 0xda, 0x20, 0x10, 0x38, 
  0x16, 0xef, 0xa1, 0xc7, 0xce, 0x1b, 0xdf, 0x0d, 0xe0, 0x2e, 0xd6, 0x06, 
  0xe9, 0xc5, 0x3f, 0x0b, 0xd3, 0x21, 0x23, 0xa1, 0xd0, 0xf3, 0xe0, 0x51, 
  0x10, 0x1c, 0xc1, 0x4b, 0x00, 0xd7, 0xe2, 0x1d, 0xee, 0x1d, 0x1d, 0xe6, 
  0x2b, 0x46, 0xe4, 0xf9, 0x13, 0x5c, 0xcc, 0xf1, 0x0d, 0xd6, 0x14, 0x01, 
  0xd2, 0xaa, 0x33, 0xea, 0xab, 0xc3, 0x1f, 0x34, 0x27, 0x28, 0xc3, 0xef, 
  0xd6, 0xe9, 0x3e, 0xf0, 0xeb, 0x19, 0x1c, 0xd4, 0x2c, 0xe7, 0xed, 0xa7, 
  0x0c, 0x07, 0xc6, 0xb6, 0xd2, 0xf2, 0x4f, 0x3d, 0x0f, 0x07, 0x07, 0x37, 
  0xfc, 0x1e, 0x13, 0x0e, 0x2d, 0xdf, 0x2b, 0xca, 0xfa, 0x0a, 0x66, 0xde, 
  0xca, 0x30, 0xe1, 0x1b, 0x10, 0xf2, 0x14, 0x15, 0x18, 0xd2, 0x1e, 0xe8, 
  0x44, 0xd4, 0x31, 0x30, 0x08, 0xc7, 0x43, 0x56, 0x21, 0xf0, 0xea, 0xfc, 
  0xfb, 0x3d, 0x3a, 0xe5, 0x33, 0xda, 0xff, 0xd9, 0x43, 0x3a, 0xf8, 0x0d, 
  0xb8, 0xfa, 0x45, 0x25, 0x13, 0xbb, 0x31, 0xe2, 0xd9, 0xbb, 0x06, 0xdc, 
  0x1d, 0xe9, 0x2a, 0xed, 0xe3, 0x3f, 0x40, 0x16, 0xc9, 0x36, 0xef, 0x0d, 
  0xe4, 0xdf, 0xcd, 0x20, 0x42, 0x26, 0x0c, 0x10, 0x27, 0x14, 0x13, 0xd1, 
  0x27, 0xf2, 0xdf, 0x26, 0xf3, 0xe7, 0xf4, 0xf1, 0x50, 0xa7, 0x03, 0xf6, 
  0xea, 0xf6, 0xf6, 0xf1, 0xe6, 0x3c, 0xb2, 0xe8, 0xff, 0x39, 0x3a, 0xb6, 
  0x37, 0x2e, 0x10, 0x30, 0x2a, 0xcc, 0xd5, 0x24, 0x02, 0x09, 0xe0, 0x0e, 
  0xb5, 0x03, 0xca, 0xff, 0x2c, 0xfb, 0xc0, 0xce, 0x1d, 0xeb, 0x1b, 0xdd, 
  0x0d, 0x12, 0xd3, 0xbb, 0xd5, 0xd8, 0x0b, 0x1d, 0x09, 0x41, 0x19, 0xf9, 
  0x41, 0xdb, 0x26, 0xd3, 0xdf, 0xf9, 0xf1, 0x0d, 0x23, 0x37, 0x19, 0x05, 
  0xdb, 0x16, 0xe9, 0x25, 0xd8, 0x19, 0x3d, 0x1d, 0xdd, 0x15, 0x1d, 0xee, 
  0xc9, 0x3f, 0xf5, 0xda, 0xf6, 0xec, 0x04, 0x0c, 0xd2, 0xeb, 0x36, 0xfe, 
  0xe1, 0x27, 0xfe, 0x27, 0x03, 0x30, 0x14, 0x14, 0x19, 0x30, 0xe4, 0x09, 
  0x23, 0xbc, 0xfa, 0xef, 0xeb, 0xf9, 0x37, 0x09, 0xcd, 0x07, 0x16, 0xcc, 
  0xe2, 0x00, 0x09, 0xf9, 0xcf, 0xd7, 0x23, 0xea, 0x39, 0x30, 0xc6, 0xea, 
  0xe8, 0xf8, 0xb1, 0xf3, 0x49, 0x1d, 0x04, 0x15, 0x26, 0xe4, 0xcc, 0xa8, 
  0xf6, 0xd8, 0x9b, 0x21, 0x1d, 0x25, 0x3a, 0xbb, 0x18, 0x29, 0x00, 0x19, 
  0x3b, 0x31, 0xb7, 0x00, 0xc6, 0x27, 0x00, 0xfd, 0xb4, 0xe8, 0x05, 0xdc, 
  0x37, 0x2a, 0xb8, 0xe2, 0x1f, 0x08, 0xb2, 0xbb, 0x03, 0xd6, 0xdd, 0x11, 
  0x11, 0xe0, 0xe7, 0xee, 0xec, 0x21, 0xd8, 0xd6, 0xc1, 0x43, 0xfe, 0x1f, 
  0xd1, 0xd7, 0x25, 0xd8, 0xbe, 0x05, 0xdd, 0x15, 0x46, 0x4d, 0xee, 0xe8, 
  0x3c, 0x1a, 0x0b, 0x54, 0x13, 0xcd, 0xd2, 0x0c, 0xc9, 0x1c, 0x2f, 0x09, 
  0xe0, 0xc3, 0x40, 0x24, 0xc1, 0x20, 0x36, 0x0f, 0xdf, 0x09, 0xf1, 0xeb, 
  0x03, 0xf6, 0xee, 0xbf, 0xcc, 0xf0, 0xfe, 0x12, 0xdf, 0x35, 0x15, 0x14, 
  0xe8, 0xe2, 0x05, 0x15, 0xe6, 0xdd, 0xe5, 0xc9, 0xe7, 0x2d, 0xe7, 0x11, 
  0xfe, 0xcd, 0xf2, 0xe8, 0xf5, 0x0b, 0x3e, 0x27, 0xd4, 0xa4, 0xce, 0x04, 
  0x31, 0x6d, 0xdd, 0xee, 0x39, 0x06, 0xf2, 0xd6, 0x0d, 0x3c, 0xf1, 0xf0, 
  0x24, 0xc2, 0x2a, 0x1c, 0xb0, 0xc8, 0x29, 0x07, 0xeb, 0x45, 0xf0, 0xe3, 
  0x31, 0xda, 0xee, 0x3b, 0xed, 0x04, 0x2a, 0xf8, 0x0b, 0x21, 0x06, 0x41, 
  0xe5, 0xda, 0xf4, 0xb4, 0xf9, 0xd8, 0x03, 0xf4, 0xfa, 0xe4, 0x41, 0xd5, 
  0x01, 0xef, 0xe3, 0xf0, 0x1a, 0xcf, 0xca, 0xeb, 0xf6, 0xd8, 0xbe, 0x1c, 
  0xba, 0x0d, 0xb2, 0xeb, 0x1d, 0x3a, 0xc9, 0xe2, 0xdf, 0xca, 0x18, 0xc5, 
  0x0f, 0xda, 0xd2, 0xef, 0xe0, 0xf6, 0x12, 0xf0, 0x3d, 0xfa, 0x48, 0x2a, 
  0x2d, 0xd6, 0x23, 0x2c, 0x3d, 0x45, 0xe8, 0x34, 0x2e, 0x4c, 0x2d, 0x37, 
  0xff, 0xab, 0x2d, 0x1e, 0xfb, 0xfe, 0xc7, 0xf7, 0x04, 0xee, 0xdd, 0x24, 
  0x02, 0x40, 0x2c, 0xc9, 0xc6, 0xd3, 0xfc, 0xe9, 0x36, 0x58, 0x16, 0x36, 
  0x4e, 0x20, 0xd5, 0xed, 0x34, 0x02, 0x29, 0x2c, 0x44, 0x44, 0x1c, 0xcd, 
  0xfb, 0xea, 0x1f, 0xc9, 0x26, 0xd3, 0x99, 0xd1, 0x30, 0xe0, 0x56, 0x49, 
  0x0e, 0x43, 0x4c, 0x2a, 0xfc, 0x2b, 0xf6, 0xe7, 0x10, 0xf0, 0xc0, 0x45, 
  0x0b, 0x07, 0x27, 0x3f, 0xf5, 0xf2, 0xf0, 0xd4, 0x45, 0xb3, 0x14, 0x2a, 
  0x29, 0x44, 0x34, 0xcb, 0xe7, 0x28, 0xf9, 0x1d, 0x10, 0xee, 0x0e, 0xf8, 
  0xfe, 0xf8, 0x2f, 0x26, 0x38, 0x0b, 0x38, 0xf8, 0xce, 0x13, 0xe2, 0xe7, 
  0x0d, 0xd0, 0x1f, 0x1f, 0x2e, 0x14, 0xff, 0xf0, 0xd8, 0xd6, 0xfb, 0x02, 
  0xe9, 0xf9, 0x20, 0xe3, 0xf2, 0xe4, 0x31, 0xf1, 0xc3, 0xe8, 0xe3, 0xf9, 
  0xe6, 0x24, 0x03, 0xe3, 0x2c, 0xee, 0xc3, 0xe4, 0xec, 0xb6, 0xc8, 0x3e, 
  0x28, 0xf8, 0x19, 0x25, 0xdf, 0x0f, 0xd9, 0x01, 0xe7, 0x15, 0xf2, 0x4a, 
  0x36, 0xf7, 0xc5, 0x42, 0xc0, 0x48, 0xe6, 0x31, 0xda, 0xd9, 0x3b, 0x33, 
  0xc3, 0x08, 0x00, 0x14, 0x27, 0xce, 0x1f, 0x33, 0x46, 0xc3, 0xb3, 0xdf, 
  0x3e, 0x08, 0x38, 0x14, 0xfd, 0x04, 0xc2, 0x2e, 0xf0, 0x10, 0x18, 0xaf, 
  0x0a, 0x0f, 0x27, 0x3b, 0xe1, 0x14, 0x23, 0xe1, 0x1c, 0x42, 0x3d, 0x57, 
  0x04, 0x1c, 0xc8, 0x2b, 0xd3, 0x2d, 0x0b, 0x17, 0xfd, 0x26, 0x4c, 0xf7, 
  0xde, 0x1a, 0x0a, 0xbe, 0x02, 0x0e, 0x31, 0xf1, 0x1b, 0xc7, 0xfc, 0x0c, 
  0x21, 0xd2, 0x14, 0x51, 0x0d, 0xe3, 0xe3, 0x02, 0x1f, 0x09, 0x02, 0xe4, 
  0x03, 0xd3, 0x12, 0xc7, 0xef, 0xd9, 0x08, 0x33, 0xd1, 0x0e, 0x07, 0x13, 
  0x16, 0x1b, 0x1d, 0x0b, 0xed, 0x31, 0xd2, 0x17, 0xde, 0x23, 0x15, 0xfb, 
  0xd4, 0xd9, 0xb2, 0xc6, 0x06, 0x1f, 0xeb, 0xd7, 0xe6, 0xf2, 0xe5, 0xeb, 
  0x08, 0xef, 0xc3, 0xdd, 0x25, 0xdf, 0x2e, 0xe8, 0x09, 0xc0, 0xd6, 0x32, 
  0x26, 0x1d, 0x1d, 0x30, 0x10, 0x1a, 0x37, 0x2c, 0x0a, 0xa4, 0x4a, 0x4a, 
  0x18, 0xea, 0x47, 0xbb, 0x0c, 0xf1, 0xca, 0x43, 0x05, 0x06, 0xab, 0x30, 
  0x36, 0xff, 0x23, 0x07, 0x27, 0xe8, 0x3d, 0x27, 0xfc, 0x23, 0x13, 0x08, 
  0x39, 0x32, 0x24, 0xe0, 0x13, 0xaa, 0xcb, 0xdf, 0x28, 0xc1, 0x14, 0xea, 
  0xec, 0xc0, 0xfe, 0xf8, 0x39, 0xef, 0x3a, 0x4d, 0x2f, 0xe3, 0xe6, 0xf7, 
  0x00, 0xcd, 0xec, 0x14, 0xa3, 0x07, 0x0b, 0x29, 0xfe, 0x11, 0x14, 0x44, 
  0x2b, 0x17, 0xfc, 0x21, 0xd4, 0x12, 0x34, 0xdd, 0x04, 0xc9, 0x4d, 0xe6, 
  0xf8, 0xd8, 0x23, 0x07, 0x33, 0x0b, 0x3d, 0xee, 0xb9, 0x47, 0xf4, 0x1f, 
  0xe1, 0x1e, 0xf6, 0xd7, 0xe6, 0xff, 0x3a, 0x34, 0x41, 0x13, 0x0c, 0x89, 
  0x16, 0x02, 0xcd, 0xba, 0x0b, 0xf6, 0xfc, 0x3f, 0x0b, 0xc0, 0x21, 0x1a, 
  0x2a, 0x20, 0x1f, 0x31, 0xdb, 0x11, 0x01, 0x47, 0xe8, 0xda, 0xe4, 0xd4, 
  0x18, 0x09, 0x39, 0xf4, 0x39, 0xee, 0xfe, 0x33, 0xda, 0xf7, 0x20, 0xe2, 
  0xcc, 0xea, 0xcc, 0xff, 0x43, 0xd7, 0xb9, 0x0f, 0x25, 0xd4, 0x3f, 0x54, 
  0x15, 0xda, 0x0b, 0xdb, 0xcd, 0x14, 0x30, 0x24, 0xc0, 0xd9, 0x06, 0xcc, 
  0xe5, 0x2b, 0xe0, 0x4a, 0x0e, 0x12, 0x09, 0x27, 0x03, 0xd2, 0x17, 0x23, 
  0x14, 0x26, 0x28, 0x32, 0xd8, 0xe2, 0x1a, 0xde, 0xef, 0x06, 0xde, 0xec, 
  0xe7, 0xba, 0x03, 0x32, 0x17, 0xe6, 0x34, 0xe1, 0xbf, 0x09, 0x08, 0xdc, 
  0x2f, 0x06, 0x2a, 0xe1, 0xe6, 0x08, 0x02, 0xc6, 0x2f, 0xde, 0xc9, 0x1c, 
  0xff, 0xea, 0xde, 0xd6, 0xd0, 0x59, 0x4d, 0xec, 0xaf, 0x2a, 0x1c, 0x20, 
  0xde, 0x13, 0xe6, 0xe3, 0x15, 0x15, 0xcc, 0x3e, 0xf7, 0xd6, 0xfb, 0xb6, 
  0xce, 0xfd, 0xda, 0xde, 0x1e, 0x0d, 0xdd, 0x12, 0xe5, 0x1f, 0xef, 0x15, 
  0xf8, 0xfc, 0xd3, 0x43, 0x0d, 0xed, 0xd8, 0x1c, 0xdc, 0xdf, 0xcd, 0xf4, 
  0x05, 0xa9, 0x30, 0xfb, 0xff, 0xf1, 0xd1, 0x12, 0x02, 0x12, 0xee, 0x20, 
  0x37, 0x38, 0x62, 0x0c, 0x16, 0xca, 0xd4, 0x5a, 0x06, 0xd7, 0x19, 0xb8, 
  0x09, 0xe4, 0x31, 0x28, 0x19, 0x01, 0x2f, 0x26, 0x22, 0xf7, 0xf5, 0x00, 
  0xd8, 0xea, 0x2d, 0xf9, 0x4a, 0x05, 0x21, 0x73, 0xfa, 0x28, 0x29, 0xf1, 
  0xbe, 0x7c, 0xeb, 0x20, 0x20, 0xcd, 0x30, 0x28, 0xeb, 0x15, 0x2f, 0x10, 
  0x0a, 0x23, 0xf0, 0x24, 0xb8, 0xfd, 0x0c, 0xc8, 0xd7, 0xe2, 0x2d, 0xf3, 
  0xfd, 0xdb, 0xf9, 0x96, 0x00, 0xc0, 0x14, 0xf4, 0x21, 0x16, 0x9e, 0xeb, 
  0xba, 0xcb, 0x26, 0x1a, 0x46, 0x15, 0x12, 0x24, 0x2c, 0xea, 0x0e, 0xb6, 
  0xcb, 0xfb, 0xe0, 0xf9, 0xfa, 0xd0, 0xed, 0xc4, 0xd8, 0x13, 0xeb, 0x28, 
  0x31, 0xca, 0xc4, 0xff, 0xe0, 0x3a, 0x02, 0xb8, 0x31, 0xac, 0x06, 0x45, 
  0xda, 0xcd, 0xe2, 0xc2, 0xca, 0xe5, 0xe5, 0x10, 0x39, 0x05, 0x0e, 0x48, 
  0x1b, 0xc7, 0xf6, 0x4f, 0xd4, 0xe0, 0x0a, 0xdc, 0xec, 0x28, 0xe9, 0xb1, 
  0xcc, 0xfe, 0xd8, 0xc0, 0xa9, 0x40, 0x19, 0xfc, 0xf6, 0xbc, 0x2a, 0x38, 
  0xc4, 0xda, 0xf3, 0x2f, 0xc9, 0xb7, 0xeb, 0xcd, 0x17, 0xe3, 0x14, 0x1b, 
  0x2d, 0xeb, 0x17, 0x03, 0x01, 0xb5, 0x00, 0xe6, 0x07, 0xcf, 0x03, 0xe5, 
  0xe4, 0x2e, 0xdd, 0xc5, 0x22, 0x09, 0xdd, 0xeb, 0x21, 0x0a, 0xfa, 0xe9, 
  0xb9, 0x32, 0x21, 0xbb, 0x6d, 0xb8, 0xd1, 0x22, 0x1a, 0xed, 0x04, 0x03, 
  0xd7, 0xed, 0x42, 0xe9, 0xf0, 0xe4, 0x01, 0xe5, 0x2e, 0xf8, 0xcb, 0xf0, 
  0x46, 0xd0, 0x22, 0xcd, 0xca, 0xf0, 0xec, 0xef, 0xc4, 0x05, 0x0b, 0xf3, 
  0xe1, 0x10, 0xda, 0x10, 0xf1, 0xf2, 0x33, 0xcc, 0x31, 0x26, 0xdf, 0xcd, 
  0xbb, 0x1d, 0xd6, 0x3a, 0x3c, 0x33, 0xf8, 0xe2, 0x13, 0xc6, 0x3d, 0xc8, 
  0x0a, 0xdb, 0x33, 0xce, 0xdd, 0xf4, 0x0a, 0x1a, 0x2a, 0x0d, 0xe3, 0xf1, 
  0xfc, 0x24, 0xc3, 0x40, 0x10, 0xc5, 0x9a, 0x00, 0x21, 0x0e, 0xc3, 0xde, 
  0x22, 0x1c, 0x09, 0x3d, 0xdd, 0x19, 0x1a, 0xd8, 0x12, 0x04, 0xf8, 0x1a, 
  0x1c, 0x29, 0xc1, 0xbc, 0xed, 0x1d, 0xc3, 0x28, 0xd5, 0x0a, 0x30, 0x08, 
  0xca, 0xed, 0xde, 0x1a, 0xd0, 0xe5, 0x15, 0x0e, 0xf6, 0x26, 0x0b, 0x2a, 
  0xff, 0x51, 0xe5, 0x10, 0xd4, 0x13, 0xdb, 0xda, 0x22, 0x08, 0xe2, 0xeb, 
  0xcf, 0xd6, 0x1d, 0xb7, 0xc6, 0xf9, 0x0c, 0x27, 0x17, 0xe2, 0x0c, 0xe4, 
  0x2f, 0x1f, 0x54, 0x10, 0x07, 0xbe, 0xf2, 0x0a, 0xe1, 0xf2, 0xd5, 0xeb, 
  0xe2, 0x00, 0x15, 0x37, 0x21, 0x48, 0x0b, 0xfd, 0x07, 0x1d, 0x18, 0x24, 
  0x0b, 0x16, 0xd6, 0xfc, 0x3a, 0x3f, 0x24, 0x32, 0x19, 0xd5, 0xf8, 0x3c, 
  0x12, 0xf6, 0xdb, 0xed, 0x0f, 0x0c, 0x2a, 0x26, 0x00, 0x06, 0xe7, 0xbd, 
  0x36, 0x38, 0x1e, 0x17, 0x12, 0x19, 0xea, 0xd0, 0xec, 0xf8, 0xfb, 0x46, 
  0x1e, 0xf6, 0xb2, 0xcc, 0x21, 0x0a, 0x35, 0xb7, 0x00, 0xcd, 0x1a, 0x14, 
  0x44, 0x52, 0x0a, 0xd8, 0xe1, 0xf7, 0xf4, 0xfb, 0xff, 0xaf, 0x1f, 0x02, 
  0xca, 0xf5, 0xec, 0x23, 0x28, 0x0c, 0x22, 0xf1, 0x59, 0xd7, 0xd3, 0xb9, 
  0x1d, 0x05, 0x2d, 0xd7, 0xdf, 0xb9, 0xe9, 0xee, 0xed, 0x28, 0x27, 0xf1, 
  0xb6, 0xec, 0xe9, 0x0c, 0x2e, 0x08, 0x1d, 0xf7, 0x0a, 0x18, 0x2f, 0xc6, 
  0x06, 0x05, 0x47, 0xe7, 0xc8, 0xc1, 0x06, 0x2d, 0xe4, 0xe7, 0xf5, 0xf1, 
  0x2c, 0x17, 0x38, 0xff, 0x2e, 0x04, 0x32, 0xc5, 0xc3, 0x25, 0xf8, 0xbe, 
  0xd7, 0x24, 0x16, 0xc0, 0x0d, 0xf0, 0x07, 0xee, 0x3c, 0xde, 0xda, 0xcf, 
  0x32, 0xe8, 0xeb, 0xf5, 0xd2, 0xb2, 0xc3, 0xfe, 0xe8, 0xea, 0xf0, 0xea, 
  0x01, 0x1b, 0x0a, 0xc0, 0xf2, 0x03, 0xce, 0xec, 0x27, 0x1d, 0xd4, 0xfa, 
  0xe9, 0x08, 0x15, 0x2e, 0xdb, 0xe7, 0xd1, 0x2e, 0xfa, 0x42, 0xb8, 0x26, 
  0x12, 0xca, 0x4f, 0x3a, 0x5b, 0xe6, 0xe8, 0x1e, 0x43, 0x16, 0x2c, 0xfd, 
  0x06, 0xf5, 0xab, 0x41, 0xf9, 0xf3, 0x0e, 0x2b, 0x34, 0xf9, 0xf4, 0x2b, 
  0x1a, 0x04, 0x16, 0x1b, 0xbe, 0xce, 0xd2, 0xc1, 0xee, 0x24, 0x38, 0x1f, 
  0x13, 0x05, 0x0b, 0xf9, 0x06, 0x4c, 0xc8, 0xc6, 0xfc, 0xeb, 0x08, 0x2c, 
  0x07, 0x0e, 0xb2, 0x5a, 0x02, 0xe8, 0x03, 0x18, 0x1e, 0x00, 0xef, 0x57, 
  0x01, 0x17, 0xd7, 0xf7, 0xc4, 0x1e, 0x1c, 0x2f, 0xf3, 0xd0, 0xe3, 0x47, 
  0xe8, 0xdf, 0xee, 0xeb, 0xb0, 0xbd, 0x0e, 0xd5, 0x33, 0xec, 0xaf, 0xb4, 
  0x20, 0x25, 0xca, 0xdc, 0x3e, 0xe1, 0x0b, 0x11, 0x25, 0xf3, 0xcc, 0xf7, 
  0xd1, 0xb9, 0x24, 0xfe, 0xd7, 0x17, 0x02, 0x2b, 0x31, 0xed, 0x22, 0x0c, 
  0x45, 0xd3, 0x28, 0x1d, 0xfe, 0xeb, 0x04, 0xda, 0xe9, 0x07, 0xe6, 0x06, 
  0x31, 0xd6, 0xcc, 0xcc, 0xec, 0xed, 0x38, 0xd2, 0x1b, 0x09, 0xfa, 0x32, 
  0xe4, 0x21, 0x17, 0x2d, 0xf5, 0x59, 0x1e, 0x19, 0xd4, 0x33, 0xd8, 0xf2, 
  0x0f, 0x0f, 0x39, 0xdd, 0xec, 0x43, 0xe1, 0x09, 0x5f, 0x0d, 0x27, 0x02, 
  0x08, 0xde, 0x33, 0x11, 0x2c, 0x1e, 0x0c, 0x17, 0xeb, 0xdd, 0x18, 0x46, 
  0x13, 0xf0, 0xee, 0xde, 0xc5, 0x07, 0x14, 0x3e, 0xc3, 0x2c, 0x34, 0x49, 
  0x2a, 0x0e, 0x11, 0xd3, 0x19, 0xef, 0xcf, 0x09, 0xeb, 0xf5, 0xea, 0x34, 
  0x06, 0xcd, 0x4c, 0x04, 0xe4, 0x0a, 0xe1, 0x04, 0xa8, 0xf5, 0x23, 0x21, 
  0x3c, 0x5b, 0xbf, 0x32, 0x25, 0x1c, 0xc4, 0xf9, 0x21, 0x0f, 0x11, 0x1a, 
  0xfa, 0xf1, 0xfc, 0xe9, 0x4e, 0x22, 0x2f, 0xad, 0xea, 0x25, 0x0a, 0xe0, 
  0xda, 0xdc, 0x13, 0x41, 0x1d, 0xc0, 0xf2, 0xff, 0x36, 0xe1, 0x1d, 0x36, 
  0x1a, 0x3e, 0x31, 0xf0, 0x3b, 0xf5, 0xbe, 0x39, 0x1d, 0x45, 0x1c, 0xd9, 
  0xd9, 0xd6, 0x6b, 0xfa, 0x13, 0xa9, 0x3d, 0xec, 0x1a, 0x17, 0xed, 0xaf, 
  0xfc, 0xc8, 0xd1, 0xe7, 0xe0, 0xe6, 0xef, 0xd8, 0x16, 0xb6, 0x08, 0xfa, 
  0xca, 0x1e, 0x08, 0xf2, 0xed, 0x42, 0xfa, 0xdc, 0xf0, 0xe8, 0xd6, 0xda, 
  0xed, 0x34, 0xa8, 0x11, 0xdb, 0xc7, 0xbf, 0xf8, 0xf0, 0x00, 0xf4, 0x03, 
  0x04, 0xe8, 0x14, 0xfc, 0x29, 0x18, 0xd0, 0xd3, 0xf8, 0xcd, 0xd1, 0xff, 
  0xd8, 0xda, 0xce, 0x48, 0x32, 0xed, 0x0d, 0xdb, 0xa9, 0x16, 0x44, 0x07, 
  0xe7, 0x2a, 0xd8, 0xe7, 0xc5, 0xe4, 0x13, 0x02, 0xcd, 0x21, 0x11, 0xf3, 
  0x20, 0xda, 0x49, 0x16, 0xdb, 0xd3, 0xd8, 0xe4, 0x00, 0x00, 0x27, 0x2c, 
  0xd8, 0x43, 0xdd, 0x21, 0xcd, 0x52, 0xed, 0xe3, 0x10, 0xea, 0x26, 0xef, 
  0xf5, 0x25, 0xd5, 0xd4, 0x19, 0x2f, 0x45, 0xef, 0x1d, 0xd4, 0x50, 0x2a, 
  0x3b, 0xea, 0x13, 0xfa, 0x37, 0xa3, 0x4d, 0xdf, 0x1d, 0x0a, 0xf3, 0xf1, 
  0xf6, 0xa3, 0xe4, 0x22, 0x0d, 0xc0, 0x19, 0xde, 0xf7, 0x22, 0x20, 0xd8, 
  0x12, 0x15, 0x33, 0xec, 0x08, 0x19, 0x15, 0xf1, 0xe8, 0x09, 0x2f, 0x19, 
  0xec, 0xf0, 0xfe, 0x5d, 0x39, 0xfc, 0x2f, 0xd1, 0x2e, 0x4a, 0x06, 0xe6, 
  0x19, 0x1f, 0x22, 0x0c, 0xca, 0xf9, 0xf3, 0x27, 0x3f, 0xec, 0xe1, 0x23, 
  0xf3, 0xe7, 0x25, 0xdf, 0xf3, 0x30, 0xf5, 0x2f, 0x22, 0xf0, 0xe6, 0x49, 
  0xdd, 0x12, 0xbf, 0x0e, 0xd6, 0x38, 0x38, 0xf5, 0xe1, 0xc9, 0xf1, 0xdd, 
  0xf8, 0x36, 0xe2, 0x28, 0xeb, 0x60, 0xcb, 0xdd, 0x45, 0x13, 0x18, 0x36, 
  0x16, 0x0b, 0xde, 0x2c, 0x05, 0x55, 0xff, 0x34, 0xea, 0xe0, 0x30, 0xad, 
  0x35, 0x02, 0xd9, 0x2c, 0x02, 0xca, 0xe9, 0xff, 0x07, 0xc0, 0xd6, 0x2c, 
  0xc4, 0x6a, 0xf8, 0xf2, 0x2c, 0xf4, 0xe4, 0xdf, 0xf2, 0xaa, 0xee, 0xba, 
  0xcf, 0xd4, 0x54, 0xda, 0xf1, 0xef, 0x00, 0x13, 0xc5, 0xd4, 0x47, 0x40, 
  0x1a, 0x1c, 0xe6, 0x00, 0x09, 0xad, 0xe8, 0x20, 0xc7, 0x0b, 0x14, 0x2e, 
  0x26, 0x30, 0x22, 0xe1, 0x35, 0x17, 0xd7, 0x0c, 0xfb, 0x31, 0x0b, 0x38, 
  0x34, 0x1a, 0x0a, 0xff, 0xe0, 0x12, 0x2a, 0xe2, 0x1c, 0x3a, 0xd6, 0x0e, 
  0xdb, 0x1d, 0x2e, 0x3e, 0xf8, 0x2f, 0xcd, 0xcf, 0xc3, 0x0e, 0x0d, 0x0a, 
  0x46, 0x00, 0xfb, 0x03, 0xf4, 0x10, 0x57, 0xf7, 0xf5, 0xf3, 0x04, 0x4d, 
  0x18, 0xc7, 0x09, 0x24, 0xfe, 0xf8, 0x1f, 0x0a, 0x1a, 0x14, 0xdd, 0xd0, 
  0x0a, 0xfb, 0xff, 0xdd, 0xd6, 0x0f, 0xc4, 0x19, 0x28, 0xcd, 0x13, 0x08, 
  0x17, 0x1d, 0xe2, 0x36, 0x3c, 0xd3, 0x48, 0xad, 0x39, 0xca, 0x10, 0x2c, 
  0xe6, 0x0e, 0x3f, 0x19, 0x5b, 0xf0, 0x3b, 0xda, 0x17, 0xe8, 0xdf, 0x35, 
  0x11, 0xef, 0x55, 0xc5, 0xeb, 0xa8, 0x3a, 0xac, 0xc6, 0x3a, 0xe1, 0x07, 
  0x36, 0xc8, 0x8f, 0xda, 0x43, 0x1e, 0x26, 0x3c, 0xfd, 0xc8, 0xcb, 0x03, 
  0xe7, 0xf6, 0xe6, 0xd2, 0xd3, 0xfc, 0xf5, 0xf2, 0x17, 0x45, 0xe8, 0x05, 
  0x13, 0xd9, 0x1e, 0xed, 0x43, 0x2a, 0xf5, 0x13, 0x3a, 0xd9, 0x35, 0x03, 
  0xf9, 0xfb, 0x2c, 0x0f, 0x2d, 0xe0, 0xe5, 0xff, 0xda, 0x0f, 0xd2, 0xde, 
  0x30, 0xe2, 0x1f, 0x29, 0x2d, 0xf5, 0xe2, 0x09, 0x3e, 0xf3, 0xcb, 0xe2, 
  0xe4, 0x03, 0x29, 0xde, 0x36, 0x23, 0xc2, 0x07, 0xfc, 0xe0, 0xf0, 0xdd, 
  0xe9, 0x60, 0xdb, 0x1b, 0x30, 0x53, 0x14, 0x1a, 0xe3, 0x35, 0xbc, 0xf1, 
  0xe3, 0xe5, 0xdd, 0x2c, 0xec, 0xfb, 0xe5, 0x16, 0xff, 0xcf, 0xcc, 0x0c, 
  0x23, 0x0d, 0xef, 0x2e, 0xe4, 0x11, 0x0f, 0xbf, 0xd5, 0x35, 0xac, 0xdf, 
  0xe7, 0x11, 0xc4, 0xef, 0xed, 0x41, 0xb6, 0xda, 0xda, 0x09, 0x4c, 0x37, 
  0xe1, 0x0d, 0xfd, 0xec, 0xc0, 0xd7, 0xe4, 0xee, 0x1a, 0x08, 0x05, 0xf0, 
  0x0a, 0xf9, 0xff, 0x4b, 0x02, 0x07, 0x2d, 0xfb, 0xf6, 0xef, 0xe4, 0xd1, 
  0x1c, 0x1d, 0xdb, 0xf7, 0x09, 0x44, 0x3a, 0x0a, 0x35, 0xd9, 0x28, 0xc4, 
  0xf4, 0xe2, 0x0b, 0xf5, 0xe1, 0x0c, 0x1a, 0xca, 0x19, 0x07, 0xf5, 0xb7, 
  0xf0, 0xe4, 0xc9, 0x2d, 0x34, 0xee, 0x19, 0xf8, 0xe8, 0xef, 0x1c, 0x0c, 
  0xe1, 0xd7, 0xd1, 0xdd, 0xd3, 0xa7, 0xf6, 0xdc, 0x0c, 0x1d, 0x1e, 0x1e, 
  0xa6, 0xfe, 0xff, 0xff, 0x04, 0x00, 0x00, 0x00, 0x00, 0x01, 0x00, 0x00, 
  0xae, 0xb1, 0xff, 0xff, 0xf5, 0x6c, 0x00, 0x00, 0x4a, 0x31, 0x00, 0x00, 
  0x1b, 0xf0, 0xff, 0xff, 0x17, 0xee, 0xff, 0xff, 0x9b, 0x35, 0x00, 0x00, 
  0x35, 0x10, 0x00, 0x00, 0xb6, 0xc4, 0xff, 0xff, 0x52, 0xeb, 0xff, 0xff, 
  0xd2, 0xab, 0xff, 0xff, 0xe9, 0xbd, 0xff, 0xff, 0x78, 0xb3, 0xff, 0xff, 
  0x8f, 0x29, 0x00, 0x00, 0x9e, 0xf2, 0xff, 0xff, 0xad, 0x7d, 0xff, 0xff, 
  0xcb, 0xcc, 0xff, 0xff, 0x4e, 0x2a, 0x00, 0x00, 0xa3, 0xa4, 0xff, 0xff, 
  0x37, 0x0b, 0x00, 0x00, 0x25, 0x14, 0x00, 0x00, 0x65, 0xf8, 0xff, 0xff, 
  0x37, 0xd6, 0xff, 0xff, 0xab, 0x66, 0x00, 0x00, 0x8d, 0xdb, 0xff, 0xff, 
  0x02, 0xf6, 0xff, 0xff, 0xab, 0xcb, 0xff, 0xff, 0xd2, 0x20, 0x00, 0x00, 
  0xb3, 0xff, 0xff, 0xff, 0xf8, 0xa4, 0xff, 0xff, 0xc5, 0x03, 0x00, 0x00, 
  0x3d, 0xe6, 0xff, 0xff, 0xa9, 0xba, 0xff, 0xff, 0xfd, 0x89, 0xff, 0xff, 
  0x13, 0xd8, 0xff, 0xff, 0x96, 0xed, 0xff, 0xff, 0x3d, 0xc7, 0xff, 0xff, 
