// Auto-generated TFLite Micro model data
#include <cstdint>

const unsigned char g_model_data[] = {
  28,0,0,0,84,70,76,51,20,0,32,0,
  28,0,24,0,20,0,16,0,12,0,0,0,
  8,0,4,0,20,0,0,0,28,0,0,0,
  140,0,0,0,228,0,0,0,152,5,0,0,
  168,5,0,0,88,8,0,0,3,0,0,0,
  1,0,0,0,16,0,0,0,0,0,10,0,
  16,0,12,0,8,0,4,0,10,0,0,0,
  12,0,0,0,28,0,0,0,56,0,0,0,
  15,0,0,0,115,101,114,118,105,110,103,95,
  100,101,102,97,117,108,116,0,1,0,0,0,
  4,0,0,0,156,255,255,255,3,0,0,0,
  4,0,0,0,5,0,0,0,100,101,110,115,
  101,0,0,0,1,0,0,0,4,0,0,0,
  246,250,255,255,4,0,0,0,7,0,0,0,
  105,110,112,117,116,95,49,0,2,0,0,0,
  52,0,0,0,4,0,0,0,220,255,255,255,
  6,0,0,0,4,0,0,0,19,0,0,0,
  67,79,78,86,69,82,83,73,79,78,95,77,
  69,84,65,68,65,84,65,0,8,0,12,0,
  8,0,4,0,8,0,0,0,5,0,0,0,
  4,0,0,0,19,0,0,0,109,105,110,95,
  114,117,110,116,105,109,101,95,118,101,114,115,
  105,111,110,0,7,0,0,0,176,4,0,0,
  168,4,0,0,148,4,0,0,148,0,0,0,
  140,0,0,0,108,0,0,0,4,0,0,0,
  134,251,255,255,4,0,0,0,88,0,0,0,
  12,0,0,0,8,0,14,0,8,0,4,0,
  8,0,0,0,16,0,0,0,40,0,0,0,
  0,0,6,0,8,0,4,0,6,0,0,0,
  4,0,0,0,1,0,0,0,235,3,0,0,
  0,0,10,0,16,0,12,0,8,0,4,0,
  10,0,0,0,2,0,0,0,2,0,0,0,
  4,0,0,0,6,0,0,0,50,46,49,48,
  46,49,0,0,234,251,255,255,4,0,0,0,
  16,0,0,0,49,46,49,52,46,48,0,0,
  0,0,0,0,0,0,0,0,108,251,255,255,
  10,252,255,255,4,0,0,0,232,3,0,0,
  44,229,51,248,243,65,239,21,47,241,239,240,
  243,242,15,11,26,12,29,208,0,15,15,12,
  14,205,14,18,224,220,21,37,10,35,11,227,
  247,248,237,231,7,7,250,14,214,221,221,40,
  234,6,254,243,219,232,20,227,252,191,1,22,
  20,33,2,251,11,239,232,58,11,0,239,8,
  8,8,60,215,224,225,3,205,0,240,21,233,
  4,233,203,28,246,0,247,16,244,53,220,22,
  1,246,4,16,224,244,244,9,14,156,210,238,
  17,223,23,17,229,248,241,226,246,7,207,218,
  8,24,2,9,226,4,222,222,226,53,250,3,
  235,241,22,42,243,24,13,9,225,248,233,251,
  11,233,127,190,245,244,25,238,14,249,27,255,
  25,237,64,222,30,238,190,30,203,9,227,246,
  246,17,30,254,212,249,4,29,25,246,61,179,
  17,208,48,60,252,4,25,45,245,241,242,21,
  39,246,16,7,24,25,12,232,31,251,238,243,
  8,17,8,58,8,238,4,238,36,55,15,24,
  13,254,7,5,7,218,8,22,251,171,251,6,
  35,247,11,203,4,12,13,10,28,11,43,244,
  1,250,14,17,19,227,226,251,2,161,39,224,
  8,6,33,10,212,16,252,251,12,246,10,26,
  20,244,251,11,56,223,204,2,249,240,248,242,
  252,13,235,63,25,2,20,241,31,18,247,254,
  235,216,213,27,226,246,22,255,21,222,247,10,
  222,226,34,210,30,25,254,49,252,4,22,241,
  52,13,255,253,220,248,19,16,42,3,224,6,
  24,4,236,27,11,37,243,233,225,230,9,236,
  7,57,14,20,252,34,75,1,9,13,239,253,
  17,7,237,234,252,10,2,212,14,237,5,74,
  12,44,238,10,251,236,2,222,255,248,236,238,
  9,243,28,8,32,9,13,226,231,27,238,2,
  4,238,6,241,241,3,1,2,231,2,239,233,
  10,235,4,196,20,235,3,223,80,22,3,232,
  239,254,11,27,247,6,245,0,221,1,230,19,
  253,239,24,10,253,223,239,30,235,7,254,24,
  210,232,251,12,5,24,5,1,107,229,220,33,
  6,234,39,35,254,229,7,236,0,20,16,225,
  22,60,244,9,244,247,30,5,1,36,236,37,
  33,9,207,191,198,237,31,226,250,214,12,6,
  236,239,71,219,19,246,48,244,23,234,16,211,
  225,211,208,7,240,232,250,27,213,3,251,235,
  2,215,21,255,243,236,24,23,228,233,25,33,
  4,12,251,29,232,245,3,223,6,245,235,19,
  5,251,201,22,10,245,23,22,7,237,229,223,
  20,32,251,186,241,8,71,8,3,238,32,18,
  227,12,247,230,32,248,12,245,13,203,227,249,
  242,37,14,216,245,233,5,3,215,227,18,247,
  18,247,250,8,4,16,253,234,24,210,20,241,
  247,168,6,31,242,17,211,235,224,11,5,233,
  18,13,0,11,13,29,247,49,36,12,36,6,
  240,232,213,213,20,231,16,2,4,248,8,1,
  251,25,210,7,1,9,247,32,91,10,16,245,
  35,214,19,242,253,242,26,230,3,19,26,243,
  230,28,8,206,248,13,19,255,205,14,1,35,
  247,209,6,40,248,239,10,7,253,21,248,5,
  237,247,45,246,237,33,13,58,247,8,2,1,
  5,1,198,251,255,231,233,249,33,243,246,255,
  219,37,2,164,31,27,244,90,3,249,244,230,
  251,12,250,244,220,56,246,59,17,202,28,8,
  6,239,13,13,245,9,5,252,26,252,11,20,
  12,35,229,231,9,229,0,14,244,247,214,4,
  255,28,11,248,242,248,237,9,223,194,6,238,
  10,6,3,17,253,18,237,225,227,246,74,251,
  237,1,252,32,211,156,4,250,232,4,24,42,
  202,234,202,225,224,17,0,12,226,255,7,6,
  216,230,251,217,16,19,0,29,35,24,242,33,
  16,17,12,218,43,246,253,243,227,252,240,229,
  0,0,213,11,240,4,31,5,19,74,22,23,
  24,224,34,4,245,228,62,249,239,255,238,231,
  248,20,13,221,28,222,1,6,14,248,3,39,
  241,249,243,8,2,238,24,246,14,249,242,237,
  243,248,215,16,250,251,248,7,243,225,8,207,
  225,9,230,244,28,5,248,12,8,249,244,7,
  11,12,16,13,6,21,216,211,3,18,15,29,
  18,249,237,22,12,248,56,1,197,24,7,7,
  20,247,223,246,10,252,8,242,81,2,235,1,
  2,3,238,202,221,255,1,44,254,1,35,223,
  30,10,17,56,255,25,13,251,34,251,31,205,
  0,215,44,245,252,235,237,220,30,33,15,226,
  4,24,23,238,199,252,223,72,4,0,13,8,
  56,225,3,20,236,240,224,254,63,1,79,30,
  14,251,22,4,248,245,231,177,0,9,253,1,
  48,8,17,231,0,0,6,0,8,0,4,0,
  6,0,0,0,4,0,0,0,4,0,0,0,
  6,156,0,0,124,255,255,255,128,255,255,255,
  15,0,0,0,77,76,73,82,32,67,111,110,
  118,101,114,116,101,100,46,0,1,0,0,0,
  20,0,0,0,0,0,14,0,24,0,20,0,
  16,0,12,0,8,0,4,0,14,0,0,0,
  20,0,0,0,28,0,0,0,100,0,0,0,
  104,0,0,0,108,0,0,0,4,0,0,0,
  109,97,105,110,0,0,0,0,1,0,0,0,
  20,0,0,0,0,0,14,0,20,0,0,0,
  16,0,12,0,11,0,4,0,14,0,0,0,
  20,0,0,0,0,0,0,8,16,0,0,0,
  20,0,0,0,4,0,4,0,4,0,0,0,
  1,0,0,0,3,0,0,0,3,0,0,0,
  0,0,0,0,2,0,0,0,1,0,0,0,
  1,0,0,0,3,0,0,0,1,0,0,0,
  0,0,0,0,4,0,0,0,148,1,0,0,
  4,1,0,0,128,0,0,0,4,0,0,0,
  146,254,255,255,0,0,0,1,24,0,0,0,
  32,0,0,0,60,0,0,0,4,0,0,0,
  0,0,0,9,80,0,0,0,2,0,0,0,
  255,255,255,255,1,0,0,0,124,254,255,255,
  8,0,0,0,16,0,0,0,1,0,0,0,
  128,255,255,255,255,255,255,255,1,0,0,0,
  236,76,65,62,25,0,0,0,83,116,97,116,
  101,102,117,108,80,97,114,116,105,116,105,111,
  110,101,100,67,97,108,108,58,48,0,0,0,
  2,0,0,0,1,0,0,0,1,0,0,0,
  150,255,255,255,0,0,0,1,20,0,0,0,
  52,0,0,0,3,0,0,0,0,0,0,9,
  68,0,0,0,228,254,255,255,8,0,0,0,
  20,0,0,0,1,0,0,0,0,0,0,0,
  0,0,0,0,0,0,0,0,1,0,0,0,
  235,218,37,62,23,0,0,0,115,101,113,117,
  101,110,116,105,97,108,47,100,101,110,115,101,
  47,77,97,116,77,117,108,0,2,0,0,0,
  1,0,0,0,232,3,0,0,0,0,22,0,
  28,0,24,0,23,0,16,0,12,0,8,0,
  0,0,0,0,0,0,7,0,22,0,0,0,
  0,0,0,1,20,0,0,0,52,0,0,0,
  2,0,0,0,0,0,0,2,84,0,0,0,
  100,255,255,255,8,0,0,0,20,0,0,0,
  1,0,0,0,0,0,0,0,0,0,0,0,
  0,0,0,0,1,0,0,0,109,129,166,58,
  39,0,0,0,115,101,113,117,101,110,116,105,
  97,108,47,100,101,110,115,101,47,66,105,97,
  115,65,100,100,47,82,101,97,100,86,97,114,
  105,97,98,108,101,79,112,0,1,0,0,0,
  1,0,0,0,0,0,22,0,32,0,28,0,
  27,0,20,0,16,0,12,0,0,0,0,0,
  8,0,7,0,22,0,0,0,0,0,0,1,
  24,0,0,0,44,0,0,0,72,0,0,0,
  1,0,0,0,0,0,0,9,92,0,0,0,
  2,0,0,0,255,255,255,255,232,3,0,0,
  12,0,12,0,0,0,0,0,8,0,4,0,
  12,0,0,0,8,0,0,0,16,0,0,0,
  1,0,0,0,255,255,255,255,255,255,255,255,
  1,0,0,0,129,128,0,60,25,0,0,0,
  115,101,114,118,105,110,103,95,100,101,102,97,
  117,108,116,95,105,110,112,117,116,95,49,58,
  48,0,0,0,2,0,0,0,1,0,0,0,
  232,3,0,0,1,0,0,0,16,0,0,0,
  12,0,16,0,15,0,0,0,8,0,4,0,
  12,0,0,0,9,0,0,0,4,0,0,0,
  0,0,0,9,
};
const int g_model_data_len = 2224;
