// Auto-generated TFLite Micro model data
#include <cstdint>

const unsigned char g_model_data[] = {
  28,0,0,0,84,70,76,51,20,0,32,0,
  28,0,24,0,20,0,16,0,12,0,0,0,
  8,0,4,0,20,0,0,0,28,0,0,0,
  140,0,0,0,228,0,0,0,152,5,0,0,
  168,5,0,0,88,8,0,0,3,0,0,0,
  1,0,0,0,16,0,0,0,0,0,10,0,
  16,0,12,0,8,0,4,0,10,0,0,0,
  12,0,0,0,28,0,0,0,56,0,0,0,
  15,0,0,0,115,101,114,118,105,110,103,95,
  100,101,102,97,117,108,116,0,1,0,0,0,
  4,0,0,0,156,255,255,255,3,0,0,0,
  4,0,0,0,5,0,0,0,100,101,110,115,
  101,0,0,0,1,0,0,0,4,0,0,0,
  246,250,255,255,4,0,0,0,7,0,0,0,
  105,110,112,117,116,95,49,0,2,0,0,0,
  52,0,0,0,4,0,0,0,220,255,255,255,
  6,0,0,0,4,0,0,0,19,0,0,0,
  67,79,78,86,69,82,83,73,79,78,95,77,
  69,84,65,68,65,84,65,0,8,0,12,0,
  8,0,4,0,8,0,0,0,5,0,0,0,
  4,0,0,0,19,0,0,0,109,105,110,95,
  114,117,110,116,105,109,101,95,118,101,114,115,
  105,111,110,0,7,0,0,0,176,4,0,0,
  168,4,0,0,148,4,0,0,148,0,0,0,
  140,0,0,0,108,0,0,0,4,0,0,0,
  134,251,255,255,4,0,0,0,88,0,0,0,
  12,0,0,0,8,0,14,0,8,0,4,0,
  8,0,0,0,16,0,0,0,40,0,0,0,
  0,0,6,0,8,0,4,0,6,0,0,0,
  4,0,0,0,1,0,0,0,235,3,0,0,
  0,0,10,0,16,0,12,0,8,0,4,0,
  10,0,0,0,2,0,0,0,2,0,0,0,
  4,0,0,0,6,0,0,0,50,46,49,48,
  46,49,0,0,234,251,255,255,4,0,0,0,
  16,0,0,0,49,46,49,52,46,48,0,0,
  0,0,0,0,0,0,0,0,108,251,255,255,
  10,252,255,255,4,0,0,0,232,3,0,0,
  0,239,0,219,0,250,242,37,211,0,60,21,
  87,233,222,255,8,240,10,8,230,214,6,0,
  0,207,23,0,1,251,27,241,247,5,10,0,
  4,244,11,255,217,245,233,5,225,82,241,181,
  0,1,25,0,245,24,129,35,250,51,254,13,
  244,1,0,0,196,10,228,236,0,244,229,229,
  79,9,216,0,0,0,228,0,0,28,18,0,
  0,2,0,223,198,249,6,10,9,0,0,0,
  0,3,28,248,5,230,34,179,221,253,0,223,
  41,0,0,249,233,24,0,229,41,48,0,253,
  9,226,1,97,254,43,240,248,0,160,0,228,
  0,32,0,16,11,229,19,7,0,247,19,250,
  25,3,236,251,242,11,2,13,238,16,24,8,
  2,0,0,3,0,9,214,22,243,14,73,205,
  249,28,0,230,220,244,3,19,59,2,203,0,
  244,7,0,0,10,239,227,0,0,1,0,0,
  250,218,3,239,246,224,255,254,237,101,0,6,
  21,0,3,0,83,31,234,37,0,2,223,0,
  7,0,255,44,248,244,182,3,0,253,5,231,
  5,219,10,203,41,25,9,0,13,237,216,211,
  9,2,66,218,10,0,255,239,0,247,251,9,
  8,255,0,250,0,58,1,237,0,0,0,219,
  6,0,16,0,254,8,0,14,4,242,243,253,
  3,0,222,14,32,251,12,6,253,218,12,33,
  253,9,24,255,0,250,211,231,6,42,252,0,
  254,41,237,252,3,3,0,0,248,20,0,0,
  0,250,1,6,234,230,29,24,190,28,0,0,
  0,0,5,0,248,10,18,5,0,0,231,212,
  30,249,0,0,0,242,247,0,10,1,0,235,
  23,55,0,0,192,4,14,206,204,108,15,224,
  22,233,216,9,225,238,0,0,0,244,248,222,
  23,234,251,5,242,32,30,10,234,57,45,0,
  16,255,253,0,6,5,71,0,83,251,5,10,
  0,8,226,35,255,12,42,185,225,23,1,18,
  7,4,206,0,0,10,220,229,223,239,7,247,
  1,254,75,217,16,2,247,0,251,236,255,0,
  254,0,253,231,244,7,216,205,13,0,242,244,
  0,7,243,254,240,241,14,247,234,0,201,0,
  0,3,10,248,250,200,200,238,19,21,4,244,
  18,235,4,0,0,37,0,0,14,0,233,240,
  9,2,0,3,0,19,15,0,27,223,237,69,
  0,236,218,0,253,10,242,18,252,79,12,1,
  209,0,0,14,230,0,215,0,246,254,30,233,
  28,254,38,255,1,219,0,17,0,181,0,83,
  4,252,0,248,235,0,219,251,13,0,42,0,
  1,14,0,1,5,13,0,8,230,0,27,0,
  250,240,12,0,5,249,3,12,0,0,241,36,
  0,33,240,0,255,255,19,200,247,0,67,1,
  0,0,237,70,233,0,0,0,50,0,252,0,
  231,31,0,0,15,252,221,26,255,243,0,244,
  239,20,0,31,32,19,252,2,238,3,243,71,
  226,254,254,15,235,24,0,217,219,243,219,0,
  203,0,254,0,244,0,0,237,26,253,0,252,
  200,251,17,3,0,2,254,0,35,210,0,13,
  3,0,1,19,210,219,214,16,6,0,0,25,
  0,5,241,3,234,184,0,235,238,11,0,2,
  13,212,7,10,253,20,238,251,233,13,245,245,
  232,0,0,235,0,0,237,253,16,6,250,3,
  3,251,0,24,245,255,14,3,45,20,9,254,
  8,0,20,59,51,6,3,0,1,77,1,34,
  249,0,5,235,0,227,182,0,255,233,13,0,
  0,235,21,254,0,0,236,0,20,2,2,6,
  238,0,32,0,0,219,5,232,239,31,254,0,
  249,0,17,0,255,239,236,0,221,24,32,0,
  8,24,3,0,240,161,17,15,246,21,225,222,
  9,181,204,51,0,0,232,16,27,239,0,0,
  52,0,5,0,1,254,0,239,0,2,4,0,
  4,3,46,14,1,0,255,254,237,3,214,253,
  220,0,0,161,61,0,225,0,0,3,218,245,
  12,4,51,0,252,20,1,0,11,222,254,240,
  252,23,6,17,247,6,250,0,240,3,248,20,
  34,0,254,250,251,1,18,0,246,0,0,5,
  0,0,0,0,0,248,17,12,245,35,12,255,
  14,11,20,1,30,15,232,255,0,43,5,238,
  253,7,5,15,0,0,45,0,248,173,235,223,
  0,0,99,0,37,219,230,253,247,247,211,0,
  254,0,247,18,146,239,0,250,250,239,0,254,
  0,226,244,246,0,74,7,208,255,11,0,15,
  0,0,35,4,0,240,102,219,235,0,17,0,
  231,0,9,243,0,13,253,0,45,245,0,22,
  0,255,254,0,14,0,21,0,8,193,32,0,
  247,58,3,230,53,66,246,26,234,223,231,0,
  77,16,45,18,13,241,29,0,250,217,30,0,
  13,0,23,4,0,0,6,0,8,0,4,0,
  6,0,0,0,4,0,0,0,4,0,0,0,
  38,238,2,0,124,255,255,255,128,255,255,255,
  15,0,0,0,77,76,73,82,32,67,111,110,
  118,101,114,116,101,100,46,0,1,0,0,0,
  20,0,0,0,0,0,14,0,24,0,20,0,
  16,0,12,0,8,0,4,0,14,0,0,0,
  20,0,0,0,28,0,0,0,100,0,0,0,
  104,0,0,0,108,0,0,0,4,0,0,0,
  109,97,105,110,0,0,0,0,1,0,0,0,
  20,0,0,0,0,0,14,0,20,0,0,0,
  16,0,12,0,11,0,4,0,14,0,0,0,
  20,0,0,0,0,0,0,8,16,0,0,0,
  20,0,0,0,4,0,4,0,4,0,0,0,
  1,0,0,0,3,0,0,0,3,0,0,0,
  0,0,0,0,2,0,0,0,1,0,0,0,
  1,0,0,0,3,0,0,0,1,0,0,0,
  0,0,0,0,4,0,0,0,148,1,0,0,
  4,1,0,0,128,0,0,0,4,0,0,0,
  146,254,255,255,0,0,0,1,24,0,0,0,
  32,0,0,0,60,0,0,0,4,0,0,0,
  0,0,0,9,80,0,0,0,2,0,0,0,
  255,255,255,255,1,0,0,0,124,254,255,255,
  8,0,0,0,16,0,0,0,1,0,0,0,
  128,255,255,255,255,255,255,255,1,0,0,0,
  202,65,30,62,25,0,0,0,83,116,97,116,
  101,102,117,108,80,97,114,116,105,116,105,111,
  110,101,100,67,97,108,108,58,48,0,0,0,
  2,0,0,0,1,0,0,0,1,0,0,0,
  150,255,255,255,0,0,0,1,20,0,0,0,
  52,0,0,0,3,0,0,0,0,0,0,9,
  68,0,0,0,228,254,255,255,8,0,0,0,
  20,0,0,0,1,0,0,0,0,0,0,0,
  0,0,0,0,0,0,0,0,1,0,0,0,
  32,27,82,62,23,0,0,0,115,101,113,117,
  101,110,116,105,97,108,47,100,101,110,115,101,
  47,77,97,116,77,117,108,0,2,0,0,0,
  1,0,0,0,232,3,0,0,0,0,22,0,
  28,0,24,0,23,0,16,0,12,0,8,0,
  0,0,0,0,0,0,7,0,22,0,0,0,
  0,0,0,1,20,0,0,0,52,0,0,0,
  2,0,0,0,0,0,0,2,84,0,0,0,
  100,255,255,255,8,0,0,0,20,0,0,0,
  1,0,0,0,0,0,0,0,0,0,0,0,
  0,0,0,0,1,0,0,0,15,238,210,58,
  39,0,0,0,115,101,113,117,101,110,116,105,
  97,108,47,100,101,110,115,101,47,66,105,97,
  115,65,100,100,47,82,101,97,100,86,97,114,
  105,97,98,108,101,79,112,0,1,0,0,0,
  1,0,0,0,0,0,22,0,32,0,28,0,
  27,0,20,0,16,0,12,0,0,0,0,0,
  8,0,7,0,22,0,0,0,0,0,0,1,
  24,0,0,0,44,0,0,0,72,0,0,0,
  1,0,0,0,0,0,0,9,92,0,0,0,
  2,0,0,0,255,255,255,255,232,3,0,0,
  12,0,12,0,0,0,0,0,8,0,4,0,
  12,0,0,0,8,0,0,0,16,0,0,0,
  1,0,0,0,255,255,255,255,255,255,255,255,
  1,0,0,0,129,128,0,60,25,0,0,0,
  115,101,114,118,105,110,103,95,100,101,102,97,
  117,108,116,95,105,110,112,117,116,95,49,58,
  48,0,0,0,2,0,0,0,1,0,0,0,
  232,3,0,0,1,0,0,0,16,0,0,0,
  12,0,16,0,15,0,0,0,8,0,4,0,
  12,0,0,0,9,0,0,0,4,0,0,0,
  0,0,0,9,
};
const int g_model_data_len = 2224;
